{
  "version": "1.0",
  "truncation": null,
  "padding": null,
  "added_tokens": [
    {
      "id": 0,
      "content": "<UNK>",
      "single_word": false,
      "lstrip": false,
      "rstrip": false,
      "normalized": false,
      "special": true
    },
    {
      "id": 1,
      "content": "<PAD>",
      "single_word": false,
      "lstrip": false,
      "rstrip": false,
      "normalized": false,
      "special": true
    },
    {
      "id": 2,
      "content": "<BOS>",
      "single_word": false,
      "lstrip": false,
      "rstrip": false,
      "normalized": false,
      "special": true
    },
    {
      "id": 3,
      "content": "<EOS>",
      "single_word": false,
      "lstrip": false,
      "rstrip": false,
      "normalized": false,
      "special": true
    }
  ],
  "normalizer": {
    "type": "Sequence",
    "normalizers": [
      {
        "type": "NFD"
      },
      {
        "type": "Lowercase"
      }
    ]
  },
  "pre_tokenizer": {
    "type": "Whitespace"
  },
  "post_processor": null,
  "decoder": null,
  "model": {
    "type": "BPE",
    "dropout": null,
    "unk_token": null,
    "continuing_subword_prefix": null,
    "end_of_word_suffix": null,
    "fuse_unk": false,
    "byte_fallback": false,
    "ignore_merges": false,
    "vocab": {
      "<UNK>": 0,
      "<PAD>": 1,
      "<BOS>": 2,
      "<EOS>": 3,
      "(": 4,
      ")": 5,
      ",": 6,
      "-": 7,
      ".": 8,
      ":": 9,
      ";": 10,
      "<": 11,
      ">": 12,
      "_": 13,
      "a": 14,
      "b": 15,
      "c": 16,
      "d": 17,
      "e": 18,
      "f": 19,
      "g": 20,
      "h": 21,
      "i": 22,
      "k": 23,
      "l": 24,
      "m": 25,
      "n": 26,
      "o": 27,
      "p": 28,
      "r": 29,
      "s": 30,
      "t": 31,
      "u": 32,
      "v": 33,
      "x": 34,
      "y": 35,
      "̆": 36,
      "̈": 37,
      "а": 38,
      "б": 39,
      "в": 40,
      "г": 41,
      "д": 42,
      "е": 43,
      "ж": 44,
      "з": 45,
      "и": 46,
      "к": 47,
      "л": 48,
      "м": 49,
      "н": 50,
      "о": 51,
      "п": 52,
      "р": 53,
      "с": 54,
      "т": 55,
      "у": 56,
      "ф": 57,
      "х": 58,
      "ц": 59,
      "ч": 60,
      "ш": 61,
      "щ": 62,
      "ъ": 63,
      "ы": 64,
      "ь": 65,
      "э": 66,
      "ю": 67,
      "я": 68,
      "nu": 69,
      "num": 70,
      "ст": 71,
      "ро": 72,
      "ск": 73,
      "ан": 74,
      "й": 75,
      "об": 76,
      "ни": 77,
      "ер": 78,
      "ле": 79,
      ">,": 80,
      "ми": 81,
      ">-": 82,
      "од": 83,
      ">-<": 84,
      "ре": 85,
      "ра": 86,
      "ва": 87,
      "нн": 88,
      "ерс": 89,
      "го": 90,
      "ла": 91,
      "ко": 92,
      "ор": 93,
      "на": 94,
      "мо": 95,
      "ско": 96,
      "ет": 97,
      "не": 98,
      "анк": 99,
      "лек": 100,
      "де": 101,
      "ства": 102,
      "ост": 103,
      "банк": 104,
      "рот": 105,
      "ии": 106,
      "банкрот": 107,
      "га": 108,
      "ния": 109,
      "уп": 110,
      "ай": 111,
      "но": 112,
      "ар": 113,
      ">.": 114,
      "мит": 115,
      "ант": 116,
      "ком": 117,
      "имо": 118,
      "вле": 119,
      "оф": 120,
      "пи": 121,
      "явле": 122,
      "нны": 123,
      "под": 124,
      "объ": 125,
      "тро": 126,
      "комм": 127,
      "объявле": 128,
      "ход": 129,
      "элек": 130,
      "электро": 131,
      "газ": 132,
      "дост": 133,
      "упа": 134,
      "ску": 135,
      "лам": 136,
      "еты": 137,
      "банкротства": 138,
      "фай": 139,
      "верс": 140,
      "обход": 141,
      "мить": 142,
      "писку": 143,
      "нные": 144,
      "df": 145,
      "pdf": 146,
      "ерсант": 147,
      "ормить": 148,
      "необход": 149,
      "ниями": 150,
      "оформить": 151,
      "подписку": 152,
      "коммерсант": 153,
      "объявлениями": 154,
      "электронные": 155,
      "газеты": 156,
      "доступа": 157,
      "банкротствах": 158,
      "файлам": 159,
      "версии": 160,
      "необходимо": 161,
      "коммерсантъ": 162,
      "ше": 163,
      "ли": 164,
      "ем": 165,
      "инн": 166,
      "шени": 167,
      "ев": 168,
      "ая": 169,
      "би": 170,
      "ской": 171,
      "ов": 172,
      "обл": 173,
      "рес": 174,
      "лс": 175,
      "род": 176,
      ".,": 177,
      "сни": 178,
      "снилс": 179,
      "ме": 180,
      "ская": 181,
      "дел": 182,
      "раж": 183,
      "город": 184,
      "решени": 185,
      "решением": 186,
      "су": 187,
      "ий": 188,
      "ль": 189,
      "ад": 190,
      "делу": 191,
      "бит": 192,
      "арбит": 193,
      "арбитраж": 194,
      "суд": 195,
      "ас": 196,
      "ич": 197,
      "мест": 198,
      "ри": 199,
      "ны": 200,
      "кра": 201,
      "ласт": 202,
      "ка": 203,
      "област": 204,
      "во": 205,
      ">.<": 206,
      "адрес": 207,
      "за": 208,
      "ул": 209,
      "ский": 210,
      "no": 211,
      "ного": 212,
      "ров": 213,
      "области": 214,
      "суда": 215,
      "арбитражного": 216,
      "ия": 217,
      "ур": 218,
      "ского": 219,
      "та": 220,
      ">)": 221,
      "ще": 222,
      "ин": 223,
      ".:": 224,
      "ве": 225,
      "ом": 226,
      "али": 227,
      "от": 228,
      "городр": 229,
      "им": 230,
      "местор": 231,
      "при": 232,
      "ки": 233,
      "он": 234,
      "зац": 235,
      "реали": 236,
      "респ": 237,
      "ге": 238,
      "реализац": 239,
      "ный": 240,
      "приз": 241,
      ".<": 242,
      "ля": 243,
      "рож": 244,
      "ина": 245,
      "гр": 246,
      "рай": 247,
      "лекс": 248,
      "алекс": 249,
      "анд": 250,
      "призн": 251,
      "иму": 252,
      "са": 253,
      "место": 254,
      "ана": 255,
      "щества": 256,
      "гор": 257,
      "по": 258,
      "кв": 259,
      "уб": 260,
      "реализация": 261,
      "имущества": 262,
      "че": 263,
      "яр": 264,
      "ди": 265,
      "евич": 266,
      "район": 267,
      "крас": 268,
      "ма": 269,
      "ку": 270,
      "евна": 271,
      "дер": 272,
      "огр": 273,
      "вве": 274,
      "про": 275,
      "ба": 276,
      "края": 277,
      "дена": 278,
      "ова": 279,
      "убли": 280,
      "дан": 281,
      "лов": 282,
      "банкротом": 283,
      "дерев": 284,
      "деревн": 285,
      "республи": 286,
      "введена": 287,
      "кт": 288,
      "моск": 289,
      "дения": 290,
      "да": 291,
      "ги": 292,
      "лени": 293,
      "сков": 294,
      "александ": 295,
      "арбитражный": 296,
      "москов": 297,
      ">.,": 298,
      "отно": 299,
      "шении": 300,
      "рождения": 301,
      "отношении": 302,
      "вла": 303,
      "це": 304,
      "деревняр": 305,
      "ная": 306,
      "си": 307,
      "кур": 308,
      "влади": 309,
      "гра": 310,
      "ду": 311,
      "те": 312,
      "ули": 313,
      "нов": 314,
      "бур": 315,
      "мар": 316,
      "сер": 317,
      "ви": 318,
      "граж": 319,
      "ровна": 320,
      "ца": 321,
      "дело": 322,
      "град": 323,
      "ой": 324,
      "стра": 325,
      "граждан": 326,
      "ани": 327,
      "нод": 328,
      "ново": 329,
      "вер": 330,
      "со": 331,
      "вет": 332,
      "ло": 333,
      "владими": 334,
      "ков": 335,
      "серге": 336,
      "тор": 337,
      "край": 338,
      "рович": 339,
      "ал": 340,
      "фин": 341,
      "рав": 342,
      "признан": 343,
      "ство": 344,
      "краснод": 345,
      "краснодар": 346,
      "бин": 347,
      "кр": 348,
      "улица": 349,
      "проце": 350,
      "пет": 351,
      "реги": 352,
      "республики": 353,
      "бе": 354,
      "ющ": 355,
      "гражданина": 356,
      "ав": 357,
      "управ": 358,
      "дура": 359,
      "то": 360,
      "стан": 361,
      "процедура": 362,
      "управля": 363,
      "тов": 364,
      "москва": 365,
      "анов": 366,
      "управляющ": 367,
      "тат": 368,
      "ен": 369,
      "челя": 370,
      "ции": 371,
      "ным": 372,
      "сов": 373,
      "обще": 374,
      "признана": 375,
      "огрн": 376,
      "челябин": 377,
      "ив": 378,
      "ха": 379,
      "(<": 380,
      "пер": 381,
      ">;": 382,
      "регистра": 383,
      "тель": 384,
      "общество": 385,
      "нико": 386,
      "стве": 387,
      "иче": 388,
      ",<": 389,
      "кон": 390,
      "ча": 391,
      "ственн": 392,
      "гов": 393,
      "ир": 394,
      "ью": 395,
      "пре": 396,
      "ря": 397,
      "ср": 398,
      "мен": 399,
      "осто": 400,
      "ответ": 401,
      "ева": 402,
      "аниче": 403,
      "нной": 404,
      "остью": 405,
      "ограниче": 406,
      "ственностью": 407,
      "ответственностью": 408,
      "ограниченной": 409,
      "область": 410,
      "лю": 411,
      "бург": 412,
      "регистрации": 413,
      "кова": 414,
      "стр": 415,
      "ман": 416,
      "алексе": 417,
      "нес": 418,
      "стов": 419,
      "никола": 420,
      "вы": 421,
      "кут": 422,
      "дата": 423,
      "московской": 424,
      "московская": 425,
      "остоя": 426,
      "несостоя": 427,
      "нград": 428,
      "бир": 429,
      "несостоятель": 430,
      "цы": 431,
      "еле": 432,
      "сибир": 433,
      "викт": 434,
      "опре": 435,
      "рт": 436,
      "вол": 437,
      "опреде": 438,
      "красно": 439,
      "определени": 440,
      "ья": 441,
      "курс": 442,
      "татар": 443,
      "ру": 444,
      "тай": 445,
      "конкурс": 446,
      "определением": 447,
      "бо": 448,
      "гу": 449,
      "до": 450,
      "рос": 451,
      "управляющий": 452,
      "иркут": 453,
      "упр": 454,
      "андре": 455,
      "самар": 456,
      "лен": 457,
      "алтай": 458,
      "тю": 459,
      "новосибир": 460,
      "петер": 461,
      "санк": 462,
      "ростов": 463,
      "санкт": 464,
      "ниж": 465,
      "города": 466,
      "ци": 467,
      "поль": 468,
      "рен": 469,
      "еме": 470,
      "лья": 471,
      "мур": 472,
      "мор": 473,
      "хан": 474,
      "москвы": 475,
      "реализации": 476,
      "пос": 477,
      "нец": 478,
      "страни": 479,
      "ым": 480,
      "краснодарского": 481,
      "тюмен": 482,
      "страницы": 483,
      "воро": 484,
      "год": 485,
      "сть": 486,
      "орг": 487,
      "ленинград": 488,
      "несостоятельным": 489,
      "юр": 490,
      "став": 491,
      "(,": 492,
      "кс": 493,
      "торгов": 494,
      "татарстан": 495,
      "зан": 496,
      "рополь": 497,
      "ское": 498,
      "лав": 499,
      "республика": 500,
      "органи": 501,
      "дмит": 502,
      "тер": 503,
      "ное": 504,
      "ставрополь": 505,
      "ьевич": 506,
      "ти": 507,
      "ши": 508,
      "ратов": 509,
      "ша": 510,
      "ной": 511,
      "викто": 512,
      "ту": 513,
      "чу": 514,
      "шко": 515,
      "евге": 516,
      "иванов": 517,
      "кеме": 518,
      "пу": 519,
      "волго": 520,
      "кар": 521,
      "пе": 522,
      "пр": 523,
      "затор": 524,
      "чи": 525,
      "рова": 526,
      "александровна": 527,
      "краснояр": 528,
      "организатор": 529,
      "волгоград": 530,
      "дов": 531,
      "орен": 532,
      "ся": 533,
      "свер": 534,
      "челябинской": 535,
      "чер": 536,
      "рез": 537,
      "асср": 538,
      "александрович": 539,
      "владимировна": 540,
      "сверд": 541,
      "твер": 542,
      "ровской": 543,
      "урож": 544,
      "нова": 545,
      "саратов": 546,
      "она": 547,
      "ьевна": 548,
      "неж": 549,
      "),": 550,
      "местож": 551,
      "се": 552,
      "стро": 553,
      "городской": 554,
      "бов": 555,
      "нский": 556,
      "лия": 557,
      "перм": 558,
      "датаместо": 559,
      "оренбург": 560,
      "свердлов": 561,
      "краснодарский": 562,
      "конкурсный": 563,
      "вод": 564,
      "лу": 565,
      "бар": 566,
      "финан": 567,
      "росс": 568,
      "воронеж": 569,
      "бер": 570,
      "кры": 571,
      "бел": 572,
      "хо": 573,
      "александр": 574,
      "финансов": 575,
      "вал": 576,
      "омской": 577,
      "сергеевич": 578,
      "бря": 579,
      "оль": 580,
      "хай": 581,
      "васи": 582,
      "рина": 583,
      ">).": 584,
      "ган": 585,
      "льевна": 586,
      "ян": 587,
      "часть": 588,
      "ты": 589,
      "фу": 590,
      "евны": 591,
      "дж": 592,
      "лова": 593,
      "слав": 594,
      "реш": 595,
      "остан": 596,
      "анато": 597,
      "башко": 598,
      "челябинская": 599,
      "ртостан": 600,
      "башкортостан": 601,
      ".;": 602,
      "кин": 603,
      "му": 604,
      "сср": 605,
      "михай": 606,
      "асия": 607,
      "примор": 608,
      "сергеевна": 609,
      "бр": 610,
      "ниже": 611,
      "ак": 612,
      "хов": 613,
      "валер": 614,
      ":<": 615,
      "сро": 616,
      "ний": 617,
      "бурга": 618,
      "петербурга": 619,
      "из": 620,
      "владимир": 621,
      "владимирович": 622,
      "ростовской": 623,
      "финансовым": 624,
      "михайлов": 625,
      "бу": 626,
      "па": 627,
      "свет": 628,
      "льная": 629,
      "самарской": 630,
      "нская": 631,
      "цк": 632,
      "кали": 633,
      "елена": 634,
      "самарская": 635,
      "ленинградской": 636,
      "фе": 637,
      "река": 638,
      "ваш": 639,
      "ната": 640,
      "городская": 641,
      "татья": 642,
      "алтайского": 643,
      "астра": 644,
      "рег": 645,
      "льевич": 646,
      "арбитражным": 647,
      "судом": 648,
      "призна": 649,
      "сергей": 650,
      "жи": 651,
      "тив": 652,
      "района": 653,
      "мурман": 654,
      "астрахан": 655,
      "анаст": 656,
      "петербург": 657,
      "бор": 658,
      "оле": 659,
      "анова": 660,
      "ровская": 661,
      "управляющим": 662,
      "бы": 663,
      "лы": 664,
      "ос": 665,
      "рий": 666,
      "ние": 667,
      "кам": 668,
      "там": 669,
      "мр": 670,
      "нт": 671,
      "ня": 672,
      "ется": 673,
      "шев": 674,
      "лина": 675,
      "катер": 676,
      "ставропольского": 677,
      "резо": 678,
      "тивная": 679,
      "нск": 680,
      "нского": 681,
      "ста": 682,
      "рово": 683,
      "вар": 684,
      "омская": 685,
      "кина": 686,
      "рожд": 687,
      "николаевна": 688,
      "иркутской": 689,
      "тюменской": 690,
      "дмитри": 691,
      "кемеровской": 692,
      "еж": 693,
      "сп": 694,
      "воло": 695,
      "инский": 696,
      "рязан": 697,
      "чуваш": 698,
      "евген": 699,
      "бай": 700,
      "нко": 701,
      "онер": 702,
      "николаевич": 703,
      "новосибирской": 704,
      "калини": 705,
      "хма": 706,
      "ция": 707,
      "член": 708,
      "ый": 709,
      "льская": 710,
      "откры": 711,
      "ольга": 712,
      "признается": 713,
      "ау": 714,
      "вич": 715,
      "екатер": 716,
      "иркутская": 717,
      "свердловской": 718,
      "светл": 719,
      "резолю": 720,
      "ят": 721,
      "пун": 722,
      "россия": 723,
      "ды": 724,
      "куз": 725,
      "баров": 726,
      "викторович": 727,
      "татьяна": 728,
      "тамбов": 729,
      "зер": 730,
      "утвер": 731,
      "ково": 732,
      "каза": 733,
      "инского": 734,
      "хабаров": 735,
      "алексей": 736,
      "алексеевич": 737,
      "алтайский": 738,
      "пункт": 739,
      "еп": 740,
      "иль": 741,
      "ания": 742,
      "городмосква": 743,
      "кру": 744,
      "ционер": 745,
      "дмитрий": 746,
      "красноярского": 747,
      "волгоградской": 748,
      "акционер": 749,
      "анастасия": 750,
      "резолютивная": 751,
      "утверж": 752,
      "гт": 753,
      "же": 754,
      "пав": 755,
      "курган": 756,
      "ростовская": 757,
      "года": 758,
      "викторовна": 759,
      "вологод": 760,
      "окт": 761,
      "пгт": 762,
      "фа": 763,
      "орлов": 764,
      "ден": 765,
      "гестан": 766,
      "хмао": 767,
      "октя": 768,
      "вя": 769,
      "гри": 770,
      "ис": 771,
      "ирина": 772,
      "ус": 773,
      "архан": 774,
      "роди": 775,
      "гражданин": 776,
      "дол": 777,
      "оренбургской": 778,
      "наталья": 779,
      "светлана": 780,
      ":.": 781,
      "аль": 782,
      "енец": 783,
      "уз": 784,
      "фи": 785,
      "цко": 786,
      "кор": 787,
      "ровны": 788,
      "омск": 789,
      "виктор": 790,
      "уроженец": 791,
      "уд": 792,
      "лет": 793,
      ">,<": 794,
      "ном": 795,
      "ево": 796,
      "каре": 797,
      "казан": 798,
      "бурят": 799,
      "енко": 800,
      "ставропольский": 801,
      "славов": 802,
      "арханге": 803,
      "амур": 804,
      "рск": 805,
      "ннад": 806,
      "дей": 807,
      "геннад": 808,
      "горь": 809,
      "деревня": 810,
      "ленина": 811,
      "нецк": 812,
      "нижегородской": 813,
      "щина": 814,
      "мир": 815,
      "липе": 816,
      "дагестан": 817,
      "улиц": 818,
      "ент": 819,
      "челябинск": 820,
      "новосибирская": 821,
      "саратовской": 822,
      "строй": 823,
      "казань": 824,
      "бурятия": 825,
      ").": 826,
      "зов": 827,
      "мск": 828,
      "нской": 829,
      "рсо": 830,
      "ром": 831,
      "бал": 832,
      "андреевич": 833,
      "павлов": 834,
      "вяче": 835,
      ":,": 836,
      "мкр": 837,
      "сь": 838,
      "юлия": 839,
      "горе": 840,
      "дени": 841,
      "льский": 842,
      "ных": 843,
      "завод": 844,
      "куй": 845,
      "андрей": 846,
      "новосибирск": 847,
      "юрьевич": 848,
      "олегов": 849,
      "зи": 850,
      "кк": 851,
      "мер": 852,
      "окру": 853,
      "улья": 854,
      "цев": 855,
      "анна": 856,
      "ники": 857,
      "льск": 858,
      "цент": 859,
      "авто": 860,
      "гущина": 861,
      "приморский": 862,
      "акционерное": 863,
      "ил": 864,
      "кас": 865,
      "кри": 866,
      "сл": 867,
      "тур": 868,
      "ады": 869,
      "инская": 870,
      "произ": 871,
      "васильевна": 872,
      "анатольевна": 873,
      "цкая": 874,
      "бори": 875,
      "казах": 876,
      "куйбы": 877,
      "производ": 878,
      "аб": 879,
      "игоре": 880,
      "усть": 881,
      "хали": 882,
      "шу": 883,
      "ярос": 884,
      "мира": 885,
      "анты": 886,
      "имов": 887,
      "кино": 888,
      "нович": 889,
      "андреевна": 890,
      "воронежской": 891,
      "приморского": 892,
      "ву": 893,
      "дм": 894,
      "их": 895,
      "мес": 896,
      "льской": 897,
      "инск": 898,
      "кировской": 899,
      "курской": 900,
      "марий": 901,
      "соци": 902,
      "крым": 903,
      "несостоятельной": 904,
      "евгений": 905,
      "урожен": 906,
      "калининград": 907,
      "екатерина": 908,
      "куйбышев": 909,
      "ярослав": 910,
      "сий": 911,
      "тина": 912,
      "ханты": 913,
      "ьев": 914,
      "ников": 915,
      "лева": 916,
      "местон": 917,
      "ото": 918,
      "макс": 919,
      "алания": 920,
      "признано": 921,
      "чат": 922,
      "мансий": 923,
      "тюменская": 924,
      "красноярский": 925,
      "белгородской": 926,
      "астраханской": 927,
      "утвержден": 928,
      "ульянов": 929,
      "центра": 930,
      "дар": 931,
      "дом": 932,
      "зе": 933,
      "пов": 934,
      "уш": 935,
      "укра": 936,
      "эл": 937,
      "степ": 938,
      "лей": 939,
      "сур": 940,
      "ассоци": 941,
      "кара": 942,
      ">),": 943,
      "сахали": 944,
      "горск": 945,
      "марина": 946,
      "верх": 947,
      "регистрация": 948,
      "ленинградская": 949,
      "евгеньевна": 950,
      "автоном": 951,
      "ассоциа": 952,
      "мет": 953,
      "пар": 954,
      "фо": 955,
      "ыш": 956,
      "сто": 957,
      ">,,": 958,
      "мол": 959,
      "деж": 960,
      "кабар": 961,
      "гры": 962,
      "дино": 963,
      "вита": 964,
      "областьот": 965,
      "алексеевна": 966,
      "кемеровская": 967,
      "тверская": 968,
      "строи": 969,
      "пермского": 970,
      "береж": 971,
      "брь": 972,
      "камчат": 973,
      "спб": 974,
      "октябрь": 975,
      "вячеславов": 976,
      "адыге": 977,
      "борисов": 978,
      "ах": 979,
      "зд": 980,
      "кан": 981,
      "кбр": 982,
      "май": 983,
      "ании": 984,
      "рат": 985,
      "наб": 986,
      "нный": 987,
      "евский": 988,
      "ные": 989,
      "ченко": 990,
      "петро": 991,
      "боль": 992,
      "россий": 993,
      "основ": 994,
      "байка": 995,
      "карелия": 996,
      "балкар": 997,
      "кабардино": 998,
      "адыгея": 999,
      "они": 1000,
      "ры": 1001,
      "сы": 1002,
      "смо": 1003,
      "ура": 1004,
      "юще": 1005,
      "югры": 1006,
      "стант": 1007,
      "ству": 1008,
      "надеж": 1009,
      "набереж": 1010,
      "льского": 1011,
      "александра": 1012,
      "хак": 1013,
      "констант": 1014,
      "свердловская": 1015,
      "округа": 1016,
      "-<": 1017,
      "зеле": 1018,
      "нер": 1019,
      "рп": 1020,
      "сз": 1021,
      "цова": 1022,
      "роман": 1023,
      "вален": 1024,
      "арме": 1025,
      "лит": 1026,
      "евка": 1027,
      "мед": 1028,
      "риг": 1029,
      "кала": 1030,
      "ногорск": 1031,
      "алина": 1032,
      "ановна": 1033,
      "иван": 1034,
      "юрьевна": 1035,
      "волгоградская": 1036,
      "оренбургская": 1037,
      "белгородская": 1038,
      "анатольевич": 1039,
      "нижегородская": 1040,
      "валерьевич": 1041,
      "мурманской": 1042,
      "дмитриевна": 1043,
      "чувашской": 1044,
      "вологодской": 1045,
      "цкой": 1046,
      "автономного": 1047,
      "ат": 1048,
      "пен": 1049,
      "руб": 1050,
      "обе": 1051,
      "миха": 1052,
      "раз": 1053,
      "наул": 1054,
      "мов": 1055,
      "нев": 1056,
      "шева": 1057,
      "каз": 1058,
      "калу": 1059,
      "ровский": 1060,
      "поме": 1061,
      "мара": 1062,
      "курская": 1063,
      "курий": 1064,
      "ковский": 1065,
      "елез": 1066,
      "иркутск": 1067,
      "нижне": 1068,
      "мордов": 1069,
      "дович": 1070,
      "барнаул": 1071,
      "васильевич": 1072,
      "виктория": 1073,
      "меркурий": 1074,
      "уроженка": 1075,
      "центральная": 1076,
      "хакасия": 1077,
      "але": 1078,
      "кент": 1079,
      "пом": 1080,
      "ран": 1081,
      "това": 1082,
      "томской": 1083,
      "сти": 1084,
      "гово": 1085,
      "кол": 1086,
      "етская": 1087,
      "гар": 1088,
      "мало": 1089,
      "новна": 1090,
      "тюмень": 1091,
      "ивановна": 1092,
      "саратовская": 1093,
      "рязанской": 1094,
      "действу": 1095,
      "казахстан": 1096,
      "основании": 1097,
      "восто": 1098,
      "желез": 1099,
      "лан": 1100,
      "сев": 1101,
      "ть": 1102,
      "тти": 1103,
      "фото": 1104,
      "юж": 1105,
      "стри": 1106,
      "вад": 1107,
      "лава": 1108,
      "евой": 1109,
      "городв": 1110,
      "ада": 1111,
      "заявле": 1112,
      "забайка": 1113,
      "имущ": 1114,
      "проц": 1115,
      "новгород": 1116,
      "новой": 1117,
      "сою": 1118,
      "толья": 1119,
      "никова": 1120,
      "волж": 1121,
      "нижний": 1122,
      "иванович": 1123,
      "довна": 1124,
      "воронежская": 1125,
      "вардан": 1126,
      "открыта": 1127,
      "денис": 1128,
      "максим": 1129,
      "тольятти": 1130,
      "кре": 1131,
      "ош": 1132,
      "прод": 1133,
      "сар": 1134,
      "стина": 1135,
      "ник": 1136,
      "леони": 1137,
      "кировская": 1138,
      "самара": 1139,
      "бала": 1140,
      ">;<": 1141,
      "конкурсное": 1142,
      "пермский": 1143,
      "михайловна": 1144,
      "евгеньевич": 1145,
      "открыто": 1146,
      "тамбовской": 1147,
      "долж": 1148,
      "улицас": 1149,
      "производство": 1150,
      "балкарской": 1151,
      "надежда": 1152,
      "заявление": 1153,
      "бас": 1154,
      "дон": 1155,
      "зу": 1156,
      "мас": 1157,
      "рс": 1158,
      "тем": 1159,
      "общ": 1160,
      "нина": 1161,
      "мин": 1162,
      "лась": 1163,
      "коп": 1164,
      "объявлена": 1165,
      "евск": 1166,
      "ово": 1167,
      "ича": 1168,
      "кистан": 1169,
      "введ": 1170,
      "цева": 1171,
      "пред": 1172,
      "ксе": 1173,
      "пермь": 1174,
      "хабаровского": 1175,
      "вологодская": 1176,
      "родилась": 1177,
      "амурская": 1178,
      "липецкой": 1179,
      "мансийского": 1180,
      "больш": 1181,
      "смолен": 1182,
      "варданян": 1183,
      ",,<": 1184,
      "ma": 1185,
      "его": 1186,
      "зен": 1187,
      "окс": 1188,
      "пан": 1189,
      "сова": 1190,
      "томская": 1191,
      "хи": 1192,
      "хар": 1193,
      "ьевны": 1194,
      "стре": 1195,
      "обод": 1196,
      "лев": 1197,
      "лее": 1198,
      "коро": 1199,
      "коми": 1200,
      "костро": 1201,
      "банкр": 1202,
      "галина": 1203,
      "лий": 1204,
      "арбитражных": 1205,
      "ровского": 1206,
      "тал": 1207,
      "инбург": 1208,
      "далее": 1209,
      "владимировны": 1210,
      "управляющих": 1211,
      "ренко": 1212,
      "шах": 1213,
      "владимирской": 1214,
      "мурманск": 1215,
      "кузнецк": 1216,
      "курганская": 1217,
      "узбе": 1218,
      "амурской": 1219,
      "олеговна": 1220,
      "константи": 1221,
      "мордовия": 1222,
      ".)": 1223,
      "eu": 1224,
      "ала": 1225,
      "бан": 1226,
      "доб": 1227,
      "дми": 1228,
      "еф": 1229,
      "зы": 1230,
      "ке": 1231,
      "кци": 1232,
      "мж": 1233,
      "орож": 1234,
      "публи": 1235,
      "побе": 1236,
      "рб": 1237,
      "рд": 1238,
      "спе": 1239,
      "том": 1240,
      "тим": 1241,
      "югра": 1242,
      "якут": 1243,
      "аны": 1244,
      "йская": 1245,
      "общества": 1246,
      "ника": 1247,
      "кого": 1248,
      "анка": 1249,
      "офис": 1250,
      "ович": 1251,
      "лся": 1252,
      "улан": 1253,
      "кир": 1254,
      "киров": 1255,
      "пова": 1256,
      "чел": 1257,
      "диви": 1258,
      "тел": 1259,
      "нодорож": 1260,
      "ковского": 1261,
      "сергеевны": 1262,
      "признании": 1263,
      "пере": 1264,
      "любов": 1265,
      "людми": 1266,
      "николай": 1267,
      "гут": 1268,
      "ивановской": 1269,
      "красноярск": 1270,
      "джан": 1271,
      "рекач": 1272,
      "астрахань": 1273,
      "тамбовская": 1274,
      "орловской": 1275,
      "орловская": 1276,
      "архангельской": 1277,
      "игоревич": 1278,
      "украина": 1279,
      "сургут": 1280,
      "ассоциации": 1281,
      "строитель": 1282,
      "помещ": 1283,
      "железнодорож": 1284,
      "оксана": 1285,
      "er": 1286,
      "ает": 1287,
      "бла": 1288,
      "ван": 1289,
      "вре": 1290,
      "ец": 1291,
      "илья": 1292,
      "лии": 1293,
      "мы": 1294,
      "сад": 1295,
      "син": 1296,
      "ут": 1297,
      "цов": 1298,
      "шина": 1299,
      "шкина": 1300,
      "ье": 1301,
      "йский": 1302,
      "одеж": 1303,
      "реал": 1304,
      "орги": 1305,
      "артем": 1306,
      "антон": 1307,
      "комсо": 1308,
      "имова": 1309,
      "мель": 1310,
      "камен": 1311,
      "вой": 1312,
      "зареги": 1313,
      "поч": 1314,
      "прое": 1315,
      "овая": 1316,
      "дани": 1317,
      "лово": 1318,
      "новка": 1319,
      "мария": 1320,
      "сол": 1321,
      "лосов": 1322,
      "петровна": 1323,
      "бело": 1324,
      "конкурсным": 1325,
      "гуль": 1326,
      "мурт": 1327,
      "чури": 1328,
      "бере": 1329,
      "брянск": 1330,
      "мурманская": 1331,
      "няя": 1332,
      "рязанская": 1333,
      "аукци": 1334,
      "курганской": 1335,
      "родился": 1336,
      "удэ": 1337,
      "удмурт": 1338,
      "геннадьевич": 1339,
      "кристина": 1340,
      "калининградской": 1341,
      "молодеж": 1342,
      "камчатский": 1343,
      "наблю": 1344,
      "набережные": 1345,
      "калуж": 1346,
      "действующе": 1347,
      "людмила": 1348,
      "комсомо": 1349,
      ",,": 1350,
      "il": 1351,
      "reu": 1352,
      "ter": 1353,
      "гур": 1354,
      "дне": 1355,
      "дин": 1356,
      "кл": 1357,
      "кского": 1358,
      "ну": 1359,
      "онный": 1360,
      "рф": 1361,
      "сск": 1362,
      "смир": 1363,
      "уфа": 1364,
      "хина": 1365,
      "ханов": 1366,
      "чр": 1367,
      "ьева": 1368,
      "ямало": 1369,
      "йск": 1370,
      "рева": 1371,
      "гарина": 1372,
      "городсанкт": 1373,
      "льный": 1374,
      "таш": 1375,
      "инской": 1376,
      "георги": 1377,
      "само": 1378,
      "поля": 1379,
      "александровны": 1380,
      "сообщ": 1381,
      "улицаленина": 1382,
      "руд": 1383,
      "догово": 1384,
      "чик": 1385,
      "александровича": 1386,
      "хоз": 1387,
      "брянской": 1388,
      "владимировича": 1389,
      "рекап": 1390,
      "камск": 1391,
      "ровой": 1392,
      "утверждена": 1393,
      "игорев": 1394,
      "пензен": 1395,
      "михаил": 1396,
      "стриров": 1397,
      "волжский": 1398,
      "костром": 1399,
      "победы": 1400,
      "любовь": 1401,
      "време": 1402,
      "зарегистриров": 1403,
      "молодежная": 1404,
      "reuter": 1405,
      "договора": 1406,
      "reuters": 1407,
      ".-": 1408,
      "азер": 1409,
      "бри": 1410,
      "вцова": 1411,
      "гер": 1412,
      "гина": 1413,
      "др": 1414,
      "дуб": 1415,
      "ели": 1416,
      "куб": 1417,
      "клю": 1418,
      "оре": 1419,
      "ола": 1420,
      "сай": 1421,
      "семе": 1422,
      "тад": 1423,
      "укт": 1424,
      "чный": 1425,
      "шан": 1426,
      "шин": 1427,
      "шкин": 1428,
      "щи": 1429,
      "эль": 1430,
      "стар": 1431,
      "анга": 1432,
      "мина": 1433,
      "раб": 1434,
      "нахо": 1435,
      "мович": 1436,
      "гагарина": 1437,
      "ноград": 1438,
      "ари": 1439,
      "евская": 1440,
      "меся": 1441,
      "льевны": 1442,
      "адр": 1443,
      "тара": 1444,
      "индиви": 1445,
      "кирова": 1446,
      "зация": 1447,
      "реализ": 1448,
      "пром": 1449,
      "владивосто": 1450,
      "дуаль": 1451,
      "новгородской": 1452,
      "гражд": 1453,
      "соко": 1454,
      "беля": 1455,
      "товна": 1456,
      "советская": 1457,
      "русл": 1458,
      "юрий": 1459,
      "школьная": 1460,
      "кемерово": 1461,
      "череп": 1462,
      "валерьевна": 1463,
      "владимирская": 1464,
      "михайлович": 1465,
      "була": 1466,
      "дмитриевич": 1467,
      "рязань": 1468,
      "чувашская": 1469,
      "кузнец": 1470,
      "хабаровск": 1471,
      "цкого": 1472,
      "олегович": 1473,
      "ярославль": 1474,
      "дарья": 1475,
      "сахалинской": 1476,
      "верхне": 1477,
      "вячеславович": 1478,
      "прода": 1479,
      "ксения": 1480,
      "mail": 1481,
      "челны": 1482,
      "удмуртской": 1483,
      "действующее": 1484,
      "ташкент": 1485,
      "ангарск": 1486,
      "месяцев": 1487,
      "индивидуаль": 1488,
      "ol": 1489,
      "̈в": 1490,
      "гин": 1491,
      "жу": 1492,
      "ждения": 1493,
      "зо": 1494,
      "зир": 1495,
      "или": 1496,
      "кро": 1497,
      "мад": 1498,
      "ог": 1499,
      "ок": 1500,
      "озер": 1501,
      "тре": 1502,
      "ук": 1503,
      "ури": 1504,
      "хас": 1505,
      "чная": 1506,
      "эн": 1507,
      "яна": 1508,
      "сту": 1509,
      "ано": 1510,
      "ерче": 1511,
      "вая": 1512,
      "мова": 1513,
      "лин": 1514,
      "городказань": 1515,
      "асии": 1516,
      "кав": 1517,
      ">)-": 1518,
      "кири": 1519,
      "красная": 1520,
      "маг": 1521,
      "баш": 1522,
      "ловский": 1523,
      "новский": 1524,
      "ковна": 1525,
      "ковская": 1526,
      "анович": 1527,
      "ирк": 1528,
      "структ": 1529,
      "конкурсного": 1530,
      "евгения": 1531,
      "валерия": 1532,
      "срок": 1533,
      "федо": 1534,
      "татьяны": 1535,
      "анастасии": 1536,
      "калинина": 1537,
      "екатеринбург": 1538,
      "зерж": 1539,
      "октября": 1540,
      "григор": 1541,
      "гривцова": 1542,
      "заводск": 1543,
      "октябрьская": 1544,
      "петропавлов": 1545,
      "российск": 1546,
      "армения": 1547,
      "союза": 1548,
      "дону": 1549,
      "предпри": 1550,
      "благо": 1551,
      "сообщает": 1552,
      "азербай": 1553,
      "нахождения": 1554,
      "владивосток": 1555,
      "бул": 1556,
      "вор": 1557,
      "дзерж": 1558,
      "ек": 1559,
      "жен": 1560,
      "иш": 1561,
      "игорь": 1562,
      "нор": 1563,
      "пров": 1564,
      "сим": 1565,
      "тья": 1566,
      "хова": 1567,
      "чка": 1568,
      "чинский": 1569,
      "эду": 1570,
      "стани": 1571,
      "йош": 1572,
      "нима": 1573,
      "ради": 1574,
      "вазир": 1575,
      "нная": 1576,
      "неф": 1577,
      "ары": 1578,
      "арте": 1579,
      "коммерче": 1580,
      "евского": 1581,
      "овец": 1582,
      "воз": 1583,
      "таж": 1584,
      ".:<": 1585,
      "веще": 1586,
      "отра": 1587,
      "месторека": 1588,
      "чебо": 1589,
      "мал": 1590,
      "маго": 1591,
      "маха": 1592,
      "телей": 1593,
      "новокузнецк": 1594,
      "петрович": 1595,
      "перво": 1596,
      "красноарме": 1597,
      "алтайск": 1598,
      "шиха": 1599,
      "ивановская": 1600,
      "черкас": 1601,
      "крылосов": 1602,
      "брянская": 1603,
      "астраханская": 1604,
      "дмитрия": 1605,
      "хабаровский": 1606,
      "корп": 1607,
      "архангельская": 1608,
      "геннадьевна": 1609,
      "липецкая": 1610,
      "павлович": 1611,
      "ульяновской": 1612,
      "ассоциация": 1613,
      "вячеславовна": 1614,
      "борисович": 1615,
      "российский": 1616,
      "валенти": 1617,
      "валентина": 1618,
      "нижнекамск": 1619,
      "север": 1620,
      "адамович": 1621,
      "аукционный": 1622,
      "наблюдения": 1623,
      "саморег": 1624,
      "череповец": 1625,
      "индивидуальный": 1626,
      "предпринима": 1627,
      "азербайджан": 1628,
      "эдуар": 1629,
      "йошкар": 1630,
      "вазирханов": 1631,
      "чебокс": 1632,
      "предприниматель": 1633,
      "ch": 1634,
      "ich": 1635,
      "nich": 1636,
      "om": 1637,
      "on": 1638,
      "son": 1639,
      "tom": 1640,
      "аск": 1641,
      "аба": 1642,
      "бет": 1643,
      "гул": 1644,
      "дова": 1645,
      "егор": 1646,
      "жевск": 1647,
      "зар": 1648,
      "зин": 1649,
      "ири": 1650,
      "ижевск": 1651,
      "лот": 1652,
      "нка": 1653,
      "селе": 1654,
      "сент": 1655,
      "слава": 1656,
      "тра": 1657,
      "тар": 1658,
      "тру": 1659,
      "томск": 1660,
      "фор": 1661,
      "фар": 1662,
      "чкала": 1663,
      "шос": 1664,
      "ября": 1665,
      "нито": 1666,
      "рев": 1667,
      "равле": 1668,
      "горо": 1669,
      "лаев": 1670,
      "лари": 1671,
      "мон": 1672,
      "ненец": 1673,
      "комму": 1674,
      "лик": 1675,
      "лип": 1676,
      "линский": 1677,
      "городкраснодар": 1678,
      "городмосквы": 1679,
      "сурий": 1680,
      "асмо": 1681,
      "вок": 1682,
      "вел": 1683,
      "пол": 1684,
      "маз": 1685,
      "мака": 1686,
      "куль": 1687,
      "бакс": 1688,
      "курск": 1689,
      "владислав": 1690,
      "улиру": 1691,
      "серги": 1692,
      "новороссийск": 1693,
      "кович": 1694,
      "сергея": 1695,
      "тол": 1696,
      "алексея": 1697,
      "николаевны": 1698,
      "татарской": 1699,
      "бог": 1700,
      "донецк": 1701,
      "ленко": 1702,
      "тульской": 1703,
      "семи": 1704,
      "хол": 1705,
      "ольск": 1706,
      "цкий": 1707,
      "старо": 1708,
      "ковой": 1709,
      "ильск": 1710,
      "уссурий": 1711,
      "деревням": 1712,
      "слобод": 1713,
      "ярославской": 1714,
      "ульяновск": 1715,
      "сурхо": 1716,
      "сахалинская": 1717,
      "строителей": 1718,
      "забайкальского": 1719,
      "балашиха": 1720,
      "панкова": 1721,
      "проезд": 1722,
      "игоревна": 1723,
      "таджи": 1724,
      "месяцевфу": 1725,
      "olson": 1726,
      "оглы": 1727,
      "магнито": 1728,
      "благовеще": 1729,
      "норильск": 1730,
      "махачкала": 1731,
      "первомай": 1732,
      "саморегулиру": 1733,
      "nicholson": 1734,
      "сентября": 1735,
      "шоссе": 1736,
      "ненецкого": 1737,
      "баксан": 1738,
      "̈м": 1739,
      "ам": 1740,
      "басср": 1741,
      "гм": 1742,
      "гвар": 1743,
      "гинский": 1744,
      "дор": 1745,
      "дур": 1746,
      "ее": 1747,
      "еро": 1748,
      "зна": 1749,
      "ины": 1750,
      "кы": 1751,
      "кай": 1752,
      "мая": 1753,
      "манов": 1754,
      "ност": 1755,
      "нур": 1756,
      "пор": 1757,
      "пот": 1758,
      "рм": 1759,
      "тимо": 1760,
      "тка": 1761,
      "фср": 1762,
      "ько": 1763,
      "эт": 1764,
      "этаж": 1765,
      "як": 1766,
      "анск": 1767,
      "нинского": 1768,
      "лебе": 1769,
      "ред": 1770,
      "орск": 1771,
      "дева": 1772,
      "артур": 1773,
      "шево": 1774,
      "линского": 1775,
      "емая": 1776,
      "городс": 1777,
      "льв": 1778,
      "завет": 1779,
      "зальная": 1780,
      "ровка": 1781,
      "вест": 1782,
      "груз": 1783,
      "сав": 1784,
      "саха": 1785,
      "попова": 1786,
      "чен": 1787,
      "чева": 1788,
      "мага": 1789,
      "ввел": 1790,
      "пролет": 1791,
      "гиз": 1792,
      "ленинский": 1793,
      "владикав": 1794,
      "новгородская": 1795,
      "новый": 1796,
      "сос": 1797,
      "соль": 1798,
      "тово": 1799,
      "товск": 1800,
      "тельства": 1801,
      "част": 1802,
      "менко": 1803,
      "менский": 1804,
      "любер": 1805,
      "ртк": 1806,
      "руж": 1807,
      "году": 1808,
      "черем": 1809,
      "тверской": 1810,
      "новая": 1811,
      "белгород": 1812,
      "финансовый": 1813,
      "хово": 1814,
      "сроком": 1815,
      "павел": 1816,
      "наталь": 1817,
      "статья": 1818,
      "николаевича": 1819,
      "славовна": 1820,
      "архангельск": 1821,
      "калининградская": 1822,
      "ьевск": 1823,
      "виталий": 1824,
      "петрозаводск": 1825,
      "ющего": 1826,
      "алена": 1827,
      "вадим": 1828,
      "забайкальский": 1829,
      "должник": 1830,
      "рсфср": 1831,
      "узбекистан": 1832,
      "якутия": 1833,
      "чурилова": 1834,
      "смирнова": 1835,
      "пензенской": 1836,
      "костромская": 1837,
      "старый": 1838,
      "гражданка": 1839,
      "продаже": 1840,
      "петропавловск": 1841,
      "нефте": 1842,
      "городе": 1843,
      "вокзальная": 1844,
      "уссурийск": 1845,
      "таджикистан": 1846,
      "магнитогорск": 1847,
      "благовещенск": 1848,
      "саморегулируемая": 1849,
      "гвардей": 1850,
      "пролетар": 1851,
      "ab": 1852,
      "ge": 1853,
      "аг": 1854,
      "аф": 1855,
      "аш": 1856,
      "бова": 1857,
      "гле": 1858,
      "гла": 1859,
      "ецкая": 1860,
      "лт": 1861,
      "лоб": 1862,
      "мана": 1863,
      "пп": 1864,
      "пло": 1865,
      "рх": 1866,
      "рский": 1867,
      "сч": 1868,
      "соф": 1869,
      "слов": 1870,
      "тул": 1871,
      "тин": 1872,
      "тди": 1873,
      "уль": 1874,
      "ху": 1875,
      "чев": 1876,
      "шов": 1877,
      "юби": 1878,
      "юлии": 1879,
      "яко": 1880,
      "лес": 1881,
      "мил": 1882,
      "реструкт": 1883,
      "лат": 1884,
      "коно": 1885,
      "над": 1886,
      "скол": 1887,
      "нева": 1888,
      "дение": 1889,
      "анто": 1890,
      "комп": 1891,
      "шен": 1892,
      "оветская": 1893,
      "городновосибирск": 1894,
      "городярославль": 1895,
      "решение": 1896,
      "льчик": 1897,
      "заре": 1898,
      ".:,": 1899,
      "ома": 1900,
      "гель": 1901,
      "чебар": 1902,
      "красный": 1903,
      "красногорск": 1904,
      "мала": 1905,
      "проф": 1906,
      "проспе": 1907,
      "бав": 1908,
      "бат": 1909,
      "баба": 1910,
      "сочи": 1911,
      "ковское": 1912,
      "бинский": 1913,
      "управляющего": 1914,
      "ическая": 1915,
      "николая": 1916,
      "организация": 1917,
      "тихо": 1918,
      "тула": 1919,
      "оренб": 1920,
      "пермской": 1921,
      "луган": 1922,
      "сергеевича": 1923,
      "брю": 1924,
      "жительства": 1925,
      "алексеевича": 1926,
      "долгов": 1927,
      "филип": 1928,
      "мирный": 1929,
      "романовна": 1930,
      "павловна": 1931,
      "никита": 1932,
      "имовна": 1933,
      "куйбышевской": 1934,
      "ушка": 1935,
      "витальевич": 1936,
      "майкоп": 1937,
      "зеленая": 1938,
      "медве": 1939,
      "ранее": 1940,
      "южный": 1941,
      "улицасоветская": 1942,
      "рсб": 1943,
      "большая": 1944,
      "ефрсб": 1945,
      "киргиз": 1946,
      "строительная": 1947,
      "солне": 1948,
      "березов": 1949,
      "калужской": 1950,
      "хозная": 1951,
      "зарегистрирован": 1952,
      "елизавет": 1953,
      "работ": 1954,
      "беляев": 1955,
      "энгель": 1956,
      "кирил": 1957,
      "прове": 1958,
      "артём": 1959,
      "ирины": 1960,
      "владикавказ": 1961,
      "люберцы": 1962,
      "натальи": 1963,
      "юбилей": 1964,
      "яковле": 1965,
      "реструктури": 1966,
      "проспект": 1967,
      "елизавета": 1968,
      "ави": 1969,
      "аау": 1970,
      "брат": 1971,
      "дул": 1972,
      "дия": 1973,
      "дина": 1974,
      "ей": 1975,
      "жа": 1976,
      "жев": 1977,
      "зай": 1978,
      "зова": 1979,
      "ива": 1980,
      "ино": 1981,
      "иков": 1982,
      "кул": 1983,
      "кский": 1984,
      "кбасср": 1985,
      "кпп": 1986,
      "мл": 1987,
      "нг": 1988,
      "око": 1989,
      "пк": 1990,
      "пл": 1991,
      "пя": 1992,
      "пле": 1993,
      "прож": 1994,
      "симо": 1995,
      "тинская": 1996,
      "ува": 1997,
      "усп": 1998,
      "щад": 1999,
      "ысск": 2000,
      "стер": 2001,
      "ским": 2002,
      "анский": 2003,
      "анже": 2004,
      "нин": 2005,
      "миро": 2006,
      "минский": 2007,
      "одск": 2008,
      "рее": 2009,
      "реше": 2010,
      "рече": 2011,
      "рам": 2012,
      "нно": 2013,
      "гого": 2014,
      "лап": 2015,
      "кош": 2016,
      "нар": 2017,
      "моро": 2018,
      "дено": 2019,
      "гат": 2020,
      "гай": 2021,
      "гари": 2022,
      "управле": 2023,
      "арза": 2024,
      "нным": 2025,
      "лино": 2026,
      "линская": 2027,
      "лисин": 2028,
      "инном": 2029,
      "бийск": 2030,
      "овка": 2031,
      "овский": 2032,
      "городволгоград": 2033,
      "городбарнаул": 2034,
      "городпермь": 2035,
      "городкрасноярск": 2036,
      "асгм": 2037,
      "капи": 2038,
      "щенко": 2039,
      "вен": 2040,
      "геро": 2041,
      "поли": 2042,
      "мат": 2043,
      "баку": 2044,
      "ловского": 2045,
      "даль": 2046,
      "ленин": 2047,
      "новского": 2048,
      "марк": 2049,
      "виноград": 2050,
      "новоалтайск": 2051,
      "вера": 2052,
      "ковской": 2053,
      "торги": 2054,
      "бинск": 2055,
      "ющий": 2056,
      "станай": 2057,
      "тович": 2058,
      "ановского": 2059,
      "конд": 2060,
      "ковая": 2061,
      "манова": 2062,
      "татарская": 2063,
      "дорож": 2064,
      "андрея": 2065,
      "вороб": 2066,
      "вороши": 2067,
      "юрьевны": 2068,
      "республикабурятия": 2069,
      "республикакрым": 2070,
      "тура": 2071,
      "тульская": 2072,
      "песч": 2073,
      "черн": 2074,
      "черно": 2075,
      "черке": 2076,
      "пермская": 2077,
      "василь": 2078,
      "тыс": 2079,
      "тых": 2080,
      "кинский": 2081,
      "муха": 2082,
      "муром": 2083,
      "буде": 2084,
      "наталия": 2085,
      "сталь": 2086,
      "спор": 2087,
      "чувашии": 2088,
      "светланы": 2089,
      "кузбас": 2090,
      "викторовича": 2091,
      "акционерным": 2092,
      "григорь": 2093,
      "долго": 2094,
      "горьковской": 2095,
      "заводская": 2096,
      "турк": 2097,
      "куйбышевская": 2098,
      "мансийский": 2099,
      "верхняя": 2100,
      "стополь": 2101,
      "борисовна": 2102,
      "зеленод": 2103,
      "пенза": 2104,
      "невинном": 2105,
      "северо": 2106,
      "союз": 2107,
      "леонидович": 2108,
      "леонидовна": 2109,
      "должника": 2110,
      "смоленской": 2111,
      "шахты": 2112,
      "узбек": 2113,
      "берез": 2114,
      "комсомольская": 2115,
      "временным": 2116,
      "тарасов": 2117,
      "кузнецов": 2118,
      "илимск": 2119,
      "кропот": 2120,
      "отрад": 2121,
      "чебоксары": 2122,
      "тракт": 2123,
      "богдан": 2124,
      "донецкая": 2125,
      "магадан": 2126,
      "площад": 2127,
      "брюхов": 2128,
      "успен": 2129,
      "арзамас": 2130,
      "кузбасс": 2131,
      "невинномысск": 2132,
      ".(": 2133,
      "or": 2134,
      "̈л": 2135,
      "̈ва": 2136,
      "ами": 2137,
      "ара": 2138,
      "ага": 2139,
      "азов": 2140,
      "бре": 2141,
      "бра": 2142,
      "бон": 2143,
      "бой": 2144,
      "бло": 2145,
      "банова": 2146,
      "вл": 2147,
      "вобод": 2148,
      "друж": 2149,
      "жан": 2150,
      "жный": 2151,
      "зем": 2152,
      "зас": 2153,
      "зве": 2154,
      "ио": 2155,
      "ию": 2156,
      "ира": 2157,
      "ила": 2158,
      "иной": 2159,
      "км": 2160,
      "канд": 2161,
      "нп": 2162,
      "оси": 2163,
      "оскол": 2164,
      "пад": 2165,
      "прав": 2166,
      "сева": 2167,
      "свод": 2168,
      "снт": 2169,
      "тан": 2170,
      "ун": 2171,
      "усоль": 2172,
      "фря": 2173,
      "хут": 2174,
      "чет": 2175,
      "чай": 2176,
      "чар": 2177,
      "шад": 2178,
      "ыз": 2179,
      "энер": 2180,
      "юк": 2181,
      "юри": 2182,
      "аненко": 2183,
      "ангар": 2184,
      "ере": 2185,
      "ерев": 2186,
      "ленная": 2187,
      "мика": 2188,
      "вали": 2189,
      "лаза": 2190,
      "нара": 2191,
      "наза": 2192,
      "нальчик": 2193,
      "мос": 2194,
      "етия": 2195,
      "ненко": 2196,
      "дев": 2197,
      "деева": 2198,
      "роте": 2199,
      "гали": 2200,
      "арм": 2201,
      ">.)": 2202,
      "кома": 2203,
      "пионер": 2204,
      "шеле": 2205,
      "шеровна": 2206,
      "шебе": 2207,
      "лилия": 2208,
      "евское": 2209,
      "овна": 2210,
      "городспб": 2211,
      "сун": 2212,
      "сут": 2213,
      "асс": 2214,
      "кации": 2215,
      "закры": 2216,
      "так": 2217,
      "щева": 2218,
      "щение": 2219,
      "весе": 2220,
      "алишеровна": 2221,
      "киной": 2222,
      "кислов": 2223,
      "онская": 2224,
      "ген": 2225,
      "генер": 2226,
      "рождена": 2227,
      "саи": 2228,
      "салава": 2229,
      "горский": 2230,
      "порож": 2231,
      "полова": 2232,
      "полина": 2233,
      "попов": 2234,
      "чехов": 2235,
      "динович": 2236,
      "куна": 2237,
      "кустанай": 2238,
      "огрни": 2239,
      "введено": 2240,
      "ловка": 2241,
      "дав": 2242,
      "владислава": 2243,
      "вид": 2244,
      "новочеркас": 2245,
      "солов": 2246,
      "соау": 2247,
      "ломо": 2248,
      "лолаев": 2249,
      "алова": 2250,
      "улицамолодежная": 2251,
      "региона": 2252,
      "товский": 2253,
      "товый": 2254,
      "аново": 2255,
      "ановский": 2256,
      "сово": 2257,
      "сович": 2258,
      "иванова": 2259,
      "алексеенко": 2260,
      "сибирское": 2261,
      "красногвардей": 2262,
      "ьянская": 2263,
      "рус": 2264,
      "боч": 2265,
      "бород": 2266,
      "ханова": 2267,
      "республикакарелия": 2268,
      "тизан": 2269,
      "карла": 2270,
      "чикова": 2271,
      "село": 2272,
      "бованенко": 2273,
      "свердловск": 2274,
      "джи": 2275,
      "джали": 2276,
      "анатольевны": 2277,
      "мус": 2278,
      "бугур": 2279,
      "признал": 2280,
      "борис": 2281,
      "вартовск": 2282,
      "услан": 2283,
      "нецкий": 2284,
      "липецк": 2285,
      "андреевича": 2286,
      "вячеслав": 2287,
      "дении": 2288,
      "степанова": 2289,
      "партизан": 2290,
      "ышленная": 2291,
      "витальевна": 2292,
      "камчатского": 2293,
      "октябрьский": 2294,
      "балкарская": 2295,
      "уральск": 2296,
      "константин": 2297,
      "медова": 2298,
      "нижневартовск": 2299,
      "алё": 2300,
      "ранс": 2301,
      "южно": 2302,
      "крест": 2303,
      "егорова": 2304,
      "харь": 2305,
      "королева": 2306,
      "кузнецкий": 2307,
      "константиновна": 2308,
      "публикации": 2309,
      "тима": 2310,
      "переул": 2311,
      "железнодорожный": 2312,
      "железнодорожная": 2313,
      "садовая": 2314,
      "цовск": 2315,
      "клуб": 2316,
      "георгиевна": 2317,
      "промышленная": 2318,
      "руслан": 2319,
      "кузнецова": 2320,
      "коммерческим": 2321,
      "красноармейская": 2322,
      "северная": 2323,
      "абакан": 2324,
      "труда": 2325,
      "макарова": 2326,
      "баксанского": 2327,
      "маяковского": 2328,
      "львов": 2329,
      "глеб": 2330,
      "чебаркуль": 2331,
      "батраз": 2332,
      "филиппи": 2333,
      "юбилейная": 2334,
      "братск": 2335,
      "млн": 2336,
      "пяти": 2337,
      "решения": 2338,
      "чернушка": 2339,
      "долгополова": 2340,
      "кропоткин": 2341,
      "брюховецкая": 2342,
      "сводном": 2343,
      "усолье": 2344,
      "кисловодск": 2345,
      "новочеркасск": 2346,
      "бугуруслан": 2347,
      "ki": 2348,
      "аза": 2349,
      "акс": 2350,
      "боб": 2351,
      "винский": 2352,
      "гет": 2353,
      "гда": 2354,
      "ело": 2355,
      "зор": 2356,
      "зина": 2357,
      "зуб": 2358,
      "знес": 2359,
      "ие": 2360,
      "ит": 2361,
      "илек": 2362,
      "илов": 2363,
      "истра": 2364,
      "коб": 2365,
      "кий": 2366,
      "кня": 2367,
      "када": 2368,
      "лур": 2369,
      "мант": 2370,
      "ол": 2371,
      "оу": 2372,
      "озе": 2373,
      "опубли": 2374,
      "пря": 2375,
      "плы": 2376,
      "пыш": 2377,
      "проте": 2378,
      "сви": 2379,
      "тя": 2380,
      "три": 2381,
      "тия": 2382,
      "тля": 2383,
      "транс": 2384,
      "уч": 2385,
      "уст": 2386,
      "уса": 2387,
      "участ": 2388,
      "фро": 2389,
      "хин": 2390,
      "хал": 2391,
      "хру": 2392,
      "хинского": 2393,
      "цу": 2394,
      "чного": 2395,
      "чин": 2396,
      "чим": 2397,
      "чков": 2398,
      "чное": 2399,
      "чинского": 2400,
      "шер": 2401,
      "шова": 2402,
      "ыв": 2403,
      "ьи": 2404,
      "ют": 2405,
      "стическая": 2406,
      "анас": 2407,
      "анны": 2408,
      "обо": 2409,
      "нии": 2410,
      "нино": 2411,
      "лесни": 2412,
      "лёв": 2413,
      "миль": 2414,
      "мичури": 2415,
      "миасс": 2416,
      "рей": 2417,
      "ремо": 2418,
      "рафи": 2419,
      "рамаз": 2420,
      "гора": 2421,
      "гова": 2422,
      "гоме": 2423,
      "лая": 2424,
      "лазо": 2425,
      "коз": 2426,
      "кос": 2427,
      "коч": 2428,
      "кой": 2429,
      "ору": 2430,
      "габ": 2431,
      "гал": 2432,
      "упова": 2433,
      "анти": 2434,
      "офи": 2435,
      "подольск": 2436,
      "объек": 2437,
      "трои": 2438,
      "тросова": 2439,
      "электросталь": 2440,
      "шеве": 2441,
      "линой": 2442,
      "бина": 2443,
      "бизнес": 2444,
      "овой": 2445,
      "медович": 2446,
      "городворонеж": 2447,
      "городчелябинск": 2448,
      "городсамара": 2449,
      "городкиров": 2450,
      "городнабережные": 2451,
      "сус": 2452,
      "суво": 2453,
      "султ": 2454,
      "рин": 2455,
      "кал": 2456,
      "заева": 2457,
      "зарег": 2458,
      "тав": 2459,
      "инга": 2460,
      "вец": 2461,
      "велик": 2462,
      "омна": 2463,
      "зации": 2464,
      "сакова": 2465,
      "сальск": 2466,
      "сатина": 2467,
      "пок": 2468,
      "поле": 2469,
      "полева": 2470,
      "погар": 2471,
      "чения": 2472,
      "ческая": 2473,
      "чече": 2474,
      "мах": 2475,
      "маск": 2476,
      "макова": 2477,
      "малы": 2478,
      "матросова": 2479,
      "кута": 2480,
      "баева": 2481,
      "баган": 2482,
      "баты": 2483,
      "дании": 2484,
      "ловская": 2485,
      "ловой": 2486,
      "республикада": 2487,
      "александров": 2488,
      "московский": 2489,
      "сине": 2490,
      "дуна": 2491,
      "тех": 2492,
      "маргари": 2493,
      "вис": 2494,
      "вили": 2495,
      "соро": 2496,
      "логов": 2497,
      "ковы": 2498,
      "алла": 2499,
      "аллур": 2500,
      "петрова": 2501,
      "петуш": 2502,
      "петровский": 2503,
      "бековна": 2504,
      "товой": 2505,
      "товича": 2506,
      "совна": 2507,
      "совет": 2508,
      "совой": 2509,
      "хаб": 2510,
      "хаби": 2511,
      "никово": 2512,
      "ический": 2513,
      "части": 2514,
      "чаплы": 2515,
      "ственной": 2516,
      "ковалева": 2517,
      "алексеева": 2518,
      "высо": 2519,
      "елены": 2520,
      "руз": 2521,
      "руза": 2522,
      "бол": 2523,
      "гуш": 2524,
      "андреевны": 2525,
      "нижняя": 2526,
      "юрга": 2527,
      "республикататарстан": 2528,
      "широ": 2529,
      "шино": 2530,
      "иваново": 2531,
      "чита": 2532,
      "сян": 2533,
      "черня": 2534,
      "свердл": 2535,
      "сел": 2536,
      "сель": 2537,
      "бования": 2538,
      "россии": 2539,
      "хоро": 2540,
      "васильевны": 2541,
      "решет": 2542,
      "анатолий": 2543,
      "ховка": 2544,
      "извест": 2545,
      "михайловны": 2546,
      "букре": 2547,
      "паева": 2548,
      "светло": 2549,
      "фед": 2550,
      "олег": 2551,
      "олеся": 2552,
      "камыш": 2553,
      "катеринбург": 2554,
      "резол": 2555,
      "спас": 2556,
      "казач": 2557,
      "ильи": 2558,
      "карев": 2559,
      "геннадий": 2560,
      "улицад": 2561,
      "романа": 2562,
      "юрьевича": 2563,
      "касимов": 2564,
      "кристи": 2565,
      "казахская": 2566,
      "марийской": 2567,
      "ульяновская": 2568,
      "украинская": 2569,
      "степана": 2570,
      "степная": 2571,
      "верхний": 2572,
      "метьевск": 2573,
      "металлур": 2574,
      "уральская": 2575,
      "набережная": 2576,
      "зеленоград": 2577,
      "анатольевича": 2578,
      "рубцовск": 2579,
      "михаила": 2580,
      "калуга": 2581,
      "колхозная": 2582,
      "коломна": 2583,
      "действующий": 2584,
      "тьева": 2585,
      "минус": 2586,
      "банком": 2587,
      "почтовый": 2588,
      "проект": 2589,
      "данилова": 2590,
      "калужская": 2591,
      "поляр": 2592,
      "пензенская": 2593,
      "костромской": 2594,
      "временный": 2595,
      "зарегистрирована": 2596,
      "ключ": 2597,
      "орехово": 2598,
      "мадина": 2599,
      "башкир": 2600,
      "григорий": 2601,
      "григорьевна": 2602,
      "дзержинского": 2603,
      "валентинович": 2604,
      "валентиновна": 2605,
      "аскк": 2606,
      "бетон": 2607,
      "толсто": 2608,
      "первомайская": 2609,
      "первомайский": 2610,
      "тимофе": 2611,
      "городекатеринбург": 2612,
      "афанас": 2613,
      "лесная": 2614,
      "проведении": 2615,
      "реструктуризация": 2616,
      "прожива": 2617,
      "реестре": 2618,
      "нного": 2619,
      "гоголя": 2620,
      "управление": 2621,
      "маркса": 2622,
      "спортивная": 2623,
      "бонда": 2624,
      "ереван": 2625,
      "назарова": 2626,
      "армян": 2627,
      "пионерская": 2628,
      "шелехов": 2629,
      "огрнип": 2630,
      "ломоно": 2631,
      "муслю": 2632,
      "тимашев": 2633,
      "переулок": 2634,
      "пятигорск": 2635,
      "опубликов": 2636,
      "чимкент": 2637,
      "объекта": 2638,
      "полевая": 2639,
      "республикадагестан": 2640,
      "черняхов": 2641,
      "известен": 2642,
      "кристины": 2643,
      "(;": 2644,
      ".),": 2645,
      ">(<": 2646,
      "an": 2647,
      "dl": 2648,
      "du": 2649,
      "ey": 2650,
      "ima": 2651,
      "idl": 2652,
      "oor": 2653,
      "ran": 2654,
      "ridl": 2655,
      "sab": 2656,
      "tt": 2657,
      "ап": 2658,
      "ака": 2659,
      "аха": 2660,
      "аму": 2661,
      "братов": 2662,
      "вко": 2663,
      "вин": 2664,
      "винск": 2665,
      "гре": 2666,
      "гем": 2667,
      "гим": 2668,
      "ганд": 2669,
      "дет": 2670,
      "дный": 2671,
      "дря": 2672,
      "дчи": 2673,
      "динский": 2674,
      "дву": 2675,
      "ел": 2676,
      "ени": 2677,
      "жд": 2678,
      "жского": 2679,
      "жба": 2680,
      "зая": 2681,
      "зская": 2682,
      "здан": 2683,
      "звер": 2684,
      "иск": 2685,
      "итель": 2686,
      "ква": 2687,
      "куп": 2688,
      "кая": 2689,
      "кад": 2690,
      "ким": 2691,
      "кевич": 2692,
      "квар": 2693,
      "клин": 2694,
      "лод": 2695,
      "луб": 2696,
      "лда": 2697,
      "лково": 2698,
      "лото": 2699,
      "лома": 2700,
      "мя": 2701,
      "мпи": 2702,
      "мце": 2703,
      "мсро": 2704,
      "нс": 2705,
      "нсо": 2706,
      "нское": 2707,
      "нян": 2708,
      "нзе": 2709,
      "ое": 2710,
      "ора": 2711,
      "оли": 2712,
      "пы": 2713,
      "панк": 2714,
      "пост": 2715,
      "прес": 2716,
      "пас": 2717,
      "псков": 2718,
      "палова": 2719,
      "рул": 2720,
      "сс": 2721,
      "сан": 2722,
      "соб": 2723,
      "сая": 2724,
      "сской": 2725,
      "сас": 2726,
      "сот": 2727,
      "сси": 2728,
      "ссср": 2729,
      "сред": 2730,
      "свобод": 2731,
      "тот": 2732,
      "тное": 2733,
      "тасср": 2734,
      "тинск": 2735,
      "уф": 2736,
      "уга": 2737,
      "ума": 2738,
      "уто": 2739,
      "утов": 2740,
      "учи": 2741,
      "фру": 2742,
      "фран": 2743,
      "фович": 2744,
      "херс": 2745,
      "хад": 2746,
      "хта": 2747,
      "хот": 2748,
      "хмель": 2749,
      "цуз": 2750,
      "цево": 2751,
      "чно": 2752,
      "чул": 2753,
      "чский": 2754,
      "чир": 2755,
      "чкова": 2756,
      "чково": 2757,
      "чинск": 2758,
      "чье": 2759,
      "шь": 2760,
      "шар": 2761,
      "шков": 2762,
      "шников": 2763,
      "ые": 2764,
      "экс": 2765,
      "юль": 2766,
      "юган": 2767,
      "яд": 2768,
      "яя": 2769,
      "янов": 2770,
      "ягод": 2771,
      "ств": 2772,
      "сте": 2773,
      "ступ": 2774,
      "рог": 2775,
      "рома": 2776,
      "йкино": 2777,
      "образ": 2778,
      "нич": 2779,
      "нию": 2780,
      "нинский": 2781,
      "ермо": 2782,
      "лесо": 2783,
      "мини": 2784,
      "минск": 2785,
      "минского": 2786,
      "оде": 2787,
      "рево": 2788,
      "ребри": 2789,
      "рас": 2790,
      "раки": 2791,
      "рамов": 2792,
      "раменский": 2793,
      "нняя": 2794,
      "гос": 2795,
      "голь": 2796,
      "говая": 2797,
      "лай": 2798,
      "латово": 2799,
      "кост": 2800,
      "конова": 2801,
      "колосов": 2802,
      "колесни": 2803,
      "нав": 2804,
      "наз": 2805,
      "наро": 2806,
      "наход": 2807,
      "нарт": 2808,
      "наци": 2809,
      "мой": 2810,
      "етку": 2811,
      "неча": 2812,
      "ненецкий": 2813,
      "неизвестен": 2814,
      "деле": 2815,
      "дека": 2816,
      "депу": 2817,
      "денко": 2818,
      "демон": 2819,
      "остро": 2820,
      "островского": 2821,
      "гау": 2822,
      "гале": 2823,
      "упп": 2824,
      "айгуль": 2825,
      "ног": 2826,
      "арно": 2827,
      "арина": 2828,
      "аргу": 2829,
      "архи": 2830,
      "имович": 2831,
      "нных": 2832,
      "объе": 2833,
      "объя": 2834,
      "досто": 2835,
      "лита": 2836,
      "литер": 2837,
      "лидия": 2838,
      ".,<": 2839,
      "меж": 2840,
      "мех": 2841,
      "мени": 2842,
      "меногорск": 2843,
      "медовна": 2844,
      "дель": 2845,
      "городи": 2846,
      "городо": 2847,
      "городра": 2848,
      "городпо": 2849,
      "городленинград": 2850,
      "городиркутск": 2851,
      "городтюмень": 2852,
      "городангарск": 2853,
      "городновокузнецк": 2854,
      "городчернушка": 2855,
      "решениемарбитражного": 2856,
      "ийская": 2857,
      "льгов": 2858,
      "адмира": 2859,
      "асл": 2860,
      "риз": 2861,
      "ринского": 2862,
      "каб": 2863,
      "каш": 2864,
      "каменогорск": 2865,
      "адресу": 2866,
      "зале": 2867,
      "завер": 2868,
      "залари": 2869,
      "запад": 2870,
      "ногорский": 2871,
      "уры": 2872,
      "урмар": 2873,
      "урван": 2874,
      "тау": 2875,
      "тава": 2876,
      "таган": 2877,
      "тазов": 2878,
      ">)<": 2879,
      "инка": 2880,
      "инцев": 2881,
      "века": 2882,
      "веева": 2883,
      "омут": 2884,
      "алиев": 2885,
      "алинского": 2886,
      "отсут": 2887,
      "приволжский": 2888,
      "кирово": 2889,
      "киевский": 2890,
      "киселе": 2891,
      "онден": 2892,
      "респонден": 2893,
      "лян": 2894,
      "рождение": 2895,
      "гран": 2896,
      "групп": 2897,
      "сам": 2898,
      "горя": 2899,
      "горная": 2900,
      "чегем": 2901,
      "димит": 2902,
      "диана": 2903,
      "красногорский": 2904,
      "мак": 2905,
      "кук": 2906,
      "кум": 2907,
      "кун": 2908,
      "куш": 2909,
      "кула": 2910,
      "прокоп": 2911,
      "ловна": 2912,
      "ктыв": 2913,
      "гил": 2914,
      "ленинск": 2915,
      "сидо": 2916,
      "владиславовна": 2917,
      "душан": 2918,
      "тен": 2919,
      "новская": 2920,
      "новны": 2921,
      "мари": 2922,
      "марии": 2923,
      "маркова": 2924,
      "марья": 2925,
      "марша": 2926,
      "сере": 2927,
      "серпу": 2928,
      "сервис": 2929,
      "вил": 2930,
      "виш": 2931,
      "вира": 2932,
      "винова": 2933,
      "новое": 2934,
      "новотрои": 2935,
      "соглеб": 2936,
      "владимиров": 2937,
      "ровича": 2938,
      "алма": 2939,
      "улицаба": 2940,
      "улицакирова": 2941,
      "улицакомсомольская": 2942,
      "процедур": 2943,
      "белово": 2944,
      "тое": 2945,
      "товского": 2946,
      "ановой": 2947,
      "никовой": 2948,
      "чак": 2949,
      "чаево": 2950,
      "ственная": 2951,
      "рянка": 2952,
      "мень": 2953,
      "люк": 2954,
      "люкс": 2955,
      "ману": 2956,
      "высел": 2957,
      "краснотур": 2958,
      "ьянова": 2959,
      "татарск": 2960,
      "болот": 2961,
      "андреева": 2962,
      "циали": 2963,
      "моршан": 2964,
      "посад": 2965,
      "ымский": 2966,
      "тюменский": 2967,
      "страницып": 2968,
      "тере": 2969,
      "тино": 2970,
      "тищи": 2971,
      "шие": 2972,
      "шими": 2973,
      "шат": 2974,
      "шами": 2975,
      "шатура": 2976,
      "викторовны": 2977,
      "туй": 2978,
      "тучково": 2979,
      "ивановны": 2980,
      "пуга": 2981,
      "пушкина": 2982,
      "пушкин": 2983,
      "карь": 2984,
      "чино": 2985,
      "читинская": 2986,
      "белый": 2987,
      "ольский": 2988,
      "ольги": 2989,
      "тыр": 2990,
      "джа": 2991,
      "джам": 2992,
      "кину": 2993,
      "нижегород": 2994,
      "ховская": 2995,
      "валери": 2996,
      "валерий": 2997,
      "михайловское": 2998,
      "федер": 2999,
      "федор": 3000,
      "екатерины": 3001,
      "круг": 3002,
      "усова": 3003,
      "альбер": 3004,
      "корреспонден": 3005,
      "виктории": 3006,
      "горького": 3007,
      "горький": 3008,
      "дагестанской": 3009,
      "романов": 3010,
      "зино": 3011,
      "округ": 3012,
      "окруж": 3013,
      "касли": 3014,
      "борисоглеб": 3015,
      "производства": 3016,
      "шуль": 3017,
      "ярославская": 3018,
      "ьевой": 3019,
      "украинской": 3020,
      "караганд": 3021,
      "сахалинск": 3022,
      "автономный": 3023,
      "метов": 3024,
      "парфе": 3025,
      "фомина": 3026,
      "молдова": 3027,
      "камчатская": 3028,
      "октябрьского": 3029,
      "борисовны": 3030,
      "большие": 3031,
      "рыб": 3032,
      "сыктыв": 3033,
      "надежды": 3034,
      "набережной": 3035,
      "разина": 3036,
      "помещение": 3037,
      "колп": 3038,
      "казахстанская": 3039,
      "восточно": 3040,
      "вадимовна": 3041,
      "максима": 3042,
      "ошская": 3043,
      "леонид": 3044,
      "зуево": 3045,
      "ксении": 3046,
      "большой": 3047,
      "смоленск": 3048,
      "смоленская": 3049,
      "стрел": 3050,
      "шахтинск": 3051,
      "константинович": 3052,
      "добрянка": 3053,
      "томский": 3054,
      "строительное": 3055,
      "мытищи": 3056,
      "мельникова": 3057,
      "камень": 3058,
      "каменка": 3059,
      "почт": 3060,
      "аукциона": 3061,
      "наблюдение": 3062,
      "комсомольск": 3063,
      "георгиевич": 3064,
      "игоревны": 3065,
      "бристов": 3066,
      "орел": 3067,
      "щик": 3068,
      "соколова": 3069,
      "озерный": 3070,
      "требования": 3071,
      "хасав": 3072,
      "воркута": 3073,
      "ишим": 3074,
      "чкалова": 3075,
      "станислав": 3076,
      "станиславовна": 3077,
      "возрождение": 3078,
      "ассоциациямсро": 3079,
      "эдуардович": 3080,
      "чебоксар": 3081,
      "форме": 3082,
      "коммуни": 3083,
      "сергиев": 3084,
      "холдин": 3085,
      "кызы": 3086,
      "ности": 3087,
      "ность": 3088,
      "пору": 3089,
      "рмэ": 3090,
      "лебедева": 3091,
      "нефтеюган": 3092,
      "пролетарская": 3093,
      "abdu": 3094,
      "ges": 3095,
      "gett": 3096,
      "агро": 3097,
      "софья": 3098,
      "тдинова": 3099,
      "хутор": 3100,
      "бавлы": 3101,
      "луганская": 3102,
      "работу": 3103,
      "энгельс": 3104,
      "кирилл": 3105,
      "анжели": 3106,
      "капитал": 3107,
      "героев": 3108,
      "матвеева": 3109,
      "песчано": 3110,
      "черкесск": 3111,
      "буденн": 3112,
      "григорьева": 3113,
      "туркмен": 3114,
      "зеленодольск": 3115,
      "союзная": 3116,
      "узбекской": 3117,
      "березники": 3118,
      "магаданской": 3119,
      "бойко": 3120,
      "фрязино": 3121,
      "энергет": 3122,
      "закрытое": 3123,
      "весенняя": 3124,
      "салават": 3125,
      "кунаша": 3126,
      "давлек": 3127,
      "видное": 3128,
      "бородина": 3129,
      "борисова": 3130,
      "партизанская": 3131,
      "алёна": 3132,
      "крестьянская": 3133,
      "харьковская": 3134,
      "kiran": 3135,
      "манту": 3136,
      "пышма": 3137,
      "ремонт": 3138,
      "суворов": 3139,
      "чаплыгин": 3140,
      "казачья": 3141,
      "башкирская": 3142,
      "толстого": 3143,
      "афанасьева": 3144,
      "проживает": 3145,
      "бондаренко": 3146,
      "ломоносова": 3147,
      "опубликовано": 3148,
      "images": 3149,
      "ridley": 3150,
      "saboor": 3151,
      "амуре": 3152,
      "двух": 3153,
      "здания": 3154,
      "мценский": 3155,
      "олимпи": 3156,
      "уточ": 3157,
      "фрунзе": 3158,
      "француз": 3159,
      "ступино": 3160,
      "находка": 3161,
      "национа": 3162,
      "декабристов": 3163,
      "депутат": 3164,
      "адмирала": 3165,
      "таганрог": 3166,
      "прокопьевск": 3167,
      "душанбе": 3168,
      "маршала": 3169,
      "моршанск": 3170,
      "корреспонденции": 3171,
      "борисоглебск": 3172,
      "сыктывкар": 3173,
      "ассоциациямсроау": 3174,
      "abdul": 3175,
      "getty": 3176,
      "(.": 3177,
      ")-": 3178,
      "-.": 3179,
      ">(": 3180,
      "ur": 3181,
      "xi": 3182,
      "̈вой": 3183,
      "аоф": 3184,
      "аев": 3185,
      "аул": 3186,
      "акт": 3187,
      "астов": 3188,
      "апа": 3189,
      "ативная": 3190,
      "арово": 3191,
      "бс": 3192,
      "бая": 3193,
      "бот": 3194,
      "вн": 3195,
      "ври": 3196,
      "вну": 3197,
      "вшими": 3198,
      "гро": 3199,
      "гна": 3200,
      "гский": 3201,
      "губ": 3202,
      "гули": 3203,
      "дро": 3204,
      "дья": 3205,
      "динского": 3206,
      "динская": 3207,
      "дзе": 3208,
      "дический": 3209,
      "еева": 3210,
      "жк": 3211,
      "жки": 3212,
      "жанна": 3213,
      "жок": 3214,
      "зии": 3215,
      "зад": 3216,
      "зия": 3217,
      "здани": 3218,
      "ид": 3219,
      "ик": 3220,
      "иля": 3221,
      "иса": 3222,
      "ило": 3223,
      "иваш": 3224,
      "иже": 3225,
      "имени": 3226,
      "кер": 3227,
      "кля": 3228,
      "кша": 3229,
      "кчр": 3230,
      "лимо": 3231,
      "мз": 3232,
      "мод": 3233,
      "муп": 3234,
      "мали": 3235,
      "ноб": 3236,
      "ообще": 3237,
      "опер": 3238,
      "оча": 3239,
      "оаоф": 3240,
      "перс": 3241,
      "пласт": 3242,
      "пур": 3243,
      "пси": 3244,
      "пят": 3245,
      "план": 3246,
      "правле": 3247,
      "сд": 3248,
      "сод": 3249,
      "сне": 3250,
      "сем": 3251,
      "сская": 3252,
      "свя": 3253,
      "сево": 3254,
      "сенко": 3255,
      "тл": 3256,
      "тва": 3257,
      "терс": 3258,
      "тский": 3259,
      "тон": 3260,
      "той": 3261,
      "тинской": 3262,
      "тофи": 3263,
      "тбс": 3264,
      "ум": 3265,
      "усср": 3266,
      "умана": 3267,
      "фани": 3268,
      "фир": 3269,
      "хле": 3270,
      "хая": 3271,
      "хри": 3272,
      "хского": 3273,
      "хим": 3274,
      "цвет": 3275,
      "цфо": 3276,
      "чан": 3277,
      "чле": 3278,
      "чина": 3279,
      "чинская": 3280,
      "шка": 3281,
      "шур": 3282,
      "шкино": 3283,
      "шанка": 3284,
      "шари": 3285,
      "щер": 3286,
      "щевский": 3287,
      "ыкова": 3288,
      "ышева": 3289,
      "ьково": 3290,
      "эст": 3291,
      "эконо": 3292,
      "юли": 3293,
      "юрт": 3294,
      "яков": 3295,
      "якова": 3296,
      "язан": 3297,
      "яшев": 3298,
      "стор": 3299,
      "робер": 3300,
      "розы": 3301,
      "роника": 3302,
      "ске": 3303,
      "анге": 3304,
      "анный": 3305,
      "анным": 3306,
      "йского": 3307,
      "ображ": 3308,
      "обоснов": 3309,
      "нины": 3310,
      "ницы": 3311,
      "нинская": 3312,
      "ническая": 3313,
      "ера": 3314,
      "леп": 3315,
      "лево": 3316,
      "миров": 3317,
      "миков": 3318,
      "мирова": 3319,
      "минская": 3320,
      "мидова": 3321,
      "одос": 3322,
      "реа": 3323,
      "рект": 3324,
      "рецк": 3325,
      "реутов": 3326,
      "рад": 3327,
      "рак": 3328,
      "рах": 3329,
      "рая": 3330,
      "рами": 3331,
      "раши": 3332,
      "рафа": 3333,
      "рабоч": 3334,
      "нна": 3335,
      "гож": 3336,
      "госуд": 3337,
      "голов": 3338,
      "латы": 3339,
      "ламова": 3340,
      "лазна": 3341,
      "кок": 3342,
      "копе": 3343,
      "кохма": 3344,
      "кольский": 3345,
      "космо": 3346,
      "кошево": 3347,
      "коопер": 3348,
      "орлова": 3349,
      "оршан": 3350,
      "нари": 3351,
      "наур": 3352,
      "нача": 3353,
      "назна": 3354,
      "начар": 3355,
      "направле": 3356,
      "мого": 3357,
      "мона": 3358,
      "мово": 3359,
      "ней": 3360,
      "нена": 3361,
      "нения": 3362,
      "нево": 3363,
      "неве": 3364,
      "непо": 3365,
      "негорск": 3366,
      "невая": 3367,
      "демен": 3368,
      "денец": 3369,
      "демина": 3370,
      "демика": 3371,
      "гара": 3372,
      "гаева": 3373,
      "гаври": 3374,
      "упской": 3375,
      "нок": 3376,
      "ноги": 3377,
      "норова": 3378,
      "арта": 3379,
      "арма": 3380,
      "арту": 3381,
      "арян": 3382,
      "аркад": 3383,
      "антона": 3384,
      "антони": 3385,
      "имость": 3386,
      "подря": 3387,
      "подоси": 3388,
      "шеста": 3389,
      "шенко": 3390,
      "шесто": 3391,
      "лив": 3392,
      "лид": 3393,
      "лиева": 3394,
      "лилии": 3395,
      "ембург": 3396,
      "еву": 3397,
      "биевич": 3398,
      "родная": 3399,
      "меги": 3400,
      "мелен": 3401,
      "медов": 3402,
      "городтвер": 3403,
      "городусть": 3404,
      "городнижний": 3405,
      "городсургут": 3406,
      "городуфа": 3407,
      "городхабаровск": 3408,
      "городсочи": 3409,
      "городкасимов": 3410,
      "решениемас": 3411,
      "сул": 3412,
      "суход": 3413,
      "суза": 3414,
      "сулей": 3415,
      "льного": 3416,
      "льной": 3417,
      "льных": 3418,
      "адхмао": 3419,
      "аслан": 3420,
      "асообще": 3421,
      "ичал": 3422,
      "ринский": 3423,
      "ринск": 3424,
      "кат": 3425,
      "катав": 3426,
      "зара": 3427,
      "заба": 3428,
      "заги": 3429,
      "запу": 3430,
      "застрой": 3431,
      "забло": 3432,
      "заполяр": 3433,
      "уллина": 3434,
      "ровск": 3435,
      "ровград": 3436,
      "тала": 3437,
      "тали": 3438,
      "таев": 3439,
      "таль": 3440,
      "таева": 3441,
      "тагил": 3442,
      "щёл": 3443,
      "щелково": 3444,
      "инки": 3445,
      "интер": 3446,
      "инвест": 3447,
      "ингуш": 3448,
      "вени": 3449,
      "вели": 3450,
      "веки": 3451,
      "веровна": 3452,
      "венский": 3453,
      "вероника": 3454,
      "алин": 3455,
      "алия": 3456,
      "алиевич": 3457,
      "отме": 3458,
      "отович": 3459,
      "има": 3460,
      "привокзальная": 3461,
      "прибре": 3462,
      "ких": 3463,
      "кине": 3464,
      "киль": 3465,
      "киши": 3466,
      "кизе": 3467,
      "кировский": 3468,
      "гря": 3469,
      "сау": 3470,
      "сапро": 3471,
      "саков": 3472,
      "сафо": 3473,
      "салда": 3474,
      "анах": 3475,
      "горка": 3476,
      "горный": 3477,
      "поло": 3478,
      "погран": 3479,
      "полазна": 3480,
      "чегорск": 3481,
      "чёв": 3482,
      "чению": 3483,
      "ярский": 3484,
      "яранск": 3485,
      "диновна": 3486,
      "директ": 3487,
      "мам": 3488,
      "маш": 3489,
      "маку": 3490,
      "маги": 3491,
      "маратов": 3492,
      "мажи": 3493,
      "кущ": 3494,
      "кура": 3495,
      "кужен": 3496,
      "профе": 3497,
      "бату": 3498,
      "бакан": 3499,
      "данова": 3500,
      "данным": 3501,
      "данные": 3502,
      "ловград": 3503,
      "моска": 3504,
      "дам": 3505,
      "дара": 3506,
      "гино": 3507,
      "гиль": 3508,
      "ление": 3509,
      "московское": 3510,
      "цена": 3511,
      "сиб": 3512,
      "сист": 3513,
      "сино": 3514,
      "курку": 3515,
      "курча": 3516,
      "куртам": 3517,
      "теат": 3518,
      "новод": 3519,
      "новор": 3520,
      "новское": 3521,
      "марты": 3522,
      "марселе": 3523,
      "вир": 3524,
      "анис": 3525,
      "новосеме": 3526,
      "новопок": 3527,
      "новошахтинск": 3528,
      "верби": 3529,
      "соли": 3530,
      "сопа": 3531,
      "сошь": 3532,
      "лож": 3533,
      "лопа": 3534,
      "ложе": 3535,
      "лось": 3536,
      "владимира": 3537,
      "ковка": 3538,
      "торга": 3539,
      "торжок": 3540,
      "ровичи": 3541,
      "алфе": 3542,
      "признаны": 3543,
      "признанного": 3544,
      "ствовали": 3545,
      "бинского": 3546,
      "крупской": 3547,
      "улицаб": 3548,
      "улицацентральная": 3549,
      "улицагагарина": 3550,
      "улицаоктябрьская": 3551,
      "петр": 3552,
      "пету": 3553,
      "петровка": 3554,
      "регион": 3555,
      "беж": 3556,
      "бек": 3557,
      "белинского": 3558,
      "ющие": 3559,
      "авгу": 3560,
      "авангар": 3561,
      "топ": 3562,
      "тогу": 3563,
      "товны": 3564,
      "тати": 3565,
      "совского": 3566,
      "совхоз": 3567,
      "совхозная": 3568,
      "ивана": 3569,
      "хараб": 3570,
      "регистраци": 3571,
      "обществом": 3572,
      "конк": 3573,
      "ирты": 3574,
      "преж": 3575,
      "люции": 3576,
      "лютина": 3577,
      "алексеевка": 3578,
      "несе": 3579,
      "стово": 3580,
      "стовой": 3581,
      "николаев": 3582,
      "николаевка": 3583,
      "выру": 3584,
      "елене": 3585,
      "ртира": 3586,
      "волков": 3587,
      "ьянск": 3588,
      "руже": 3589,
      "русь": 3590,
      "бога": 3591,
      "боград": 3592,
      "бологов": 3593,
      "гус": 3594,
      "доро": 3595,
      "россошь": 3596,
      "иркутский": 3597,
      "ленникова": 3598,
      "городабакан": 3599,
      "ренкова": 3600,
      "морская": 3601,
      "посело": 3602,
      "страницыа": 3603,
      "страницыса": 3604,
      "ворон": 3605,
      "годар": 3606,
      "ленинградский": 3607,
      "юртовский": 3608,
      "республикабашкортостан": 3609,
      "дмитров": 3610,
      "терент": 3611,
      "титы": 3612,
      "шара": 3613,
      "тузи": 3614,
      "чух": 3615,
      "чугу": 3616,
      "школьный": 3617,
      "кари": 3618,
      "карга": 3619,
      "кармаск": 3620,
      "песков": 3621,
      "пестре": 3622,
      "пестово": 3623,
      "читинской": 3624,
      "довны": 3625,
      "черла": 3626,
      "черны": 3627,
      "сей": 3628,
      "оренбургский": 3629,
      "луговая": 3630,
      "луначар": 3631,
      "берд": 3632,
      "крытых": 3633,
      "хайрул": 3634,
      "василий": 3635,
      "гань": 3636,
      "янги": 3637,
      "джанова": 3638,
      "кинского": 3639,
      "муни": 3640,
      "мусы": 3641,
      "михайлова": 3642,
      "акмо": 3643,
      "ховский": 3644,
      "валерьевны": 3645,
      "михайловск": 3646,
      "михайловка": 3647,
      "михайловича": 3648,
      "павла": 3649,
      "светлы": 3650,
      "ферополь": 3651,
      "феодос": 3652,
      "рекапункт": 3653,
      "признать": 3654,
      "жига": 3655,
      "жигу": 3656,
      "тивной": 3657,
      "борского": 3658,
      "олега": 3659,
      "оленегорск": 3660,
      "ановая": 3661,
      "быв": 3662,
      "осетия": 3663,
      "камыз": 3664,
      "старая": 3665,
      "вологда": 3666,
      "чувашия": 3667,
      "евгеньевны": 3668,
      "вичуга": 3669,
      "резолютивной": 3670,
      "кузь": 3671,
      "зерский": 3672,
      "пунктту": 3673,
      "ильина": 3674,
      "ильги": 3675,
      "акционерного": 3676,
      "жел": 3677,
      "жение": 3678,
      "фами": 3679,
      "орловский": 3680,
      "испол": 3681,
      "альме": 3682,
      "альметьевск": 3683,
      "филимо": 3684,
      "коркино": 3685,
      "летия": 3686,
      "номер": 3687,
      "действ": 3688,
      "геннадьевны": 3689,
      "нецкая": 3690,
      "мирза": 3691,
      "дагестанская": 3692,
      "улицановая": 3693,
      "зово": 3694,
      "завода": 3695,
      "заводоу": 3696,
      "зиной": 3697,
      "цевой": 3698,
      "центр": 3699,
      "илии": 3700,
      "илша": 3701,
      "криу": 3702,
      "слан": 3703,
      "казахской": 3704,
      "производственная": 3705,
      "абха": 3706,
      "абдул": 3707,
      "шукова": 3708,
      "имовны": 3709,
      "новича": 3710,
      "крымской": 3711,
      "уроженки": 3712,
      "уроженца": 3713,
      "куйбышевский": 3714,
      "ьевка": 3715,
      "мансийск": 3716,
      "центральный": 3717,
      "дарьи": 3718,
      "ушт": 3719,
      "ушкино": 3720,
      "степановна": 3721,
      "карачаево": 3722,
      "метова": 3723,
      "парт": 3724,
      "париже": 3725,
      "октябрьское": 3726,
      "ахту": 3727,
      "здная": 3728,
      "байкальская": 3729,
      "сыр": 3730,
      "аткар": 3731,
      "мовского": 3732,
      "невского": 3733,
      "мордовская": 3734,
      "железногорск": 3735,
      "южная": 3736,
      "вадимович": 3737,
      "ошской": 3738,
      "саранск": 3739,
      "балах": 3740,
      "басская": 3741,
      "басова": 3742,
      "масленникова": 3743,
      "общая": 3744,
      "предложе": 3745,
      "большере": 3746,
      "большое": 3747,
      "егоров": 3748,
      "химиков": 3749,
      "левна": 3750,
      "королёв": 3751,
      "талды": 3752,
      "публичного": 3753,
      "спец": 3754,
      "специали": 3755,
      "тимат": 3756,
      "якутск": 3757,
      "дивизии": 3758,
      "благодар": 3759,
      "цовка": 3760,
      "каменского": 3761,
      "днеп": 3762,
      "климов": 3763,
      "герцена": 3764,
      "елисе": 3765,
      "куба": 3766,
      "кубан": 3767,
      "ключи": 3768,
      "сайте": 3769,
      "семенов": 3770,
      "семенова": 3771,
      "эльвира": 3772,
      "соколово": 3773,
      "руслановна": 3774,
      "булат": 3775,
      "верхнеуральск": 3776,
      "золот": 3777,
      "хасанова": 3778,
      "энтузи": 3779,
      "янао": 3780,
      "студенец": 3781,
      "стующие": 3782,
      "кириленко": 3783,
      "федоровой": 3784,
      "дзержинский": 3785,
      "дзержинск": 3786,
      "женск": 3787,
      "женский": 3788,
      "провод": 3789,
      "сима": 3790,
      "симферополь": 3791,
      "возоб": 3792,
      "магомед": 3793,
      "магомедова": 3794,
      "красноармейский": 3795,
      "северск": 3796,
      "азербайджанской": 3797,
      "эдуард": 3798,
      "эдуардовна": 3799,
      "лариса": 3800,
      "мончегорск": 3801,
      "коммунар": 3802,
      "семибратов": 3803,
      "знаменский": 3804,
      "кыр": 3805,
      "грузинской": 3806,
      "савин": 3807,
      "сосновка": 3808,
      "сосновый": 3809,
      "пролетарский": 3810,
      "ашотович": 3811,
      "ульбинский": 3812,
      "милле": 3813,
      "антонова": 3814,
      "компания": 3815,
      "компании": 3816,
      "заречный": 3817,
      "заречная": 3818,
      "профсоюза": 3819,
      "профсоюзная": 3820,
      "бабаева": 3821,
      "луганск": 3822,
      "медведева": 3823,
      "киргизская": 3824,
      "киргизия": 3825,
      "березовка": 3826,
      "энгельса": 3827,
      "яковлев": 3828,
      "яковлева": 3829,
      "реструктуризации": 3830,
      "авиа": 3831,
      "авиасообще": 3832,
      "зайн": 3833,
      "зайцева": 3834,
      "оконе": 3835,
      "плани": 3836,
      "стерлита": 3837,
      "миронова": 3838,
      "реченская": 3839,
      "морозов": 3840,
      "героя": 3841,
      "полины": 3842,
      "виноградная": 3843,
      "дорожная": 3844,
      "ворошиловград": 3845,
      "черкесской": 3846,
      "васильева": 3847,
      "буденного": 3848,
      "стопольский": 3849,
      "зеленодольский": 3850,
      "узбекская": 3851,
      "отрадная": 3852,
      "площади": 3853,
      "засяд": 3854,
      "кандала": 3855,
      "чайковский": 3856,
      "шадринск": 3857,
      "юрия": 3858,
      "юридический": 3859,
      "лазарева": 3860,
      "комарова": 3861,
      "шебекино": 3862,
      "шебекинский": 3863,
      "также": 3864,
      "генерала": 3865,
      "порожский": 3866,
      "кустанайской": 3867,
      "джалиля": 3868,
      "филиппины": 3869,
      "аксай": 3870,
      "илович": 3871,
      "протестующие": 3872,
      "свири": 3873,
      "тяников": 3874,
      "участников": 3875,
      "рейсы": 3876,
      "великий": 3877,
      "чеченской": 3878,
      "даниил": 3879,
      "дунайский": 3880,
      "маргарита": 3881,
      "сорокина": 3882,
      "советского": 3883,
      "букреева": 3884,
      "спасский": 3885,
      "ильинич": 3886,
      "степанаван": 3887,
      "металлургов": 3888,
      "минусинск": 3889,
      "тимофеева": 3890,
      "тимашевск": 3891,
      "чимкентской": 3892,
      "академика": 3893,
      "зверева": 3894,
      "квартира": 3895,
      "псковской": 3896,
      "саяногорск": 3897,
      "сотруд": 3898,
      "ссиона": 3899,
      "хмельни": 3900,
      "чиркова": 3901,
      "ягодное": 3902,
      "революции": 3903,
      "колесникова": 3904,
      "навтов": 3905,
      "ногинск": 3906,
      "объект": 3907,
      "достоевского": 3908,
      "литера": 3909,
      "городище": 3910,
      "асланович": 3911,
      "западная": 3912,
      "отсутству": 3913,
      "киселев": 3914,
      "димитровград": 3915,
      "кукмор": 3916,
      "серпухов": 3917,
      "процедуру": 3918,
      "люксембург": 3919,
      "джамбул": 3920,
      "парфенов": 3921,
      "рыбно": 3922,
      "коммунистическая": 3923,
      "холдинг": 3924,
      "поручению": 3925,
      "песчанокоп": 3926,
      "туркменской": 3927,
      "энергетиков": 3928,
      "олимпийская": 3929,
      "депутатская": 3930,
      "апатиты": 3931,
      "вшимися": 3932,
      "кляв": 3933,
      "содруже": 3934,
      "химки": 3935,
      "щерба": 3936,
      "экономи": 3937,
      "ангелина": 3938,
      "обоснованным": 3939,
      "рабочая": 3940,
      "государ": 3941,
      "космонавтов": 3942,
      "кооперативная": 3943,
      "непокрытых": 3944,
      "армавир": 3945,
      "шестопалова": 3946,
      "мегион": 3947,
      "городтверь": 3948,
      "забастов": 3949,
      "застройщик": 3950,
      "интернациона": 3951,
      "ингушетия": 3952,
      "прибрежный": 3953,
      "погранич": 3954,
      "магит": 3955,
      "куженер": 3956,
      "профессиона": 3957,
      "куртамыш": 3958,
      "новосемейкино": 3959,
      "сопау": 3960,
      "авангард": 3961,
      "харабали": 3962,
      "регистрационный": 3963,
      "иртыш": 3964,
      "поселок": 3965,
      "пестречинский": 3966,
      "луначарского": 3967,
      "светлый": 3968,
      "феодосия": 3969,
      "предложения": 3970,
      "энтузиастов": 3971,
      "стерлитамак": 3972,
      "засядько": 3973,
      "содружество": 3974,
      "):": 3975,
      ".(<": 3976,
      "_ст": 3977,
      "ap": 3978,
      "ar": 3979,
      "aur": 3980,
      "cf": 3981,
      "dt": 3982,
      "el": 3983,
      "en": 3984,
      "in": 3985,
      "is": 3986,
      "ien": 3987,
      "ks": 3988,
      "lv": 3989,
      "mh": 3990,
      "mor": 3991,
      "rol": 3992,
      "sar": 3993,
      "xxi": 3994,
      "̈во": 3995,
      "аско": 3996,
      "ата": 3997,
      "аве": 3998,
      "аге": 3999,
      "авер": 4000,
      "ации": 4001,
      "аева": 4002,
      "алья": 4003,
      "ати": 4004,
      "арова": 4005,
      "абу": 4006,
      "афи": 4007,
      "амира": 4008,
      "бю": 4009,
      "бро": 4010,
      "бли": 4011,
      "бад": 4012,
      "бров": 4013,
      "бсср": 4014,
      "ббот": 4015,
      "вост": 4016,
      "вход": 4017,
      "вля": 4018,
      "вобо": 4019,
      "всево": 4020,
      "гуп": 4021,
      "гли": 4022,
      "гия": 4023,
      "глан": 4024,
      "глава": 4025,
      "гсургут": 4026,
      "гимова": 4027,
      "глинский": 4028,
      "грече": 4029,
      "гыз": 4030,
      "дз": 4031,
      "дн": 4032,
      "дэ": 4033,
      "дали": 4034,
      "дру": 4035,
      "днт": 4036,
      "дры": 4037,
      "дымский": 4038,
      "ё": 4039,
      "еде": 4040,
      "еев": 4041,
      "ерод": 4042,
      "ель": 4043,
      "ека": 4044,
      "еси": 4045,
      "есе": 4046,
      "ельская": 4047,
      "езд": 4048,
      "ейск": 4049,
      "едании": 4050,
      "жай": 4051,
      "жар": 4052,
      "жем": 4053,
      "жул": 4054,
      "жин": 4055,
      "жали": 4056,
      "жана": 4057,
      "жир": 4058,
      "жева": 4059,
      "жму": 4060,
      "жура": 4061,
      "жевой": 4062,
      "жала": 4063,
      "жаны": 4064,
      "зя": 4065,
      "зла": 4066,
      "зул": 4067,
      "зба": 4068,
      "зева": 4069,
      "земе": 4070,
      "зинского": 4071,
      "зиль": 4072,
      "зис": 4073,
      "зников": 4074,
      "зановна": 4075,
      "зран": 4076,
      "зари": 4077,
      "зима": 4078,
      "иле": 4079,
      "ише": 4080,
      "ирович": 4081,
      "ито": 4082,
      "иха": 4083,
      "илова": 4084,
      "ипа": 4085,
      "итим": 4086,
      "ибра": 4087,
      "игоря": 4088,
      "игна": 4089,
      "кн": 4090,
      "кф": 4091,
      "кле": 4092,
      "кет": 4093,
      "кской": 4094,
      "кская": 4095,
      "кана": 4096,
      "кяр": 4097,
      "кма": 4098,
      "кси": 4099,
      "канов": 4100,
      "кен": 4101,
      "кстов": 4102,
      "кром": 4103,
      "клинская": 4104,
      "лм": 4105,
      "лер": 4106,
      "лли": 4107,
      "ланд": 4108,
      "мк": 4109,
      "мская": 4110,
      "мского": 4111,
      "мма": 4112,
      "мглинский": 4113,
      "нк": 4114,
      "нчу": 4115,
      "оно": 4116,
      "олов": 4117,
      "онов": 4118,
      "оло": 4119,
      "оники": 4120,
      "очная": 4121,
      "опы": 4122,
      "пт": 4123,
      "пш": 4124,
      "пь": 4125,
      "пск": 4126,
      "плю": 4127,
      "пру": 4128,
      "пенко": 4129,
      "пруд": 4130,
      "платово": 4131,
      "сф": 4132,
      "сх": 4133,
      "сла": 4134,
      "спи": 4135,
      "сны": 4136,
      "состоя": 4137,
      "санова": 4138,
      "снаб": 4139,
      "селез": 4140,
      "счаст": 4141,
      "слеп": 4142,
      "тоб": 4143,
      "тко": 4144,
      "туп": 4145,
      "тков": 4146,
      "тиче": 4147,
      "ткина": 4148,
      "тархан": 4149,
      "тникова": 4150,
      "труд": 4151,
      "тьевой": 4152,
      "ткяр": 4153,
      "уровна": 4154,
      "укр": 4155,
      "усов": 4156,
      "уян": 4157,
      "ушев": 4158,
      "уйский": 4159,
      "удаль": 4160,
      "ухинского": 4161,
      "унеча": 4162,
      "ужева": 4163,
      "фия": 4164,
      "фур": 4165,
      "фина": 4166,
      "фари": 4167,
      "флот": 4168,
      "хе": 4169,
      "хва": 4170,
      "хла": 4171,
      "хет": 4172,
      "хме": 4173,
      "хон": 4174,
      "хви": 4175,
      "хинский": 4176,
      "ховая": 4177,
      "хело": 4178,
      "хтия": 4179,
      "ций": 4180,
      "цим": 4181,
      "цюр": 4182,
      "чь": 4183,
      "час": 4184,
      "чур": 4185,
      "чон": 4186,
      "чал": 4187,
      "чкин": 4188,
      "чево": 4189,
      "чевский": 4190,
      "чногорск": 4191,
      "чаны": 4192,
      "чановского": 4193,
      "шай": 4194,
      "шский": 4195,
      "шма": 4196,
      "шал": 4197,
      "шав": 4198,
      "шкова": 4199,
      "шпа": 4200,
      "шня": 4201,
      "шинский": 4202,
      "шинского": 4203,
      "шник": 4204,
      "шары": 4205,
      "шманов": 4206,
      "шманова": 4207,
      "шниково": 4208,
      "ща": 4209,
      "щор": 4210,
      "щем": 4211,
      "щает": 4212,
      "ыкина": 4213,
      "ыково": 4214,
      "ькова": 4215,
      "ьинская": 4216,
      "эми": 4217,
      "юрина": 4218,
      "юшкина": 4219,
      "юнг": 4220,
      "юности": 4221,
      "яс": 4222,
      "ях": 4223,
      "ящ": 4224,
      "ятель": 4225,
      "янский": 4226,
      "ярово": 4227,
      "янина": 4228,
      "яван": 4229,
      "яшкин": 4230,
      "ябло": 4231,
      "стю": 4232,
      "стин": 4233,
      "стон": 4234,
      "стен": 4235,
      "стных": 4236,
      "стилии": 4237,
      "роб": 4238,
      "роп": 4239,
      "роны": 4240,
      "роза": 4241,
      "ролю": 4242,
      "ронский": 4243,
      "роновна": 4244,
      "ростроителей": 4245,
      "скрес": 4246,
      "ских": 4247,
      "анан": 4248,
      "анне": 4249,
      "анского": 4250,
      "анчинский": 4251,
      "ануф": 4252,
      "анверовна": 4253,
      "йд": 4254,
      "йка": 4255,
      "йная": 4256,
      "йкова": 4257,
      "йковский": 4258,
      "оби": 4259,
      "обер": 4260,
      "обра": 4261,
      "обсков": 4262,
      "обязан": 4263,
      "обыково": 4264,
      "них": 4265,
      "нири": 4266,
      "ниной": 4267,
      "нигово": 4268,
      "ерв": 4269,
      "ерт": 4270,
      "ерина": 4271,
      "ерма": 4272,
      "ерав": 4273,
      "ерское": 4274,
      "ержаны": 4275,
      "леи": 4276,
      "ления": 4277,
      "леон": 4278,
      "леси": 4279,
      "легов": 4280,
      "леева": 4281,
      "левич": 4282,
      "лешу": 4283,
      "леуш": 4284,
      "лёва": 4285,
      "мист": 4286,
      "мине": 4287,
      "мино": 4288,
      "мише": 4289,
      "мили": 4290,
      "минер": 4291,
      "мишева": 4292,
      "микро": 4293,
      "микович": 4294,
      "одна": 4295,
      "один": 4296,
      "оджали": 4297,
      "рель": 4298,
      "реши": 4299,
      "редне": 4300,
      "рестор": 4301,
      "рава": 4302,
      "рали": 4303,
      "рама": 4304,
      "рави": 4305,
      "рабе": 4306,
      "рамен": 4307,
      "раци": 4308,
      "ральная": 4309,
      "рашева": 4310,
      "ваг": 4311,
      "вас": 4312,
      "вай": 4313,
      "ваев": 4314,
      "вату": 4315,
      "васин": 4316,
      "вахру": 4317,
      "гол": 4318,
      "гон": 4319,
      "голи": 4320,
      "голо": 4321,
      "голы": 4322,
      "лар": 4323,
      "лага": 4324,
      "лаева": 4325,
      "латова": 4326,
      "латовна": 4327,
      "лабинский": 4328,
      "лабинск": 4329,
      "ларусь": 4330,
      "коре": 4331,
      "кона": 4332,
      "корот": 4333,
      "коше": 4334,
      "коче": 4335,
      "ковер": 4336,
      "котор": 4337,
      "котов": 4338,
      "кофе": 4339,
      "коста": 4340,
      "котова": 4341,
      "костина": 4342,
      "котовск": 4343,
      "кожев": 4344,
      "когал": 4345,
      "копаева": 4346,
      "корабе": 4347,
      "ордж": 4348,
      "орды": 4349,
      "ортава": 4350,
      "оршанка": 4351,
      "нах": 4352,
      "наво": 4353,
      "наче": 4354,
      "нада": 4355,
      "наиль": 4356,
      "насто": 4357,
      "налоб": 4358,
      "нагорная": 4359,
      "мое": 4360,
      "моц": 4361,
      "мокра": 4362,
      "моло": 4363,
      "мотор": 4364,
      "монова": 4365,
      "мокро": 4366,
      "можай": 4367,
      "скова": 4368,
      "сколь": 4369,
      "скором": 4370,
      "етчинский": 4371,
      "нем": 4372,
      "неми": 4373,
      "некрас": 4374,
      "ненский": 4375,
      "ненская": 4376,
      "нефе": 4377,
      "нёв": 4378,
      "нестер": 4379,
      "несколь": 4380,
      "анки": 4381,
      "дем": 4382,
      "деся": 4383,
      "демидова": 4384,
      "деятель": 4385,
      "демокра": 4386,
      "остужева": 4387,
      "роты": 4388,
      "банкротстве": 4389,
      "гаев": 4390,
      "гаги": 4391,
      "гаря": 4392,
      "гафа": 4393,
      "гайский": 4394,
      "гарева": 4395,
      "гасово": 4396,
      "гаджи": 4397,
      "гасан": 4398,
      "гасанова": 4399,
      "нос": 4400,
      "нома": 4401,
      "ногина": 4402,
      "ногинский": 4403,
      "новец": 4404,
      "ногайский": 4405,
      "арб": 4406,
      "арсл": 4407,
      "артура": 4408,
      ">.(": 4409,
      "анта": 4410,
      "антский": 4411,
      "антраци": 4412,
      "вленко": 4413,
      "пио": 4414,
      "пис": 4415,
      "пина": 4416,
      "пиль": 4417,
      "пиря": 4418,
      "питкяр": 4419,
      "подин": 4420,
      "подгор": 4421,
      "троф": 4422,
      "электрогорск": 4423,
      "электродный": 4424,
      "ламей": 4425,
      "етысай": 4426,
      "шего": 4427,
      "шена": 4428,
      "шевой": 4429,
      "лидер": 4430,
      "лиха": 4431,
      "линской": 4432,
      "ливая": 4433,
      "лиловского": 4434,
      "лиханова": 4435,
      "инна": 4436,
      "евла": 4437,
      "евской": 4438,
      "бик": 4439,
      "бины": 4440,
      "бикова": 4441,
      "бийского": 4442,
      "овск": 4443,
      "меш": 4444,
      "мели": 4445,
      "мерова": 4446,
      "мелик": 4447,
      "городов": 4448,
      "городку": 4449,
      "городкрасно": 4450,
      "городтамбов": 4451,
      "городтольятти": 4452,
      "городстре": 4453,
      "городкоро": 4454,
      "городмурманск": 4455,
      "городбело": 4456,
      "городволжский": 4457,
      "городкемерово": 4458,
      "городташкент": 4459,
      "городок": 4460,
      "городнижнекамск": 4461,
      "городчереповец": 4462,
      "городзар": 4463,
      "городтомск": 4464,
      "городбалашиха": 4465,
      "городбелгород": 4466,
      "городпетропавловск": 4467,
      "городблаговещенск": 4468,
      "городвладикавказ": 4469,
      "городлюберцы": 4470,
      "городбийск": 4471,
      "городмуром": 4472,
      "городчебоксары": 4473,
      "городзве": 4474,
      "городнальчик": 4475,
      "городсвердловск": 4476,
      "городусолье": 4477,
      "городбугуруслан": 4478,
      "городэлектросталь": 4479,
      "городсоро": 4480,
      "городчита": 4481,
      "городкер": 4482,
      "городщелково": 4483,
      "городторжок": 4484,
      "городмончегорск": 4485,
      "городзаречный": 4486,
      "городчайковский": 4487,
      "городсерпухов": 4488,
      "городармавир": 4489,
      "городфеодосия": 4490,
      "сух": 4491,
      "сури": 4492,
      "суворо": 4493,
      "сурова": 4494,
      "сухо": 4495,
      "суслов": 4496,
      "сущевский": 4497,
      "суббот": 4498,
      "льев": 4499,
      "льское": 4500,
      "льцова": 4501,
      "льдовна": 4502,
      "льметьевск": 4503,
      "льфович": 4504,
      "адлан": 4505,
      "судженск": 4506,
      "асад": 4507,
      "ичо": 4508,
      "месту": 4509,
      "местов": 4510,
      "местоджали": 4511,
      "рид": 4512,
      "рия": 4513,
      "ритор": 4514,
      "риева": 4515,
      "ринская": 4516,
      "рисова": 4517,
      "ринка": 4518,
      "ными": 4519,
      "красни": 4520,
      "краще": 4521,
      "ками": 4522,
      "каев": 4523,
      "кама": 4524,
      "кавер": 4525,
      "каева": 4526,
      "капу": 4527,
      "капр": 4528,
      "кашин": 4529,
      "качева": 4530,
      "вог": 4531,
      "вон": 4532,
      "вош": 4533,
      "воль": 4534,
      "вольск": 4535,
      "возд": 4536,
      "воору": 4537,
      "воскрес": 4538,
      "вороты": 4539,
      "зак": 4540,
      "зам": 4541,
      "зако": 4542,
      "заур": 4543,
      "залина": 4544,
      "заклю": 4545,
      "запорож": 4546,
      "улово": 4547,
      "ногор": 4548,
      "рованный": 4549,
      "тале": 4550,
      "тата": 4551,
      "тамар": 4552,
      "таево": 4553,
      "тамара": 4554,
      "табас": 4555,
      "талинский": 4556,
      "тахта": 4557,
      ">))": 4558,
      "щения": 4559,
      "щепет": 4560,
      "инжи": 4561,
      "инники": 4562,
      "инзен": 4563,
      "инхело": 4564,
      ".:.": 4565,
      ".:(<": 4566,
      "векв": 4567,
      "вект": 4568,
      "ведом": 4569,
      "вецкого": 4570,
      "векн": 4571,
      "вещает": 4572,
      "омка": 4573,
      "омский": 4574,
      "алим": 4575,
      "алинский": 4576,
      "отн": 4577,
      "отова": 4578,
      "приво": 4579,
      "пристан": 4580,
      "приволж": 4581,
      "присут": 4582,
      "кие": 4583,
      "кизи": 4584,
      "киевск": 4585,
      "кизиль": 4586,
      "онтов": 4587,
      "ончак": 4588,
      "генович": 4589,
      "гепас": 4590,
      "реализацию": 4591,
      "ляй": 4592,
      "ляков": 4593,
      "ляева": 4594,
      "лямова": 4595,
      "рожден": 4596,
      "андро": 4597,
      "андри": 4598,
      "саров": 4599,
      "саве": 4600,
      "саги": 4601,
      "сакк": 4602,
      "сатур": 4603,
      "сафро": 4604,
      "салямова": 4605,
      "месторег": 4606,
      "месторожд": 4607,
      "горно": 4608,
      "горшков": 4609,
      "показа": 4610,
      "погоре": 4611,
      "похви": 4612,
      "понома": 4613,
      "убы": 4614,
      "чеп": 4615,
      "чество": 4616,
      "ченского": 4617,
      "чёва": 4618,
      "чекма": 4619,
      "ярмуха": 4620,
      "дил": 4621,
      "динов": 4622,
      "диной": 4623,
      "динова": 4624,
      "евича": 4625,
      "мав": 4626,
      "мако": 4627,
      "маровна": 4628,
      "матов": 4629,
      "мацев": 4630,
      "марат": 4631,
      "мамед": 4632,
      "маат": 4633,
      "махар": 4634,
      "маке": 4635,
      "машин": 4636,
      "мамедова": 4637,
      "мамедов": 4638,
      "малютина": 4639,
      "кули": 4640,
      "куса": 4641,
      "кунов": 4642,
      "кунова": 4643,
      "кульский": 4644,
      "кусар": 4645,
      "кудря": 4646,
      "кужба": 4647,
      "дерга": 4648,
      "прос": 4649,
      "пропет": 4650,
      "прохо": 4651,
      "пронина": 4652,
      "прохла": 4653,
      "баев": 4654,
      "баль": 4655,
      "база": 4656,
      "балова": 4657,
      "баже": 4658,
      "базар": 4659,
      "бакал": 4660,
      "бастилии": 4661,
      "данил": 4662,
      "лович": 4663,
      "ловское": 4664,
      "республикас": 4665,
      "республикан": 4666,
      "кти": 4667,
      "дак": 4668,
      "даровна": 4669,
      "давы": 4670,
      "даши": 4671,
      "дату": 4672,
      "даровской": 4673,
      "дачная": 4674,
      "гиной": 4675,
      "гирский": 4676,
      "ленинского": 4677,
      "лениногорск": 4678,
      "александру": 4679,
      "московск": 4680,
      "цене": 4681,
      "цели": 4682,
      "деревнярм": 4683,
      "сити": 4684,
      "курского": 4685,
      "курум": 4686,
      "куранах": 4687,
      "града": 4688,
      "дуре": 4689,
      "дуки": 4690,
      "дусмо": 4691,
      "дудин": 4692,
      "дужный": 4693,
      "дущем": 4694,
      "теле": 4695,
      "теля": 4696,
      "тект": 4697,
      "тегуль": 4698,
      "теофи": 4699,
      "улице": 4700,
      "нови": 4701,
      "новиков": 4702,
      "новые": 4703,
      "бурун": 4704,
      "бурмист": 4705,
      "марта": 4706,
      "марков": 4707,
      "марке": 4708,
      "мартья": 4709,
      "марины": 4710,
      "сернур": 4711,
      "сераф": 4712,
      "виной": 4713,
      "цаау": 4714,
      "градская": 4715,
      "страция": 4716,
      "аникина": 4717,
      "анисимо": 4718,
      "новоалександ": 4719,
      "новосе": 4720,
      "новожи": 4721,
      "новоус": 4722,
      "новомы": 4723,
      "новокиевский": 4724,
      "новопетровка": 4725,
      "новомосковск": 4726,
      "верхо": 4727,
      "вермишева": 4728,
      "сола": 4729,
      "сокра": 4730,
      "соля": 4731,
      "соасср": 4732,
      "сокол": 4733,
      "лора": 4734,
      "лота": 4735,
      "логи": 4736,
      "лосино": 4737,
      "кову": 4738,
      "ковск": 4739,
      "ковый": 4740,
      "ковича": 4741,
      "сергеев": 4742,
      "сергеева": 4743,
      "торгово": 4744,
      "алту": 4745,
      "алты": 4746,
      "алдар": 4747,
      "ством": 4748,
      "бинская": 4749,
      "бинка": 4750,
      "улицах": 4751,
      "улицага": 4752,
      "улицаби": 4753,
      "улицаме": 4754,
      "улицаим": 4755,
      "улицароди": 4756,
      "улицамира": 4757,
      "улицаленинградская": 4758,
      "улицараз": 4759,
      "улицашкольная": 4760,
      "улицазеленая": 4761,
      "улицапле": 4762,
      "улицакарла": 4763,
      "улицажелезнодорожная": 4764,
      "улицамаяковского": 4765,
      "улицачерняхов": 4766,
      "улицафрунзе": 4767,
      "улицаадмирала": 4768,
      "улицакрупской": 4769,
      "улицатати": 4770,
      "улицабуденного": 4771,
      "улицаэнтузиастов": 4772,
      "петров": 4773,
      "петрос": 4774,
      "без": 4775,
      "бель": 4776,
      "белов": 4777,
      "бегов": 4778,
      "бекова": 4779,
      "белая": 4780,
      "беларусь": 4781,
      "управл": 4782,
      "томи": 4783,
      "тохина": 4784,
      "тоуст": 4785,
      "ановка": 4786,
      "ановича": 4787,
      "енд": 4788,
      "енск": 4789,
      "енское": 4790,
      "челяб": 4791,
      "совны": 4792,
      "совский": 4793,
      "общественной": 4794,
      "хатл": 4795,
      "перев": 4796,
      "перево": 4797,
      ">;.": 4798,
      "тельмана": 4799,
      "никольское": 4800,
      "ствен": 4801,
      "контро": 4802,
      "конский": 4803,
      "конфедер": 4804,
      "чаков": 4805,
      "чаева": 4806,
      "чапа": 4807,
      "чапаева": 4808,
      "чамз": 4809,
      "говор": 4810,
      "говка": 4811,
      "преды": 4812,
      "пребыв": 4813,
      "прекраще": 4814,
      "предусмо": 4815,
      "рябикова": 4816,
      "менская": 4817,
      "менделе": 4818,
      "люб": 4819,
      "любинский": 4820,
      "странты": 4821,
      "манский": 4822,
      "манского": 4823,
      "алексеевны": 4824,
      "алексеевское": 4825,
      "стовская": 4826,
      "высоко": 4827,
      "выпол": 4828,
      "кутлу": 4829,
      "датам": 4830,
      "датамес": 4831,
      "елец": 4832,
      "сибирь": 4833,
      "сибирский": 4834,
      "волод": 4835,
      "волга": 4836,
      "волкова": 4837,
      "волховский": 4838,
      "определения": 4839,
      "красной": 4840,
      "краснозерский": 4841,
      "определение": 4842,
      "ьянов": 4843,
      "ьянский": 4844,
      "татаринцев": 4845,
      "рудо": 4846,
      "руется": 4847,
      "руста": 4848,
      "русск": 4849,
      "руденко": 4850,
      "богород": 4851,
      "боров": 4852,
      "борова": 4853,
      "бороди": 4854,
      "боровский": 4855,
      "богат": 4856,
      "боровичи": 4857,
      "болатовна": 4858,
      "гуково": 4859,
      "гусь": 4860,
      "гузова": 4861,
      "гусева": 4862,
      "гусей": 4863,
      "донец": 4864,
      "дольная": 4865,
      "долина": 4866,
      "ленский": 4867,
      "ленстрой": 4868,
      "тюм": 4869,
      "тюлю": 4870,
      "санктпетербург": 4871,
      "городальметьевск": 4872,
      "циви": 4873,
      "польская": 4874,
      "емелья": 4875,
      "мурзаева": 4876,
      "мортка": 4877,
      "посред": 4878,
      "ымсакова": 4879,
      "страницыбай": 4880,
      "страницыис": 4881,
      "страницыкара": 4882,
      "страницыиш": 4883,
      "страницывоз": 4884,
      "страницыилек": 4885,
      "страницырешет": 4886,
      "страницымихайловское": 4887,
      "страницыалексеевка": 4888,
      "страницыдату": 4889,
      "воронов": 4890,
      "несостоятельнымбанкротом": 4891,
      "юрченко": 4892,
      "юртовского": 4893,
      "ставка": 4894,
      "торговый": 4895,
      "республикаот": 4896,
      "республикаадыгея": 4897,
      "республикаказахстан": 4898,
      "республикаукраина": 4899,
      "организации": 4900,
      "теря": 4901,
      "терек": 4902,
      "территор": 4903,
      "ставропольская": 4904,
      "тие": 4905,
      "тих": 4906,
      "тиец": 4907,
      "шиной": 4908,
      "шишкина": 4909,
      "шигале": 4910,
      "ширинского": 4911,
      "ширинский": 4912,
      "шижем": 4913,
      "шаб": 4914,
      "шам": 4915,
      "шабанова": 4916,
      "шатохина": 4917,
      "шастовская": 4918,
      "виктора": 4919,
      "тун": 4920,
      "тугул": 4921,
      "чунский": 4922,
      "чурина": 4923,
      "чугова": 4924,
      "школ": 4925,
      "пут": 4926,
      "путе": 4927,
      "пуголи": 4928,
      "карян": 4929,
      "карбы": 4930,
      "карпова": 4931,
      "картот": 4932,
      "пели": 4933,
      "песо": 4934,
      "пезников": 4935,
      "чиасср": 4936,
      "чихи": 4937,
      "чистопольский": 4938,
      "дово": 4939,
      "довский": 4940,
      "черская": 4941,
      "черкашин": 4942,
      "александровичу": 4943,
      "онал": 4944,
      "нежского": 4945,
      "селя": 4946,
      "сельская": 4947,
      "свердловский": 4948,
      "луж": 4949,
      "лука": 4950,
      "лукина": 4951,
      "лусине": 4952,
      "баргу": 4953,
      "баранова": 4954,
      "бараново": 4955,
      "бардымский": 4956,
      "баранчинский": 4957,
      "финанс": 4958,
      "берды": 4959,
      "берего": 4960,
      "бербаш": 4961,
      "бернара": 4962,
      "крыловский": 4963,
      "крыловская": 4964,
      "белг": 4965,
      "белова": 4966,
      "александры": 4967,
      "александрийская": 4968,
      "валова": 4969,
      "брянский": 4970,
      "брянка": 4971,
      "ольского": 4972,
      "янск": 4973,
      "янская": 4974,
      "янка": 4975,
      "янтар": 4976,
      "тые": 4977,
      "футдинова": 4978,
      "джов": 4979,
      "джили": 4980,
      "джетысай": 4981,
      "славск": 4982,
      "кинское": 4983,
      "муса": 4984,
      "муратов": 4985,
      "муста": 4986,
      "мухина": 4987,
      "мукай": 4988,
      "приморско": 4989,
      "акбула": 4990,
      "акций": 4991,
      "ховского": 4992,
      "ховой": 4993,
      "срогау": 4994,
      "измай": 4995,
      "изображ": 4996,
      "извещает": 4997,
      "изотова": 4998,
      "избербаш": 4999,
      "михайловская": 5000,
      "михайловой": 5001,
      "буха": 5002,
      "букаш": 5003,
      "пале": 5004,
      "палат": 5005,
      "папк": 5006,
      "патимат": 5007,
      "павленко": 5008,
      "калитва": 5009,
      "фести": 5010,
      "рекаш": 5011,
      "рекаю": 5012,
      "рекаадыгея": 5013,
      "жиг": 5014,
      "борский": 5015,
      "борское": 5016,
      "олева": 5017,
      "быт": 5018,
      "бычков": 5019,
      "лысенко": 5020,
      "осинники": 5021,
      "тамер": 5022,
      "тамбасова": 5023,
      "няков": 5024,
      "нянский": 5025,
      "нягань": 5026,
      "шевский": 5027,
      "шевского": 5028,
      "шевченко": 5029,
      "стальный": 5030,
      "дмитрию": 5031,
      "ежный": 5032,
      "ежное": 5033,
      "ежовка": 5034,
      "байсу": 5035,
      "байма": 5036,
      "калиниченко": 5037,
      "открытых": 5038,
      "открытой": 5039,
      "тамбове": 5040,
      "казакова": 5041,
      "пунктв": 5042,
      "пунктлян": 5043,
      "пунктновор": 5044,
      "ильфа": 5045,
      "ильмень": 5046,
      "павлод": 5047,
      "фабри": 5048,
      "фадеева": 5049,
      "орловского": 5050,
      "октябре": 5051,
      "исма": 5052,
      "исламей": 5053,
      "альный": 5054,
      "альные": 5055,
      "альбины": 5056,
      "филатово": 5057,
      "цкое": 5058,
      "корне": 5059,
      "корсаков": 5060,
      "удный": 5061,
      "летная": 5062,
      "летняя": 5063,
      "карева": 5064,
      "карельской": 5065,
      "казанское": 5066,
      "бурятской": 5067,
      "славович": 5068,
      "деревнягарева": 5069,
      "деревняфилатово": 5070,
      "мирнинский": 5071,
      "улицан": 5072,
      "улицая": 5073,
      "улицана": 5074,
      "балта": 5075,
      "балтиец": 5076,
      "вячеслава": 5077,
      "денисов": 5078,
      "олеговны": 5079,
      "зированный": 5080,
      "мертау": 5081,
      "ульяна": 5082,
      "цевский": 5083,
      "никитина": 5084,
      "никифо": 5085,
      "илдаровна": 5086,
      "кризис": 5087,
      "слончак": 5088,
      "куйбышева": 5089,
      "производит": 5090,
      "абду": 5091,
      "абзе": 5092,
      "абрамов": 5093,
      "абсалямова": 5094,
      "халитович": 5095,
      "шун": 5096,
      "шутов": 5097,
      "шумиха": 5098,
      "шуйка": 5099,
      "дмсо": 5100,
      "марийская": 5101,
      "ьевский": 5102,
      "максиму": 5103,
      "максимова": 5104,
      "максимовна": 5105,
      "тюменскаяобл": 5106,
      "центрального": 5107,
      "дария": 5108,
      "дома": 5109,
      "повна": 5110,
      "пович": 5111,
      "повой": 5112,
      "повтор": 5113,
      "степанов": 5114,
      "карата": 5115,
      "парковая": 5116,
      "парковый": 5117,
      "фоменко": 5118,
      "фоминск": 5119,
      "стополя": 5120,
      "стоимость": 5121,
      "стороны": 5122,
      "молдав": 5123,
      "витальевны": 5124,
      "бережной": 5125,
      "вячеславовны": 5126,
      "ахва": 5127,
      "ахты": 5128,
      "ахмет": 5129,
      "ахмад": 5130,
      "ахтар": 5131,
      "ахмедович": 5132,
      "ратова": 5133,
      "ратинского": 5134,
      "рыба": 5135,
      "сызран": 5136,
      "сыпь": 5137,
      "уразба": 5138,
      "хакимова": 5139,
      "нере": 5140,
      "медперс": 5141,
      "калачинского": 5142,
      "калашник": 5143,
      "валерьевича": 5144,
      "атинской": 5145,
      "атяшев": 5146,
      "мовна": 5147,
      "мовская": 5148,
      "мовский": 5149,
      "невская": 5150,
      "невка": 5151,
      "невский": 5152,
      "невьянск": 5153,
      "казарян": 5154,
      "помещения": 5155,
      "мордовской": 5156,
      "васильевича": 5157,
      "алев": 5158,
      "алешня": 5159,
      "товар": 5160,
      "стить": 5161,
      "гарда": 5162,
      "малопур": 5163,
      "малошуйка": 5164,
      "казахстанской": 5165,
      "северод": 5166,
      "южное": 5167,
      "вадимовны": 5168,
      "волжская": 5169,
      "сарымсакова": 5170,
      "евгеньевича": 5171,
      "открытое": 5172,
      "открытого": 5173,
      "зуг": 5174,
      "зуль": 5175,
      "копы": 5176,
      "овое": 5177,
      "предлага": 5178,
      "смоленский": 5179,
      "стрельцова": 5180,
      "левск": 5181,
      "левской": 5182,
      "левский": 5183,
      "кострома": 5184,
      "талдом": 5185,
      "шахтер": 5186,
      "константиновского": 5187,
      "eurol": 5188,
      "алатыр": 5189,
      "добролю": 5190,
      "добринка": 5191,
      "ефим": 5192,
      "зыкова": 5193,
      "победи": 5194,
      "томв": 5195,
      "томати": 5196,
      "тимур": 5197,
      "якутская": 5198,
      "челбасская": 5199,
      "пересыпь": 5200,
      "любови": 5201,
      "сургутский": 5202,
      "строительство": 5203,
      "железнодорожной": 5204,
      "железнодорожники": 5205,
      "ванюшкина": 5206,
      "ильяс": 5207,
      "ильясович": 5208,
      "садов": 5209,
      "садовое": 5210,
      "артема": 5211,
      "мельник": 5212,
      "каменский": 5213,
      "починки": 5214,
      "белоусов": 5215,
      "гульшат": 5216,
      "удмуртская": 5217,
      "геннадьевичу": 5218,
      "действующего": 5219,
      "комсомольского": 5220,
      "гургенович": 5221,
      "днева": 5222,
      "дненский": 5223,
      "днепропет": 5224,
      "динское": 5225,
      "климова": 5226,
      "смирновой": 5227,
      "поляна": 5228,
      "рудянка": 5229,
      "временного": 5230,
      "герас": 5231,
      "дубна": 5232,
      "дубовка": 5233,
      "дубовский": 5234,
      "дубрава": 5235,
      "кубанский": 5236,
      "орёл": 5237,
      "сайрам": 5238,
      "эльмира": 5239,
      "эльдар": 5240,
      "тарак": 5241,
      "кировали": 5242,
      "беляева": 5243,
      "беляевой": 5244,
      "руслана": 5245,
      "русланович": 5246,
      "черепанова": 5247,
      "дмитриевича": 5248,
      "продажи": 5249,
      "ташкентской": 5250,
      "ташкентская": 5251,
      "гинка": 5252,
      "жукова": 5253,
      "жуковский": 5254,
      "жуковского": 5255,
      "жуковой": 5256,
      "окул": 5257,
      "озерск": 5258,
      "озерное": 5259,
      "трейд": 5260,
      "урицкого": 5261,
      "урицкий": 5262,
      "структуры": 5263,
      "федоровна": 5264,
      "федоренко": 5265,
      "российских": 5266,
      "благовар": 5267,
      "чкаловского": 5268,
      "радик": 5269,
      "радио": 5270,
      "радикович": 5271,
      "радищева": 5272,
      "нефтяников": 5273,
      "коммерческого": 5274,
      "отрадненский": 5275,
      "малка": 5276,
      "малобыково": 5277,
      "магомедович": 5278,
      "магомедовна": 5279,
      "петровича": 5280,
      "красноармейск": 5281,
      "черкасова": 5282,
      "азербайджанская": 5283,
      "аскарово": 5284,
      "гулова": 5285,
      "егорлы": 5286,
      "зинченко": 5287,
      "трапезников": 5288,
      "таран": 5289,
      "формой": 5290,
      "фарход": 5291,
      "фархад": 5292,
      "фармацев": 5293,
      "ларисы": 5294,
      "монтаж": 5295,
      "макаров": 5296,
      "сергиенко": 5297,
      "сергиевского": 5298,
      "семиреченская": 5299,
      "семипалат": 5300,
      "староминский": 5301,
      "слобода": 5302,
      "слободского": 5303,
      "слободское": 5304,
      "аммаат": 5305,
      "кайби": 5306,
      "мановский": 5307,
      "нурдинович": 5308,
      "тимошен": 5309,
      "ткаченко": 5310,
      "ткачёв": 5311,
      "лебедев": 5312,
      "городсева": 5313,
      "городсортава": 5314,
      "львович": 5315,
      "груздев": 5316,
      "ченков": 5317,
      "ченкова": 5318,
      "частью": 5319,
      "черемхово": 5320,
      "статьяоктябрьская": 5321,
      "нефтекамск": 5322,
      "главы": 5323,
      "софьи": 5324,
      "тулло": 5325,
      "тулома": 5326,
      "тдиновой": 5327,
      "шовге": 5328,
      "латв": 5329,
      "коноково": 5330,
      "надым": 5331,
      "надзор": 5332,
      "надтере": 5333,
      "антоновка": 5334,
      "омарова": 5335,
      "малая": 5336,
      "бавлинский": 5337,
      "бавлинского": 5338,
      "бабаюрт": 5339,
      "тихонов": 5340,
      "тихомирова": 5341,
      "долговка": 5342,
      "медвеженский": 5343,
      "солнечный": 5344,
      "солнечное": 5345,
      "солнечногорск": 5346,
      "березово": 5347,
      "березовский": 5348,
      "зарегистрированной": 5349,
      "работы": 5350,
      "работники": 5351,
      "кириллова": 5352,
      "проведения": 5353,
      "юбилейный": 5354,
      "аауцфо": 5355,
      "ейт": 5356,
      "около": 5357,
      "прожив": 5358,
      "уваров": 5359,
      "уварово": 5360,
      "стерства": 5361,
      "анжеро": 5362,
      "мироненко": 5363,
      "рамзановна": 5364,
      "кошки": 5365,
      "гатчинская": 5366,
      "гайской": 5367,
      "венге": 5368,
      "полиции": 5369,
      "политех": 5370,
      "бакунинская": 5371,
      "ленингр": 5372,
      "ленинское": 5373,
      "виноградовский": 5374,
      "кондра": 5375,
      "кондрат": 5376,
      "дорожно": 5377,
      "воробьева": 5378,
      "воробьевка": 5379,
      "ворошилова": 5380,
      "песчанка": 5381,
      "черномор": 5382,
      "чернозем": 5383,
      "мухаме": 5384,
      "муромцев": 5385,
      "муромцево": 5386,
      "северомор": 5387,
      "союзсрогау": 5388,
      "березка": 5389,
      "тарасовский": 5390,
      "отрадный": 5391,
      "магаданская": 5392,
      "площадь": 5393,
      "площадью": 5394,
      "успенская": 5395,
      "успенка": 5396,
      "успенский": 5397,
      "арзамасского": 5398,
      "аминович": 5399,
      "арак": 5400,
      "агачский": 5401,
      "азовская": 5402,
      "влд": 5403,
      "дружный": 5404,
      "дружбы": 5405,
      "земля": 5406,
      "земетчинский": 5407,
      "заседании": 5408,
      "звездная": 5409,
      "осипенко": 5410,
      "севастополь": 5411,
      "четвер": 5412,
      "четав": 5413,
      "ангарская": 5414,
      "лазарев": 5415,
      "галины": 5416,
      "закрытия": 5417,
      "гендирект": 5418,
      "саид": 5419,
      "саидович": 5420,
      "салаватович": 5421,
      "кустанайская": 5422,
      "региональная": 5423,
      "региональной": 5424,
      "красногвардейский": 5425,
      "красногвардейское": 5426,
      "русский": 5427,
      "бочкарева": 5428,
      "джалиль": 5429,
      "алёны": 5430,
      "харьков": 5431,
      "клубный": 5432,
      "клубная": 5433,
      "львовское": 5434,
      "азамат": 5435,
      "илекский": 5436,
      "княз": 5437,
      "княжев": 5438,
      "озё": 5439,
      "озеро": 5440,
      "прямы": 5441,
      "прямое": 5442,
      "протестных": 5443,
      "тлянада": 5444,
      "тляратинского": 5445,
      "трансстрой": 5446,
      "устю": 5447,
      "фролова": 5448,
      "хрустальный": 5449,
      "мильковский": 5450,
      "мичуринский": 5451,
      "рамазановна": 5452,
      "гомельская": 5453,
      "кочкарев": 5454,
      "габдул": 5455,
      "антикризис": 5456,
      "шевелева": 5457,
      "султан": 5458,
      "ингаш": 5459,
      "чеченская": 5460,
      "махму": 5461,
      "масках": 5462,
      "баганского": 5463,
      "техно": 5464,
      "маргариты": 5465,
      "ковыл": 5466,
      "петушки": 5467,
      "хабад": 5468,
      "хабльский": 5469,
      "хабибул": 5470,
      "высокая": 5471,
      "рузский": 5472,
      "рузского": 5473,
      "рузаевка": 5474,
      "болгар": 5475,
      "широкая": 5476,
      "хорошева": 5477,
      "букреевка": 5478,
      "светлоярский": 5479,
      "федю": 5480,
      "камышин": 5481,
      "улицадруж": 5482,
      "металлург": 5483,
      "полярная": 5484,
      "ключевский": 5485,
      "ключникова": 5486,
      "мадинат": 5487,
      "армянской": 5488,
      "армянская": 5489,
      "муслюмово": 5490,
      "муслюмовского": 5491,
      "черняховск": 5492,
      "гремя": 5493,
      "ением": 5494,
      "жд_ст": 5495,
      "искитим": 5496,
      "квартале": 5497,
      "лотошино": 5498,
      "нянского": 5499,
      "пыть": 5500,
      "панклуб": 5501,
      "панкратова": 5502,
      "ссии": 5503,
      "собствен": 5504,
      "сасово": 5505,
      "средних": 5506,
      "умарова": 5507,
      "учитель": 5508,
      "учителя": 5509,
      "херсон": 5510,
      "херсонская": 5511,
      "чулкова": 5512,
      "чулым": 5513,
      "шарья": 5514,
      "образцовка": 5515,
      "ермолино": 5516,
      "министерства": 5517,
      "одесская": 5518,
      "ребриха": 5519,
      "рассвет": 5520,
      "ракитное": 5521,
      "рамовна": 5522,
      "господин": 5523,
      "костек": 5524,
      "коновалова": 5525,
      "колосовка": 5526,
      "нартан": 5527,
      "нарткала": 5528,
      "еткульский": 5529,
      "демонстрация": 5530,
      "демонстранты": 5531,
      "остроитель": 5532,
      "галеевна": 5533,
      "арнольдовна": 5534,
      "архитект": 5535,
      "объявили": 5536,
      "дельта": 5537,
      "городрадужный": 5538,
      "ризв": 5539,
      "заверши": 5540,
      "заларинский": 5541,
      "урмары": 5542,
      "урванский": 5543,
      "тазовский": 5544,
      "омутинский": 5545,
      "кировоград": 5546,
      "чегемский": 5547,
      "кунгур": 5548,
      "кулакова": 5549,
      "тень": 5550,
      "марьяновка": 5551,
      "марьяновский": 5552,
      "серебря": 5553,
      "новотроицк": 5554,
      "владимировне": 5555,
      "владимировну": 5556,
      "улицабаумана": 5557,
      "выселки": 5558,
      "краснотуранск": 5559,
      "болотова": 5560,
      "шамильский": 5561,
      "туймаз": 5562,
      "пугач": 5563,
      "карьер": 5564,
      "валериевна": 5565,
      "альберт": 5566,
      "альбертовна": 5567,
      "окружная": 5568,
      "шульгинка": 5569,
      "караганда": 5570,
      "карагандинская": 5571,
      "колпна": 5572,
      "стрелкова": 5573,
      "стрелковой": 5574,
      "хасавюртовский": 5575,
      "чебоксарский": 5576,
      "анжелики": 5577,
      "буденновский": 5578,
      "буденновск": 5579,
      "кунашак": 5580,
      "кунашакского": 5581,
      "мантурово": 5582,
      "мантуровский": 5583,
      "французской": 5584,
      "внуковское": 5585,
      "жкх": 5586,
      "задержаны": 5587,
      "здание": 5588,
      "исаева": 5589,
      "ивашкин": 5590,
      "модем": 5591,
      "очаковское": 5592,
      "псип": 5593,
      "пятни": 5594,
      "семен": 5595,
      "тонша": 5596,
      "фирма": 5597,
      "хлевенский": 5598,
      "члены": 5599,
      "эстейт": 5600,
      "ницыно": 5601,
      "гожня": 5602,
      "латыпов": 5603,
      "кокчетав": 5604,
      "копейск": 5605,
      "кошевого": 5606,
      "оршанского": 5607,
      "наримановский": 5608,
      "назначения": 5609,
      "направления": 5610,
      "нейво": 5611,
      "невельск": 5612,
      "гаврилова": 5613,
      "ногир": 5614,
      "артуровна": 5615,
      "аркадьевич": 5616,
      "антонина": 5617,
      "подрядчи": 5618,
      "подосиновец": 5619,
      "шестакова": 5620,
      "суходол": 5621,
      "запустить": 5622,
      "заблокировали": 5623,
      "заполярный": 5624,
      "щёлково": 5625,
      "вениаминович": 5626,
      "кинель": 5627,
      "кизел": 5628,
      "сапроново": 5629,
      "полоса": 5630,
      "макушино": 5631,
      "курагинский": 5632,
      "дарасун": 5633,
      "гильдия": 5634,
      "систем": 5635,
      "куркужин": 5636,
      "курчатов": 5637,
      "театральная": 5638,
      "вербицкая": 5639,
      "тогучин": 5640,
      "прежние": 5641,
      "несеновка": 5642,
      "выруч": 5643,
      "бологовский": 5644,
      "терентьева": 5645,
      "чухлома": 5646,
      "кариан": 5647,
      "кармаскалинского": 5648,
      "песковка": 5649,
      "черлакского": 5650,
      "мунировна": 5651,
      "акмолинской": 5652,
      "жигулевск": 5653,
      "камызяк": 5654,
      "кузьменко": 5655,
      "пункттульский": 5656,
      "фамилии": 5657,
      "исполнения": 5658,
      "заводоуковск": 5659,
      "абхазская": 5660,
      "абдулзаги": 5661,
      "уштобе": 5662,
      "партнер": 5663,
      "ахтубинского": 5664,
      "сырдар": 5665,
      "аткарск": 5666,
      "балахна": 5667,
      "большеречье": 5668,
      "специализированный": 5669,
      "благодарный": 5670,
      "днепровская": 5671,
      "елисеева": 5672,
      "кубанская": 5673,
      "булатниково": 5674,
      "золотухинского": 5675,
      "симакова": 5676,
      "кыргыз": 5677,
      "миллерово": 5678,
      "авиасообщение": 5679,
      "зайнуллина": 5680,
      "оконешниково": 5681,
      "планируется": 5682,
      "кандалакша": 5683,
      "свиридов": 5684,
      "ильинична": 5685,
      "сотрудников": 5686,
      "хмельницкого": 5687,
      "отсутствуют": 5688,
      "клявлино": 5689,
      "экономики": 5690,
      "государственной": 5691,
      "забастовку": 5692,
      "профессиональных": 5693,
      "сопауалья": 5694,
      "авангардная": 5695,
      "иртышская": 5696,
      "aurel": 5697,
      "cfdt": 5698,
      "inks": 5699,
      "issar": 5700,
      "lvmh": 5701,
      "morissar": 5702,
      "агент": 5703,
      "афипсип": 5704,
      "глангепас": 5705,
      "днр": 5706,
      "дрыков": 5707,
      "есенина": 5708,
      "жанат": 5709,
      "журавле": 5710,
      "златоуст": 5711,
      "ишеевка": 5712,
      "кфх": 5713,
      "канаш": 5714,
      "оникидзе": 5715,
      "пшичо": 5716,
      "славы": 5717,
      "состоявшимися": 5718,
      "счастливая": 5719,
      "слепцова": 5720,
      "тической": 5721,
      "тарханы": 5722,
      "трудовая": 5723,
      "фурманов": 5724,
      "щорса": 5725,
      "яшкинского": 5726,
      "яблоновский": 5727,
      "ануфриева": 5728,
      "обережный": 5729,
      "ниринг": 5730,
      "ермаков": 5731,
      "леонтьева": 5732,
      "лешуконский": 5733,
      "мишеронский": 5734,
      "минеральные": 5735,
      "микрорайон": 5736,
      "однако": 5737,
      "решил": 5738,
      "рамазан": 5739,
      "равильевич": 5740,
      "ватутина": 5741,
      "вахруши": 5742,
      "голышманов": 5743,
      "который": 5744,
      "кожевникова": 5745,
      "когалым": 5746,
      "корабельная": 5747,
      "орджоникидзе": 5748,
      "навои": 5749,
      "настоящ": 5750,
      "нестеренко": 5751,
      "несколько": 5752,
      "десятков": 5753,
      "демократической": 5754,
      "гагик": 5755,
      "пирятинская": 5756,
      "подгорцы": 5757,
      "городкумертау": 5758,
      "городкраснозаводск": 5759,
      "городстрежевой": 5760,
      "городкоролев": 5761,
      "городбелорецк": 5762,
      "городзаринск": 5763,
      "городзвенигово": 5764,
      "городсорочинск": 5765,
      "городкерчь": 5766,
      "суворова": 5767,
      "местоджалиля": 5768,
      "каверзиной": 5769,
      "капустин": 5770,
      "вооружение": 5771,
      "тамары": 5772,
      "табасар": 5773,
      "тахтамукай": 5774,
      "инжиниринг": 5775,
      "инзенский": 5776,
      "присутствовали": 5777,
      "кизильский": 5778,
      "саккулово": 5779,
      "сатурн": 5780,
      "сафронова": 5781,
      "похвист": 5782,
      "ярмухаметов": 5783,
      "макеевка": 5784,
      "машиностроитель": 5785,
      "баженова": 5786,
      "республикасаха": 5787,
      "курумкан": 5788,
      "тегульдет": 5789,
      "теофиполь": 5790,
      "бурундуки": 5791,
      "серафонтов": 5792,
      "анисимово": 5793,
      "новоселов": 5794,
      "новоусманский": 5795,
      "новомышастовская": 5796,
      "верхошижем": 5797,
      "алтуд": 5798,
      "алтышево": 5799,
      "алдаркино": 5800,
      "улицараздольная": 5801,
      "улицачерняховского": 5802,
      "улицататищева": 5803,
      "петросян": 5804,
      "хатлонская": 5805,
      "конфедерации": 5806,
      "чапаевск": 5807,
      "чамзинский": 5808,
      "пребывания": 5809,
      "прекращено": 5810,
      "предусмотре": 5811,
      "высокое": 5812,
      "выползово": 5813,
      "рудольфович": 5814,
      "бородино": 5815,
      "богаткова": 5816,
      "гусейнов": 5817,
      "донецкой": 5818,
      "посредством": 5819,
      "страницыбайны": 5820,
      "страницыисинга": 5821,
      "страницыишлеи": 5822,
      "страницывознесеновка": 5823,
      "страницырешетово": 5824,
      "страницыдатуна": 5825,
      "шигалеево": 5826,
      "картотека": 5827,
      "чихиной": 5828,
      "береговая": 5829,
      "изображением": 5830,
      "фестива": 5831,
      "пунктлянгасово": 5832,
      "пунктноворудный": 5833,
      "павлодар": 5834,
      "деревнягаревая": 5835,
      "абзелиловского": 5836,
      "ахтарск": 5837,
      "сызрань": 5838,
      "уразбаевна": 5839,
      "медперсонал": 5840,
      "малопургинский": 5841,
      "северодвинск": 5842,
      "eurolinks": 5843,
      "добролюбова": 5844,
      "фармацевты": 5845,
      "тимошенков": 5846,
      "городсортавала": 5847,
      "политехническая": 5848,
      "черноземье": 5849,
      "гендиректора": 5850,
      "демонстрациях": 5851,
      "кыргызстан": 5852,
      "сопауальянс": 5853,
      "aurelien": 5854,
      "morissard": 5855,
      "тахтамукайский": 5856,
      "верхошижемского": 5857
    },
    "merges": [
      [
        "n",
        "u"
      ],
      [
        "nu",
        "m"
      ],
      [
        "с",
        "т"
      ],
      [
        "р",
        "о"
      ],
      [
        "с",
        "к"
      ],
      [
        "а",
        "н"
      ],
      [
        "и",
        "̆"
      ],
      [
        "о",
        "б"
      ],
      [
        "н",
        "и"
      ],
      [
        "е",
        "р"
      ],
      [
        "л",
        "е"
      ],
      [
        ">",
        ","
      ],
      [
        "м",
        "и"
      ],
      [
        ">",
        "-"
      ],
      [
        "о",
        "д"
      ],
      [
        ">-",
        "<"
      ],
      [
        "р",
        "е"
      ],
      [
        "р",
        "а"
      ],
      [
        "в",
        "а"
      ],
      [
        "н",
        "н"
      ],
      [
        "ер",
        "с"
      ],
      [
        "г",
        "о"
      ],
      [
        "л",
        "а"
      ],
      [
        "к",
        "о"
      ],
      [
        "о",
        "р"
      ],
      [
        "н",
        "а"
      ],
      [
        "м",
        "о"
      ],
      [
        "ск",
        "о"
      ],
      [
        "е",
        "т"
      ],
      [
        "н",
        "е"
      ],
      [
        "ан",
        "к"
      ],
      [
        "ле",
        "к"
      ],
      [
        "д",
        "е"
      ],
      [
        "ст",
        "ва"
      ],
      [
        "о",
        "ст"
      ],
      [
        "б",
        "анк"
      ],
      [
        "ро",
        "т"
      ],
      [
        "и",
        "и"
      ],
      [
        "банк",
        "рот"
      ],
      [
        "г",
        "а"
      ],
      [
        "ни",
        "я"
      ],
      [
        "у",
        "п"
      ],
      [
        "а",
        "й"
      ],
      [
        "н",
        "о"
      ],
      [
        "а",
        "р"
      ],
      [
        ">",
        "."
      ],
      [
        "ми",
        "т"
      ],
      [
        "ан",
        "т"
      ],
      [
        "ко",
        "м"
      ],
      [
        "и",
        "мо"
      ],
      [
        "в",
        "ле"
      ],
      [
        "о",
        "ф"
      ],
      [
        "п",
        "и"
      ],
      [
        "я",
        "вле"
      ],
      [
        "нн",
        "ы"
      ],
      [
        "п",
        "од"
      ],
      [
        "об",
        "ъ"
      ],
      [
        "т",
        "ро"
      ],
      [
        "ком",
        "м"
      ],
      [
        "объ",
        "явле"
      ],
      [
        "х",
        "од"
      ],
      [
        "э",
        "лек"
      ],
      [
        "элек",
        "тро"
      ],
      [
        "га",
        "з"
      ],
      [
        "д",
        "ост"
      ],
      [
        "уп",
        "а"
      ],
      [
        "ск",
        "у"
      ],
      [
        "ла",
        "м"
      ],
      [
        "ет",
        "ы"
      ],
      [
        "банкрот",
        "ства"
      ],
      [
        "ф",
        "ай"
      ],
      [
        "в",
        "ерс"
      ],
      [
        "об",
        "ход"
      ],
      [
        "мит",
        "ь"
      ],
      [
        "пи",
        "ску"
      ],
      [
        "нны",
        "е"
      ],
      [
        "d",
        "f"
      ],
      [
        "p",
        "df"
      ],
      [
        "ерс",
        "ант"
      ],
      [
        "ор",
        "мить"
      ],
      [
        "не",
        "обход"
      ],
      [
        "ния",
        "ми"
      ],
      [
        "оф",
        "ормить"
      ],
      [
        "под",
        "писку"
      ],
      [
        "комм",
        "ерсант"
      ],
      [
        "объявле",
        "ниями"
      ],
      [
        "электро",
        "нные"
      ],
      [
        "газ",
        "еты"
      ],
      [
        "дост",
        "упа"
      ],
      [
        "банкротства",
        "х"
      ],
      [
        "фай",
        "лам"
      ],
      [
        "верс",
        "ии"
      ],
      [
        "необход",
        "имо"
      ],
      [
        "коммерсант",
        "ъ"
      ],
      [
        "ш",
        "е"
      ],
      [
        "л",
        "и"
      ],
      [
        "е",
        "м"
      ],
      [
        "и",
        "нн"
      ],
      [
        "ше",
        "ни"
      ],
      [
        "е",
        "в"
      ],
      [
        "а",
        "я"
      ],
      [
        "б",
        "и"
      ],
      [
        "ско",
        "й"
      ],
      [
        "о",
        "в"
      ],
      [
        "об",
        "л"
      ],
      [
        "ре",
        "с"
      ],
      [
        "л",
        "с"
      ],
      [
        "ро",
        "д"
      ],
      [
        ".",
        ","
      ],
      [
        "с",
        "ни"
      ],
      [
        "сни",
        "лс"
      ],
      [
        "м",
        "е"
      ],
      [
        "ск",
        "ая"
      ],
      [
        "де",
        "л"
      ],
      [
        "ра",
        "ж"
      ],
      [
        "го",
        "род"
      ],
      [
        "ре",
        "шени"
      ],
      [
        "решени",
        "ем"
      ],
      [
        "с",
        "у"
      ],
      [
        "и",
        "й"
      ],
      [
        "л",
        "ь"
      ],
      [
        "а",
        "д"
      ],
      [
        "дел",
        "у"
      ],
      [
        "би",
        "т"
      ],
      [
        "ар",
        "бит"
      ],
      [
        "арбит",
        "раж"
      ],
      [
        "су",
        "д"
      ],
      [
        "а",
        "с"
      ],
      [
        "и",
        "ч"
      ],
      [
        "ме",
        "ст"
      ],
      [
        "р",
        "и"
      ],
      [
        "н",
        "ы"
      ],
      [
        "к",
        "ра"
      ],
      [
        "ла",
        "ст"
      ],
      [
        "к",
        "а"
      ],
      [
        "об",
        "ласт"
      ],
      [
        "в",
        "о"
      ],
      [
        ">.",
        "<"
      ],
      [
        "ад",
        "рес"
      ],
      [
        "з",
        "а"
      ],
      [
        "у",
        "л"
      ],
      [
        "ск",
        "ий"
      ],
      [
        "n",
        "o"
      ],
      [
        "но",
        "го"
      ],
      [
        "ро",
        "в"
      ],
      [
        "област",
        "и"
      ],
      [
        "суд",
        "а"
      ],
      [
        "арбитраж",
        "ного"
      ],
      [
        "и",
        "я"
      ],
      [
        "у",
        "р"
      ],
      [
        "ско",
        "го"
      ],
      [
        "т",
        "а"
      ],
      [
        ">",
        ")"
      ],
      [
        "щ",
        "е"
      ],
      [
        "и",
        "н"
      ],
      [
        ".",
        ":"
      ],
      [
        "в",
        "е"
      ],
      [
        "о",
        "м"
      ],
      [
        "а",
        "ли"
      ],
      [
        "о",
        "т"
      ],
      [
        "город",
        "р"
      ],
      [
        "и",
        "м"
      ],
      [
        "мест",
        "ор"
      ],
      [
        "п",
        "ри"
      ],
      [
        "к",
        "и"
      ],
      [
        "о",
        "н"
      ],
      [
        "за",
        "ц"
      ],
      [
        "ре",
        "али"
      ],
      [
        "рес",
        "п"
      ],
      [
        "г",
        "е"
      ],
      [
        "реали",
        "зац"
      ],
      [
        "ны",
        "й"
      ],
      [
        "при",
        "з"
      ],
      [
        ".",
        "<"
      ],
      [
        "л",
        "я"
      ],
      [
        "ро",
        "ж"
      ],
      [
        "и",
        "на"
      ],
      [
        "г",
        "р"
      ],
      [
        "ра",
        "й"
      ],
      [
        "лек",
        "с"
      ],
      [
        "а",
        "лекс"
      ],
      [
        "ан",
        "д"
      ],
      [
        "приз",
        "н"
      ],
      [
        "им",
        "у"
      ],
      [
        "с",
        "а"
      ],
      [
        "мест",
        "о"
      ],
      [
        "ан",
        "а"
      ],
      [
        "ще",
        "ства"
      ],
      [
        "го",
        "р"
      ],
      [
        "п",
        "о"
      ],
      [
        "к",
        "в"
      ],
      [
        "у",
        "б"
      ],
      [
        "реализац",
        "ия"
      ],
      [
        "иму",
        "щества"
      ],
      [
        "ч",
        "е"
      ],
      [
        "я",
        "р"
      ],
      [
        "д",
        "и"
      ],
      [
        "ев",
        "ич"
      ],
      [
        "рай",
        "он"
      ],
      [
        "кра",
        "с"
      ],
      [
        "м",
        "а"
      ],
      [
        "к",
        "у"
      ],
      [
        "ев",
        "на"
      ],
      [
        "д",
        "ер"
      ],
      [
        "о",
        "гр"
      ],
      [
        "в",
        "ве"
      ],
      [
        "п",
        "ро"
      ],
      [
        "б",
        "а"
      ],
      [
        "кра",
        "я"
      ],
      [
        "де",
        "на"
      ],
      [
        "о",
        "ва"
      ],
      [
        "уб",
        "ли"
      ],
      [
        "д",
        "ан"
      ],
      [
        "л",
        "ов"
      ],
      [
        "банкрот",
        "ом"
      ],
      [
        "дер",
        "ев"
      ],
      [
        "дерев",
        "н"
      ],
      [
        "респ",
        "убли"
      ],
      [
        "вве",
        "дена"
      ],
      [
        "к",
        "т"
      ],
      [
        "мо",
        "ск"
      ],
      [
        "де",
        "ния"
      ],
      [
        "д",
        "а"
      ],
      [
        "г",
        "и"
      ],
      [
        "ле",
        "ни"
      ],
      [
        "ско",
        "в"
      ],
      [
        "алекс",
        "анд"
      ],
      [
        "арбитраж",
        "ный"
      ],
      [
        "мо",
        "сков"
      ],
      [
        ">.",
        ","
      ],
      [
        "от",
        "но"
      ],
      [
        "шени",
        "и"
      ],
      [
        "рож",
        "дения"
      ],
      [
        "отно",
        "шении"
      ],
      [
        "в",
        "ла"
      ],
      [
        "ц",
        "е"
      ],
      [
        "деревн",
        "яр"
      ],
      [
        "на",
        "я"
      ],
      [
        "с",
        "и"
      ],
      [
        "к",
        "ур"
      ],
      [
        "вла",
        "ди"
      ],
      [
        "г",
        "ра"
      ],
      [
        "д",
        "у"
      ],
      [
        "т",
        "е"
      ],
      [
        "у",
        "ли"
      ],
      [
        "но",
        "в"
      ],
      [
        "б",
        "ур"
      ],
      [
        "м",
        "ар"
      ],
      [
        "с",
        "ер"
      ],
      [
        "в",
        "и"
      ],
      [
        "г",
        "раж"
      ],
      [
        "ров",
        "на"
      ],
      [
        "ц",
        "а"
      ],
      [
        "дел",
        "о"
      ],
      [
        "гра",
        "д"
      ],
      [
        "о",
        "й"
      ],
      [
        "ст",
        "ра"
      ],
      [
        "граж",
        "дан"
      ],
      [
        "ан",
        "и"
      ],
      [
        "н",
        "од"
      ],
      [
        "но",
        "во"
      ],
      [
        "в",
        "ер"
      ],
      [
        "с",
        "о"
      ],
      [
        "в",
        "ет"
      ],
      [
        "л",
        "о"
      ],
      [
        "влади",
        "ми"
      ],
      [
        "ко",
        "в"
      ],
      [
        "сер",
        "ге"
      ],
      [
        "т",
        "ор"
      ],
      [
        "кра",
        "й"
      ],
      [
        "ров",
        "ич"
      ],
      [
        "а",
        "л"
      ],
      [
        "ф",
        "ин"
      ],
      [
        "ра",
        "в"
      ],
      [
        "призн",
        "ан"
      ],
      [
        "ст",
        "во"
      ],
      [
        "крас",
        "нод"
      ],
      [
        "краснод",
        "ар"
      ],
      [
        "би",
        "н"
      ],
      [
        "к",
        "р"
      ],
      [
        "ули",
        "ца"
      ],
      [
        "про",
        "це"
      ],
      [
        "п",
        "ет"
      ],
      [
        "ре",
        "ги"
      ],
      [
        "республи",
        "ки"
      ],
      [
        "б",
        "е"
      ],
      [
        "ю",
        "щ"
      ],
      [
        "граждан",
        "ина"
      ],
      [
        "а",
        "в"
      ],
      [
        "уп",
        "рав"
      ],
      [
        "ду",
        "ра"
      ],
      [
        "т",
        "о"
      ],
      [
        "ст",
        "ан"
      ],
      [
        "проце",
        "дура"
      ],
      [
        "управ",
        "ля"
      ],
      [
        "т",
        "ов"
      ],
      [
        "моск",
        "ва"
      ],
      [
        "ан",
        "ов"
      ],
      [
        "управля",
        "ющ"
      ],
      [
        "та",
        "т"
      ],
      [
        "е",
        "н"
      ],
      [
        "че",
        "ля"
      ],
      [
        "ц",
        "ии"
      ],
      [
        "ны",
        "м"
      ],
      [
        "с",
        "ов"
      ],
      [
        "об",
        "ще"
      ],
      [
        "призн",
        "ана"
      ],
      [
        "огр",
        "н"
      ],
      [
        "челя",
        "бин"
      ],
      [
        "и",
        "в"
      ],
      [
        "х",
        "а"
      ],
      [
        "(",
        "<"
      ],
      [
        "п",
        "ер"
      ],
      [
        ">",
        ";"
      ],
      [
        "реги",
        "стра"
      ],
      [
        "те",
        "ль"
      ],
      [
        "обще",
        "ство"
      ],
      [
        "ни",
        "ко"
      ],
      [
        "ст",
        "ве"
      ],
      [
        "ич",
        "е"
      ],
      [
        ",",
        "<"
      ],
      [
        "ко",
        "н"
      ],
      [
        "ч",
        "а"
      ],
      [
        "стве",
        "нн"
      ],
      [
        "го",
        "в"
      ],
      [
        "и",
        "р"
      ],
      [
        "ь",
        "ю"
      ],
      [
        "п",
        "ре"
      ],
      [
        "р",
        "я"
      ],
      [
        "с",
        "р"
      ],
      [
        "ме",
        "н"
      ],
      [
        "ост",
        "о"
      ],
      [
        "от",
        "вет"
      ],
      [
        "е",
        "ва"
      ],
      [
        "ан",
        "иче"
      ],
      [
        "нн",
        "ой"
      ],
      [
        "ост",
        "ью"
      ],
      [
        "огр",
        "аниче"
      ],
      [
        "ственн",
        "остью"
      ],
      [
        "ответ",
        "ственностью"
      ],
      [
        "ограниче",
        "нной"
      ],
      [
        "област",
        "ь"
      ],
      [
        "л",
        "ю"
      ],
      [
        "бур",
        "г"
      ],
      [
        "регистра",
        "ции"
      ],
      [
        "ко",
        "ва"
      ],
      [
        "ст",
        "р"
      ],
      [
        "м",
        "ан"
      ],
      [
        "алекс",
        "е"
      ],
      [
        "не",
        "с"
      ],
      [
        "ст",
        "ов"
      ],
      [
        "нико",
        "ла"
      ],
      [
        "в",
        "ы"
      ],
      [
        "ку",
        "т"
      ],
      [
        "да",
        "та"
      ],
      [
        "москов",
        "ской"
      ],
      [
        "москов",
        "ская"
      ],
      [
        "осто",
        "я"
      ],
      [
        "нес",
        "остоя"
      ],
      [
        "н",
        "град"
      ],
      [
        "би",
        "р"
      ],
      [
        "несостоя",
        "тель"
      ],
      [
        "ц",
        "ы"
      ],
      [
        "е",
        "ле"
      ],
      [
        "си",
        "бир"
      ],
      [
        "ви",
        "кт"
      ],
      [
        "о",
        "пре"
      ],
      [
        "р",
        "т"
      ],
      [
        "во",
        "л"
      ],
      [
        "опре",
        "де"
      ],
      [
        "крас",
        "но"
      ],
      [
        "опреде",
        "лени"
      ],
      [
        "ь",
        "я"
      ],
      [
        "кур",
        "с"
      ],
      [
        "тат",
        "ар"
      ],
      [
        "р",
        "у"
      ],
      [
        "т",
        "ай"
      ],
      [
        "кон",
        "курс"
      ],
      [
        "определени",
        "ем"
      ],
      [
        "б",
        "о"
      ],
      [
        "г",
        "у"
      ],
      [
        "д",
        "о"
      ],
      [
        "ро",
        "с"
      ],
      [
        "управляющ",
        "ий"
      ],
      [
        "ир",
        "кут"
      ],
      [
        "уп",
        "р"
      ],
      [
        "анд",
        "ре"
      ],
      [
        "са",
        "мар"
      ],
      [
        "ле",
        "н"
      ],
      [
        "ал",
        "тай"
      ],
      [
        "т",
        "ю"
      ],
      [
        "ново",
        "сибир"
      ],
      [
        "пет",
        "ер"
      ],
      [
        "с",
        "анк"
      ],
      [
        "ро",
        "стов"
      ],
      [
        "санк",
        "т"
      ],
      [
        "ни",
        "ж"
      ],
      [
        "город",
        "а"
      ],
      [
        "ц",
        "и"
      ],
      [
        "по",
        "ль"
      ],
      [
        "ре",
        "н"
      ],
      [
        "ем",
        "е"
      ],
      [
        "ль",
        "я"
      ],
      [
        "м",
        "ур"
      ],
      [
        "м",
        "ор"
      ],
      [
        "х",
        "ан"
      ],
      [
        "моск",
        "вы"
      ],
      [
        "реализац",
        "ии"
      ],
      [
        "по",
        "с"
      ],
      [
        "не",
        "ц"
      ],
      [
        "стр",
        "ани"
      ],
      [
        "ы",
        "м"
      ],
      [
        "краснодар",
        "ского"
      ],
      [
        "тю",
        "мен"
      ],
      [
        "страни",
        "цы"
      ],
      [
        "во",
        "ро"
      ],
      [
        "г",
        "од"
      ],
      [
        "ст",
        "ь"
      ],
      [
        "ор",
        "г"
      ],
      [
        "лени",
        "нград"
      ],
      [
        "несостоятель",
        "ным"
      ],
      [
        "ю",
        "р"
      ],
      [
        "ст",
        "ав"
      ],
      [
        "(",
        ","
      ],
      [
        "к",
        "с"
      ],
      [
        "тор",
        "гов"
      ],
      [
        "татар",
        "стан"
      ],
      [
        "з",
        "ан"
      ],
      [
        "ро",
        "поль"
      ],
      [
        "ско",
        "е"
      ],
      [
        "ла",
        "в"
      ],
      [
        "республи",
        "ка"
      ],
      [
        "орг",
        "ани"
      ],
      [
        "д",
        "мит"
      ],
      [
        "т",
        "ер"
      ],
      [
        "но",
        "е"
      ],
      [
        "став",
        "рополь"
      ],
      [
        "ь",
        "евич"
      ],
      [
        "т",
        "и"
      ],
      [
        "ш",
        "и"
      ],
      [
        "ра",
        "тов"
      ],
      [
        "ш",
        "а"
      ],
      [
        "но",
        "й"
      ],
      [
        "викт",
        "о"
      ],
      [
        "т",
        "у"
      ],
      [
        "ч",
        "у"
      ],
      [
        "ш",
        "ко"
      ],
      [
        "ев",
        "ге"
      ],
      [
        "ив",
        "анов"
      ],
      [
        "к",
        "еме"
      ],
      [
        "п",
        "у"
      ],
      [
        "вол",
        "го"
      ],
      [
        "к",
        "ар"
      ],
      [
        "п",
        "е"
      ],
      [
        "п",
        "р"
      ],
      [
        "за",
        "тор"
      ],
      [
        "ч",
        "и"
      ],
      [
        "ро",
        "ва"
      ],
      [
        "александ",
        "ровна"
      ],
      [
        "красно",
        "яр"
      ],
      [
        "органи",
        "затор"
      ],
      [
        "волго",
        "град"
      ],
      [
        "д",
        "ов"
      ],
      [
        "о",
        "рен"
      ],
      [
        "с",
        "я"
      ],
      [
        "с",
        "вер"
      ],
      [
        "челябин",
        "ской"
      ],
      [
        "ч",
        "ер"
      ],
      [
        "ре",
        "з"
      ],
      [
        "ас",
        "ср"
      ],
      [
        "александ",
        "рович"
      ],
      [
        "владими",
        "ровна"
      ],
      [
        "свер",
        "д"
      ],
      [
        "т",
        "вер"
      ],
      [
        "ров",
        "ской"
      ],
      [
        "у",
        "рож"
      ],
      [
        "но",
        "ва"
      ],
      [
        "са",
        "ратов"
      ],
      [
        "о",
        "на"
      ],
      [
        "ь",
        "евна"
      ],
      [
        "не",
        "ж"
      ],
      [
        ")",
        ","
      ],
      [
        "место",
        "ж"
      ],
      [
        "с",
        "е"
      ],
      [
        "ст",
        "ро"
      ],
      [
        "город",
        "ской"
      ],
      [
        "б",
        "ов"
      ],
      [
        "н",
        "ский"
      ],
      [
        "ли",
        "я"
      ],
      [
        "пер",
        "м"
      ],
      [
        "дата",
        "место"
      ],
      [
        "орен",
        "бург"
      ],
      [
        "сверд",
        "лов"
      ],
      [
        "краснодар",
        "ский"
      ],
      [
        "конкурс",
        "ный"
      ],
      [
        "в",
        "од"
      ],
      [
        "л",
        "у"
      ],
      [
        "б",
        "ар"
      ],
      [
        "фин",
        "ан"
      ],
      [
        "рос",
        "с"
      ],
      [
        "воро",
        "неж"
      ],
      [
        "б",
        "ер"
      ],
      [
        "кр",
        "ы"
      ],
      [
        "бе",
        "л"
      ],
      [
        "х",
        "о"
      ],
      [
        "александ",
        "р"
      ],
      [
        "финан",
        "сов"
      ],
      [
        "ва",
        "л"
      ],
      [
        "ом",
        "ской"
      ],
      [
        "серге",
        "евич"
      ],
      [
        "б",
        "ря"
      ],
      [
        "о",
        "ль"
      ],
      [
        "х",
        "ай"
      ],
      [
        "ва",
        "си"
      ],
      [
        "ри",
        "на"
      ],
      [
        ">)",
        "."
      ],
      [
        "г",
        "ан"
      ],
      [
        "ль",
        "евна"
      ],
      [
        "я",
        "н"
      ],
      [
        "ча",
        "сть"
      ],
      [
        "т",
        "ы"
      ],
      [
        "ф",
        "у"
      ],
      [
        "ев",
        "ны"
      ],
      [
        "д",
        "ж"
      ],
      [
        "л",
        "ова"
      ],
      [
        "с",
        "лав"
      ],
      [
        "ре",
        "ш"
      ],
      [
        "ост",
        "ан"
      ],
      [
        "ана",
        "то"
      ],
      [
        "ба",
        "шко"
      ],
      [
        "челябин",
        "ская"
      ],
      [
        "рт",
        "остан"
      ],
      [
        "башко",
        "ртостан"
      ],
      [
        ".",
        ";"
      ],
      [
        "к",
        "ин"
      ],
      [
        "м",
        "у"
      ],
      [
        "с",
        "ср"
      ],
      [
        "ми",
        "хай"
      ],
      [
        "ас",
        "ия"
      ],
      [
        "при",
        "мор"
      ],
      [
        "серге",
        "евна"
      ],
      [
        "б",
        "р"
      ],
      [
        "ниж",
        "е"
      ],
      [
        "а",
        "к"
      ],
      [
        "х",
        "ов"
      ],
      [
        "вал",
        "ер"
      ],
      [
        ":",
        "<"
      ],
      [
        "с",
        "ро"
      ],
      [
        "ни",
        "й"
      ],
      [
        "бур",
        "га"
      ],
      [
        "петер",
        "бурга"
      ],
      [
        "и",
        "з"
      ],
      [
        "владими",
        "р"
      ],
      [
        "владими",
        "рович"
      ],
      [
        "ростов",
        "ской"
      ],
      [
        "финансов",
        "ым"
      ],
      [
        "михай",
        "лов"
      ],
      [
        "б",
        "у"
      ],
      [
        "п",
        "а"
      ],
      [
        "с",
        "вет"
      ],
      [
        "ль",
        "ная"
      ],
      [
        "самар",
        "ской"
      ],
      [
        "н",
        "ская"
      ],
      [
        "ц",
        "к"
      ],
      [
        "ка",
        "ли"
      ],
      [
        "еле",
        "на"
      ],
      [
        "самар",
        "ская"
      ],
      [
        "ленинград",
        "ской"
      ],
      [
        "ф",
        "е"
      ],
      [
        "ре",
        "ка"
      ],
      [
        "ва",
        "ш"
      ],
      [
        "на",
        "та"
      ],
      [
        "город",
        "ская"
      ],
      [
        "тат",
        "ья"
      ],
      [
        "алтай",
        "ского"
      ],
      [
        "а",
        "стра"
      ],
      [
        "ре",
        "г"
      ],
      [
        "ль",
        "евич"
      ],
      [
        "арбитраж",
        "ным"
      ],
      [
        "суд",
        "ом"
      ],
      [
        "приз",
        "на"
      ],
      [
        "серге",
        "й"
      ],
      [
        "ж",
        "и"
      ],
      [
        "т",
        "ив"
      ],
      [
        "рай",
        "она"
      ],
      [
        "мур",
        "ман"
      ],
      [
        "астра",
        "хан"
      ],
      [
        "ана",
        "ст"
      ],
      [
        "петер",
        "бург"
      ],
      [
        "б",
        "ор"
      ],
      [
        "о",
        "ле"
      ],
      [
        "ан",
        "ова"
      ],
      [
        "ров",
        "ская"
      ],
      [
        "управляющ",
        "им"
      ],
      [
        "б",
        "ы"
      ],
      [
        "л",
        "ы"
      ],
      [
        "о",
        "с"
      ],
      [
        "р",
        "ий"
      ],
      [
        "ни",
        "е"
      ],
      [
        "ка",
        "м"
      ],
      [
        "та",
        "м"
      ],
      [
        "м",
        "р"
      ],
      [
        "н",
        "т"
      ],
      [
        "н",
        "я"
      ],
      [
        "ет",
        "ся"
      ],
      [
        "ше",
        "в"
      ],
      [
        "ли",
        "на"
      ],
      [
        "ка",
        "тер"
      ],
      [
        "ставрополь",
        "ского"
      ],
      [
        "рез",
        "о"
      ],
      [
        "тив",
        "ная"
      ],
      [
        "н",
        "ск"
      ],
      [
        "н",
        "ского"
      ],
      [
        "ст",
        "а"
      ],
      [
        "ро",
        "во"
      ],
      [
        "ва",
        "р"
      ],
      [
        "ом",
        "ская"
      ],
      [
        "ки",
        "на"
      ],
      [
        "рож",
        "д"
      ],
      [
        "никола",
        "евна"
      ],
      [
        "иркут",
        "ской"
      ],
      [
        "тюмен",
        "ской"
      ],
      [
        "дмит",
        "ри"
      ],
      [
        "кеме",
        "ровской"
      ],
      [
        "е",
        "ж"
      ],
      [
        "с",
        "п"
      ],
      [
        "во",
        "ло"
      ],
      [
        "ин",
        "ский"
      ],
      [
        "ря",
        "зан"
      ],
      [
        "чу",
        "ваш"
      ],
      [
        "евге",
        "н"
      ],
      [
        "б",
        "ай"
      ],
      [
        "н",
        "ко"
      ],
      [
        "он",
        "ер"
      ],
      [
        "никола",
        "евич"
      ],
      [
        "новосибир",
        "ской"
      ],
      [
        "кали",
        "ни"
      ],
      [
        "х",
        "ма"
      ],
      [
        "ц",
        "ия"
      ],
      [
        "ч",
        "лен"
      ],
      [
        "ы",
        "й"
      ],
      [
        "ль",
        "ская"
      ],
      [
        "от",
        "кры"
      ],
      [
        "оль",
        "га"
      ],
      [
        "призна",
        "ется"
      ],
      [
        "а",
        "у"
      ],
      [
        "в",
        "ич"
      ],
      [
        "е",
        "катер"
      ],
      [
        "иркут",
        "ская"
      ],
      [
        "свердлов",
        "ской"
      ],
      [
        "свет",
        "л"
      ],
      [
        "резо",
        "лю"
      ],
      [
        "я",
        "т"
      ],
      [
        "пу",
        "н"
      ],
      [
        "росс",
        "ия"
      ],
      [
        "д",
        "ы"
      ],
      [
        "ку",
        "з"
      ],
      [
        "ба",
        "ров"
      ],
      [
        "викто",
        "рович"
      ],
      [
        "татья",
        "на"
      ],
      [
        "там",
        "бов"
      ],
      [
        "з",
        "ер"
      ],
      [
        "у",
        "твер"
      ],
      [
        "ко",
        "во"
      ],
      [
        "ка",
        "за"
      ],
      [
        "ин",
        "ского"
      ],
      [
        "ха",
        "баров"
      ],
      [
        "алексе",
        "й"
      ],
      [
        "алексе",
        "евич"
      ],
      [
        "алтай",
        "ский"
      ],
      [
        "пун",
        "кт"
      ],
      [
        "е",
        "п"
      ],
      [
        "и",
        "ль"
      ],
      [
        "ан",
        "ия"
      ],
      [
        "город",
        "москва"
      ],
      [
        "кр",
        "у"
      ],
      [
        "ци",
        "онер"
      ],
      [
        "дмит",
        "рий"
      ],
      [
        "краснояр",
        "ского"
      ],
      [
        "волгоград",
        "ской"
      ],
      [
        "ак",
        "ционер"
      ],
      [
        "анаст",
        "асия"
      ],
      [
        "резолю",
        "тивная"
      ],
      [
        "утвер",
        "ж"
      ],
      [
        "г",
        "т"
      ],
      [
        "ж",
        "е"
      ],
      [
        "п",
        "ав"
      ],
      [
        "кур",
        "ган"
      ],
      [
        "ростов",
        "ская"
      ],
      [
        "год",
        "а"
      ],
      [
        "викто",
        "ровна"
      ],
      [
        "воло",
        "год"
      ],
      [
        "о",
        "кт"
      ],
      [
        "п",
        "гт"
      ],
      [
        "ф",
        "а"
      ],
      [
        "ор",
        "лов"
      ],
      [
        "де",
        "н"
      ],
      [
        "ге",
        "стан"
      ],
      [
        "хма",
        "о"
      ],
      [
        "окт",
        "я"
      ],
      [
        "в",
        "я"
      ],
      [
        "г",
        "ри"
      ],
      [
        "и",
        "с"
      ],
      [
        "и",
        "рина"
      ],
      [
        "у",
        "с"
      ],
      [
        "ар",
        "хан"
      ],
      [
        "род",
        "и"
      ],
      [
        "граждан",
        "ин"
      ],
      [
        "до",
        "л"
      ],
      [
        "оренбург",
        "ской"
      ],
      [
        "ната",
        "лья"
      ],
      [
        "светл",
        "ана"
      ],
      [
        ":",
        "."
      ],
      [
        "а",
        "ль"
      ],
      [
        "е",
        "нец"
      ],
      [
        "у",
        "з"
      ],
      [
        "ф",
        "и"
      ],
      [
        "ц",
        "ко"
      ],
      [
        "ко",
        "р"
      ],
      [
        "ров",
        "ны"
      ],
      [
        "ом",
        "ск"
      ],
      [
        "викт",
        "ор"
      ],
      [
        "урож",
        "енец"
      ],
      [
        "у",
        "д"
      ],
      [
        "ле",
        "т"
      ],
      [
        ">,",
        "<"
      ],
      [
        "но",
        "м"
      ],
      [
        "ев",
        "о"
      ],
      [
        "ка",
        "ре"
      ],
      [
        "ка",
        "зан"
      ],
      [
        "бур",
        "ят"
      ],
      [
        "ен",
        "ко"
      ],
      [
        "ставрополь",
        "ский"
      ],
      [
        "слав",
        "ов"
      ],
      [
        "архан",
        "ге"
      ],
      [
        "а",
        "мур"
      ],
      [
        "р",
        "ск"
      ],
      [
        "нн",
        "ад"
      ],
      [
        "де",
        "й"
      ],
      [
        "ге",
        "ннад"
      ],
      [
        "гор",
        "ь"
      ],
      [
        "деревн",
        "я"
      ],
      [
        "лени",
        "на"
      ],
      [
        "нец",
        "к"
      ],
      [
        "ниже",
        "городской"
      ],
      [
        "щ",
        "ина"
      ],
      [
        "ми",
        "р"
      ],
      [
        "ли",
        "пе"
      ],
      [
        "да",
        "гестан"
      ],
      [
        "ули",
        "ц"
      ],
      [
        "ен",
        "т"
      ],
      [
        "челябин",
        "ск"
      ],
      [
        "новосибир",
        "ская"
      ],
      [
        "саратов",
        "ской"
      ],
      [
        "стро",
        "й"
      ],
      [
        "казан",
        "ь"
      ],
      [
        "бурят",
        "ия"
      ],
      [
        ")",
        "."
      ],
      [
        "з",
        "ов"
      ],
      [
        "м",
        "ск"
      ],
      [
        "н",
        "ской"
      ],
      [
        "р",
        "со"
      ],
      [
        "ро",
        "м"
      ],
      [
        "ба",
        "л"
      ],
      [
        "андре",
        "евич"
      ],
      [
        "пав",
        "лов"
      ],
      [
        "вя",
        "че"
      ],
      [
        ":",
        ","
      ],
      [
        "м",
        "кр"
      ],
      [
        "с",
        "ь"
      ],
      [
        "ю",
        "лия"
      ],
      [
        "го",
        "ре"
      ],
      [
        "де",
        "ни"
      ],
      [
        "ль",
        "ский"
      ],
      [
        "ны",
        "х"
      ],
      [
        "за",
        "вод"
      ],
      [
        "ку",
        "й"
      ],
      [
        "андре",
        "й"
      ],
      [
        "новосибир",
        "ск"
      ],
      [
        "юр",
        "ьевич"
      ],
      [
        "оле",
        "гов"
      ],
      [
        "з",
        "и"
      ],
      [
        "к",
        "к"
      ],
      [
        "м",
        "ер"
      ],
      [
        "о",
        "кру"
      ],
      [
        "у",
        "лья"
      ],
      [
        "ц",
        "ев"
      ],
      [
        "ан",
        "на"
      ],
      [
        "ни",
        "ки"
      ],
      [
        "ль",
        "ск"
      ],
      [
        "це",
        "нт"
      ],
      [
        "ав",
        "то"
      ],
      [
        "гу",
        "щина"
      ],
      [
        "примор",
        "ский"
      ],
      [
        "акционер",
        "ное"
      ],
      [
        "и",
        "л"
      ],
      [
        "к",
        "ас"
      ],
      [
        "к",
        "ри"
      ],
      [
        "с",
        "л"
      ],
      [
        "т",
        "ур"
      ],
      [
        "ад",
        "ы"
      ],
      [
        "ин",
        "ская"
      ],
      [
        "про",
        "из"
      ],
      [
        "васи",
        "льевна"
      ],
      [
        "анато",
        "льевна"
      ],
      [
        "цк",
        "ая"
      ],
      [
        "бор",
        "и"
      ],
      [
        "каза",
        "х"
      ],
      [
        "куй",
        "бы"
      ],
      [
        "произ",
        "вод"
      ],
      [
        "а",
        "б"
      ],
      [
        "и",
        "горе"
      ],
      [
        "у",
        "сть"
      ],
      [
        "х",
        "али"
      ],
      [
        "ш",
        "у"
      ],
      [
        "я",
        "рос"
      ],
      [
        "ми",
        "ра"
      ],
      [
        "ант",
        "ы"
      ],
      [
        "имо",
        "в"
      ],
      [
        "ки",
        "но"
      ],
      [
        "нов",
        "ич"
      ],
      [
        "андре",
        "евна"
      ],
      [
        "воронеж",
        "ской"
      ],
      [
        "примор",
        "ского"
      ],
      [
        "в",
        "у"
      ],
      [
        "д",
        "м"
      ],
      [
        "и",
        "х"
      ],
      [
        "ме",
        "с"
      ],
      [
        "ль",
        "ской"
      ],
      [
        "ин",
        "ск"
      ],
      [
        "ки",
        "ровской"
      ],
      [
        "кур",
        "ской"
      ],
      [
        "мар",
        "ий"
      ],
      [
        "со",
        "ци"
      ],
      [
        "кр",
        "ым"
      ],
      [
        "несостоятель",
        "ной"
      ],
      [
        "евге",
        "ний"
      ],
      [
        "урож",
        "ен"
      ],
      [
        "калини",
        "нград"
      ],
      [
        "екатер",
        "ина"
      ],
      [
        "куйбы",
        "шев"
      ],
      [
        "ярос",
        "лав"
      ],
      [
        "с",
        "ий"
      ],
      [
        "т",
        "ина"
      ],
      [
        "х",
        "анты"
      ],
      [
        "ь",
        "ев"
      ],
      [
        "ни",
        "ков"
      ],
      [
        "ле",
        "ва"
      ],
      [
        "мест",
        "он"
      ],
      [
        "от",
        "о"
      ],
      [
        "ма",
        "кс"
      ],
      [
        "ал",
        "ания"
      ],
      [
        "признан",
        "о"
      ],
      [
        "ча",
        "т"
      ],
      [
        "ман",
        "сий"
      ],
      [
        "тюмен",
        "ская"
      ],
      [
        "краснояр",
        "ский"
      ],
      [
        "бел",
        "городской"
      ],
      [
        "астрахан",
        "ской"
      ],
      [
        "утверж",
        "ден"
      ],
      [
        "улья",
        "нов"
      ],
      [
        "цент",
        "ра"
      ],
      [
        "д",
        "ар"
      ],
      [
        "д",
        "ом"
      ],
      [
        "з",
        "е"
      ],
      [
        "п",
        "ов"
      ],
      [
        "у",
        "ш"
      ],
      [
        "у",
        "кра"
      ],
      [
        "э",
        "л"
      ],
      [
        "ст",
        "еп"
      ],
      [
        "ле",
        "й"
      ],
      [
        "су",
        "р"
      ],
      [
        "ас",
        "соци"
      ],
      [
        "ка",
        "ра"
      ],
      [
        ">)",
        ","
      ],
      [
        "са",
        "хали"
      ],
      [
        "гор",
        "ск"
      ],
      [
        "мар",
        "ина"
      ],
      [
        "вер",
        "х"
      ],
      [
        "регистра",
        "ция"
      ],
      [
        "ленинград",
        "ская"
      ],
      [
        "евген",
        "ьевна"
      ],
      [
        "авто",
        "ном"
      ],
      [
        "ассоци",
        "а"
      ],
      [
        "м",
        "ет"
      ],
      [
        "п",
        "ар"
      ],
      [
        "ф",
        "о"
      ],
      [
        "ы",
        "ш"
      ],
      [
        "ст",
        "о"
      ],
      [
        ">,",
        ","
      ],
      [
        "мо",
        "л"
      ],
      [
        "де",
        "ж"
      ],
      [
        "ка",
        "бар"
      ],
      [
        "гр",
        "ы"
      ],
      [
        "ди",
        "но"
      ],
      [
        "ви",
        "та"
      ],
      [
        "область",
        "от"
      ],
      [
        "алексе",
        "евна"
      ],
      [
        "кеме",
        "ровская"
      ],
      [
        "твер",
        "ская"
      ],
      [
        "стро",
        "и"
      ],
      [
        "перм",
        "ского"
      ],
      [
        "бер",
        "еж"
      ],
      [
        "бр",
        "ь"
      ],
      [
        "кам",
        "чат"
      ],
      [
        "сп",
        "б"
      ],
      [
        "октя",
        "брь"
      ],
      [
        "вяче",
        "славов"
      ],
      [
        "ады",
        "ге"
      ],
      [
        "бори",
        "сов"
      ],
      [
        "а",
        "х"
      ],
      [
        "з",
        "д"
      ],
      [
        "к",
        "ан"
      ],
      [
        "к",
        "бр"
      ],
      [
        "м",
        "ай"
      ],
      [
        "ан",
        "ии"
      ],
      [
        "ра",
        "т"
      ],
      [
        "на",
        "б"
      ],
      [
        "нны",
        "й"
      ],
      [
        "ев",
        "ский"
      ],
      [
        "ны",
        "е"
      ],
      [
        "че",
        "нко"
      ],
      [
        "пет",
        "ро"
      ],
      [
        "бо",
        "ль"
      ],
      [
        "росс",
        "ий"
      ],
      [
        "ос",
        "нов"
      ],
      [
        "бай",
        "ка"
      ],
      [
        "каре",
        "лия"
      ],
      [
        "бал",
        "кар"
      ],
      [
        "кабар",
        "дино"
      ],
      [
        "адыге",
        "я"
      ],
      [
        "о",
        "ни"
      ],
      [
        "р",
        "ы"
      ],
      [
        "с",
        "ы"
      ],
      [
        "с",
        "мо"
      ],
      [
        "у",
        "ра"
      ],
      [
        "ю",
        "ще"
      ],
      [
        "ю",
        "гры"
      ],
      [
        "ст",
        "ант"
      ],
      [
        "ст",
        "ву"
      ],
      [
        "на",
        "деж"
      ],
      [
        "на",
        "береж"
      ],
      [
        "ль",
        "ского"
      ],
      [
        "александ",
        "ра"
      ],
      [
        "ха",
        "к"
      ],
      [
        "кон",
        "стант"
      ],
      [
        "свердлов",
        "ская"
      ],
      [
        "окру",
        "га"
      ],
      [
        "-",
        "<"
      ],
      [
        "з",
        "еле"
      ],
      [
        "н",
        "ер"
      ],
      [
        "р",
        "п"
      ],
      [
        "с",
        "з"
      ],
      [
        "ц",
        "ова"
      ],
      [
        "ро",
        "ман"
      ],
      [
        "ва",
        "лен"
      ],
      [
        "ар",
        "ме"
      ],
      [
        "ли",
        "т"
      ],
      [
        "ев",
        "ка"
      ],
      [
        "ме",
        "д"
      ],
      [
        "ри",
        "г"
      ],
      [
        "ка",
        "ла"
      ],
      [
        "ного",
        "рск"
      ],
      [
        "али",
        "на"
      ],
      [
        "анов",
        "на"
      ],
      [
        "ив",
        "ан"
      ],
      [
        "юр",
        "ьевна"
      ],
      [
        "волгоград",
        "ская"
      ],
      [
        "оренбург",
        "ская"
      ],
      [
        "бел",
        "городская"
      ],
      [
        "анато",
        "льевич"
      ],
      [
        "ниже",
        "городская"
      ],
      [
        "валер",
        "ьевич"
      ],
      [
        "мурман",
        "ской"
      ],
      [
        "дмитри",
        "евна"
      ],
      [
        "чуваш",
        "ской"
      ],
      [
        "вологод",
        "ской"
      ],
      [
        "цко",
        "й"
      ],
      [
        "автоном",
        "ного"
      ],
      [
        "а",
        "т"
      ],
      [
        "п",
        "ен"
      ],
      [
        "р",
        "уб"
      ],
      [
        "об",
        "е"
      ],
      [
        "ми",
        "ха"
      ],
      [
        "ра",
        "з"
      ],
      [
        "на",
        "ул"
      ],
      [
        "мо",
        "в"
      ],
      [
        "не",
        "в"
      ],
      [
        "ше",
        "ва"
      ],
      [
        "ка",
        "з"
      ],
      [
        "ка",
        "лу"
      ],
      [
        "ров",
        "ский"
      ],
      [
        "по",
        "ме"
      ],
      [
        "ма",
        "ра"
      ],
      [
        "кур",
        "ская"
      ],
      [
        "кур",
        "ий"
      ],
      [
        "ков",
        "ский"
      ],
      [
        "еле",
        "з"
      ],
      [
        "иркут",
        "ск"
      ],
      [
        "ниж",
        "не"
      ],
      [
        "мор",
        "дов"
      ],
      [
        "дов",
        "ич"
      ],
      [
        "бар",
        "наул"
      ],
      [
        "васи",
        "льевич"
      ],
      [
        "виктор",
        "ия"
      ],
      [
        "мер",
        "курий"
      ],
      [
        "урожен",
        "ка"
      ],
      [
        "центра",
        "льная"
      ],
      [
        "хак",
        "асия"
      ],
      [
        "а",
        "ле"
      ],
      [
        "к",
        "ент"
      ],
      [
        "п",
        "ом"
      ],
      [
        "р",
        "ан"
      ],
      [
        "т",
        "ова"
      ],
      [
        "т",
        "омской"
      ],
      [
        "ст",
        "и"
      ],
      [
        "го",
        "во"
      ],
      [
        "ко",
        "л"
      ],
      [
        "ет",
        "ская"
      ],
      [
        "га",
        "р"
      ],
      [
        "ма",
        "ло"
      ],
      [
        "нов",
        "на"
      ],
      [
        "тюмен",
        "ь"
      ],
      [
        "иванов",
        "на"
      ],
      [
        "саратов",
        "ская"
      ],
      [
        "рязан",
        "ской"
      ],
      [
        "дей",
        "ству"
      ],
      [
        "казах",
        "стан"
      ],
      [
        "основ",
        "ании"
      ],
      [
        "в",
        "осто"
      ],
      [
        "ж",
        "елез"
      ],
      [
        "л",
        "ан"
      ],
      [
        "с",
        "ев"
      ],
      [
        "т",
        "ь"
      ],
      [
        "т",
        "ти"
      ],
      [
        "ф",
        "ото"
      ],
      [
        "ю",
        "ж"
      ],
      [
        "ст",
        "ри"
      ],
      [
        "ва",
        "д"
      ],
      [
        "ла",
        "ва"
      ],
      [
        "ев",
        "ой"
      ],
      [
        "город",
        "в"
      ],
      [
        "ад",
        "а"
      ],
      [
        "за",
        "явле"
      ],
      [
        "за",
        "байка"
      ],
      [
        "иму",
        "щ"
      ],
      [
        "про",
        "ц"
      ],
      [
        "нов",
        "город"
      ],
      [
        "ново",
        "й"
      ],
      [
        "со",
        "ю"
      ],
      [
        "то",
        "лья"
      ],
      [
        "нико",
        "ва"
      ],
      [
        "вол",
        "ж"
      ],
      [
        "ниж",
        "ний"
      ],
      [
        "иванов",
        "ич"
      ],
      [
        "дов",
        "на"
      ],
      [
        "воронеж",
        "ская"
      ],
      [
        "вар",
        "дан"
      ],
      [
        "откры",
        "та"
      ],
      [
        "дени",
        "с"
      ],
      [
        "макс",
        "им"
      ],
      [
        "толья",
        "тти"
      ],
      [
        "к",
        "ре"
      ],
      [
        "о",
        "ш"
      ],
      [
        "п",
        "род"
      ],
      [
        "с",
        "ар"
      ],
      [
        "ст",
        "ина"
      ],
      [
        "ни",
        "к"
      ],
      [
        "ле",
        "они"
      ],
      [
        "ки",
        "ровская"
      ],
      [
        "са",
        "мара"
      ],
      [
        "ба",
        "ла"
      ],
      [
        ">;",
        "<"
      ],
      [
        "конкурс",
        "ное"
      ],
      [
        "перм",
        "ский"
      ],
      [
        "михайлов",
        "на"
      ],
      [
        "евген",
        "ьевич"
      ],
      [
        "откры",
        "то"
      ],
      [
        "тамбов",
        "ской"
      ],
      [
        "дол",
        "ж"
      ],
      [
        "улиц",
        "ас"
      ],
      [
        "производ",
        "ство"
      ],
      [
        "балкар",
        "ской"
      ],
      [
        "надеж",
        "да"
      ],
      [
        "заявле",
        "ние"
      ],
      [
        "б",
        "ас"
      ],
      [
        "д",
        "он"
      ],
      [
        "з",
        "у"
      ],
      [
        "м",
        "ас"
      ],
      [
        "р",
        "с"
      ],
      [
        "т",
        "ем"
      ],
      [
        "об",
        "щ"
      ],
      [
        "ни",
        "на"
      ],
      [
        "ми",
        "н"
      ],
      [
        "ла",
        "сь"
      ],
      [
        "ко",
        "п"
      ],
      [
        "объявле",
        "на"
      ],
      [
        "ев",
        "ск"
      ],
      [
        "ов",
        "о"
      ],
      [
        "ич",
        "а"
      ],
      [
        "ки",
        "стан"
      ],
      [
        "вве",
        "д"
      ],
      [
        "це",
        "ва"
      ],
      [
        "пре",
        "д"
      ],
      [
        "кс",
        "е"
      ],
      [
        "перм",
        "ь"
      ],
      [
        "хабаров",
        "ского"
      ],
      [
        "вологод",
        "ская"
      ],
      [
        "роди",
        "лась"
      ],
      [
        "амур",
        "ская"
      ],
      [
        "липе",
        "цкой"
      ],
      [
        "мансий",
        "ского"
      ],
      [
        "боль",
        "ш"
      ],
      [
        "смо",
        "лен"
      ],
      [
        "вардан",
        "ян"
      ],
      [
        ",",
        ",<"
      ],
      [
        "m",
        "a"
      ],
      [
        "е",
        "го"
      ],
      [
        "з",
        "ен"
      ],
      [
        "о",
        "кс"
      ],
      [
        "п",
        "ан"
      ],
      [
        "с",
        "ова"
      ],
      [
        "т",
        "омская"
      ],
      [
        "х",
        "и"
      ],
      [
        "х",
        "ар"
      ],
      [
        "ь",
        "евны"
      ],
      [
        "ст",
        "ре"
      ],
      [
        "об",
        "од"
      ],
      [
        "ле",
        "в"
      ],
      [
        "ле",
        "е"
      ],
      [
        "ко",
        "ро"
      ],
      [
        "ко",
        "ми"
      ],
      [
        "ко",
        "стро"
      ],
      [
        "банк",
        "р"
      ],
      [
        "га",
        "лина"
      ],
      [
        "ли",
        "й"
      ],
      [
        "арбитраж",
        "ных"
      ],
      [
        "ров",
        "ского"
      ],
      [
        "та",
        "л"
      ],
      [
        "ин",
        "бург"
      ],
      [
        "да",
        "лее"
      ],
      [
        "владими",
        "ровны"
      ],
      [
        "управляющ",
        "их"
      ],
      [
        "рен",
        "ко"
      ],
      [
        "ша",
        "х"
      ],
      [
        "владимир",
        "ской"
      ],
      [
        "мурман",
        "ск"
      ],
      [
        "куз",
        "нецк"
      ],
      [
        "курган",
        "ская"
      ],
      [
        "уз",
        "бе"
      ],
      [
        "амур",
        "ской"
      ],
      [
        "олегов",
        "на"
      ],
      [
        "констант",
        "и"
      ],
      [
        "мордов",
        "ия"
      ],
      [
        ".",
        ")"
      ],
      [
        "e",
        "u"
      ],
      [
        "а",
        "ла"
      ],
      [
        "б",
        "ан"
      ],
      [
        "д",
        "об"
      ],
      [
        "д",
        "ми"
      ],
      [
        "е",
        "ф"
      ],
      [
        "з",
        "ы"
      ],
      [
        "к",
        "е"
      ],
      [
        "к",
        "ци"
      ],
      [
        "м",
        "ж"
      ],
      [
        "о",
        "рож"
      ],
      [
        "п",
        "убли"
      ],
      [
        "п",
        "обе"
      ],
      [
        "р",
        "б"
      ],
      [
        "р",
        "д"
      ],
      [
        "с",
        "пе"
      ],
      [
        "т",
        "ом"
      ],
      [
        "т",
        "им"
      ],
      [
        "ю",
        "гра"
      ],
      [
        "я",
        "кут"
      ],
      [
        "ан",
        "ы"
      ],
      [
        "й",
        "ская"
      ],
      [
        "об",
        "щества"
      ],
      [
        "ни",
        "ка"
      ],
      [
        "ко",
        "го"
      ],
      [
        "анк",
        "а"
      ],
      [
        "оф",
        "ис"
      ],
      [
        "ов",
        "ич"
      ],
      [
        "лс",
        "я"
      ],
      [
        "ул",
        "ан"
      ],
      [
        "ки",
        "р"
      ],
      [
        "ки",
        "ров"
      ],
      [
        "по",
        "ва"
      ],
      [
        "че",
        "л"
      ],
      [
        "ди",
        "ви"
      ],
      [
        "те",
        "л"
      ],
      [
        "нод",
        "орож"
      ],
      [
        "ков",
        "ского"
      ],
      [
        "серге",
        "евны"
      ],
      [
        "признан",
        "ии"
      ],
      [
        "пер",
        "е"
      ],
      [
        "лю",
        "бов"
      ],
      [
        "лю",
        "дми"
      ],
      [
        "никола",
        "й"
      ],
      [
        "гу",
        "т"
      ],
      [
        "иванов",
        "ской"
      ],
      [
        "краснояр",
        "ск"
      ],
      [
        "дж",
        "ан"
      ],
      [
        "река",
        "ч"
      ],
      [
        "астрахан",
        "ь"
      ],
      [
        "тамбов",
        "ская"
      ],
      [
        "орлов",
        "ской"
      ],
      [
        "орлов",
        "ская"
      ],
      [
        "арханге",
        "льской"
      ],
      [
        "игоре",
        "вич"
      ],
      [
        "укра",
        "ина"
      ],
      [
        "сур",
        "гут"
      ],
      [
        "ассоциа",
        "ции"
      ],
      [
        "строи",
        "тель"
      ],
      [
        "поме",
        "щ"
      ],
      [
        "желез",
        "нодорож"
      ],
      [
        "окс",
        "ана"
      ],
      [
        "e",
        "r"
      ],
      [
        "а",
        "ет"
      ],
      [
        "б",
        "ла"
      ],
      [
        "в",
        "ан"
      ],
      [
        "в",
        "ре"
      ],
      [
        "е",
        "ц"
      ],
      [
        "и",
        "лья"
      ],
      [
        "л",
        "ии"
      ],
      [
        "м",
        "ы"
      ],
      [
        "с",
        "ад"
      ],
      [
        "с",
        "ин"
      ],
      [
        "у",
        "т"
      ],
      [
        "ц",
        "ов"
      ],
      [
        "ш",
        "ина"
      ],
      [
        "ш",
        "кина"
      ],
      [
        "ь",
        "е"
      ],
      [
        "й",
        "ский"
      ],
      [
        "од",
        "еж"
      ],
      [
        "ре",
        "ал"
      ],
      [
        "ор",
        "ги"
      ],
      [
        "ар",
        "тем"
      ],
      [
        "ант",
        "он"
      ],
      [
        "ком",
        "со"
      ],
      [
        "имо",
        "ва"
      ],
      [
        "ме",
        "ль"
      ],
      [
        "ка",
        "мен"
      ],
      [
        "во",
        "й"
      ],
      [
        "за",
        "реги"
      ],
      [
        "по",
        "ч"
      ],
      [
        "про",
        "е"
      ],
      [
        "ова",
        "я"
      ],
      [
        "дан",
        "и"
      ],
      [
        "лов",
        "о"
      ],
      [
        "нов",
        "ка"
      ],
      [
        "мар",
        "ия"
      ],
      [
        "со",
        "л"
      ],
      [
        "ло",
        "сов"
      ],
      [
        "пет",
        "ровна"
      ],
      [
        "бе",
        "ло"
      ],
      [
        "конкурс",
        "ным"
      ],
      [
        "гу",
        "ль"
      ],
      [
        "мур",
        "т"
      ],
      [
        "чу",
        "ри"
      ],
      [
        "бер",
        "е"
      ],
      [
        "бря",
        "нск"
      ],
      [
        "мурман",
        "ская"
      ],
      [
        "ня",
        "я"
      ],
      [
        "рязан",
        "ская"
      ],
      [
        "ау",
        "кци"
      ],
      [
        "курган",
        "ской"
      ],
      [
        "роди",
        "лся"
      ],
      [
        "уд",
        "э"
      ],
      [
        "уд",
        "мурт"
      ],
      [
        "геннад",
        "ьевич"
      ],
      [
        "кри",
        "стина"
      ],
      [
        "калининград",
        "ской"
      ],
      [
        "мол",
        "одеж"
      ],
      [
        "камчат",
        "ский"
      ],
      [
        "наб",
        "лю"
      ],
      [
        "набереж",
        "ные"
      ],
      [
        "калу",
        "ж"
      ],
      [
        "действу",
        "юще"
      ],
      [
        "людми",
        "ла"
      ],
      [
        "комсо",
        "мо"
      ],
      [
        ",",
        ","
      ],
      [
        "i",
        "l"
      ],
      [
        "r",
        "eu"
      ],
      [
        "t",
        "er"
      ],
      [
        "г",
        "ур"
      ],
      [
        "д",
        "не"
      ],
      [
        "д",
        "ин"
      ],
      [
        "к",
        "л"
      ],
      [
        "к",
        "ского"
      ],
      [
        "н",
        "у"
      ],
      [
        "о",
        "нный"
      ],
      [
        "р",
        "ф"
      ],
      [
        "с",
        "ск"
      ],
      [
        "с",
        "мир"
      ],
      [
        "у",
        "фа"
      ],
      [
        "х",
        "ина"
      ],
      [
        "х",
        "анов"
      ],
      [
        "ч",
        "р"
      ],
      [
        "ь",
        "ева"
      ],
      [
        "я",
        "мало"
      ],
      [
        "й",
        "ск"
      ],
      [
        "ре",
        "ва"
      ],
      [
        "га",
        "рина"
      ],
      [
        "город",
        "санкт"
      ],
      [
        "ль",
        "ный"
      ],
      [
        "та",
        "ш"
      ],
      [
        "ин",
        "ской"
      ],
      [
        "ге",
        "орги"
      ],
      [
        "са",
        "мо"
      ],
      [
        "по",
        "ля"
      ],
      [
        "александ",
        "ровны"
      ],
      [
        "со",
        "общ"
      ],
      [
        "улица",
        "ленина"
      ],
      [
        "ру",
        "д"
      ],
      [
        "до",
        "гово"
      ],
      [
        "чи",
        "к"
      ],
      [
        "александрович",
        "а"
      ],
      [
        "хо",
        "з"
      ],
      [
        "бря",
        "нской"
      ],
      [
        "владимирович",
        "а"
      ],
      [
        "река",
        "п"
      ],
      [
        "кам",
        "ск"
      ],
      [
        "рово",
        "й"
      ],
      [
        "утверж",
        "дена"
      ],
      [
        "игоре",
        "в"
      ],
      [
        "пен",
        "зен"
      ],
      [
        "миха",
        "ил"
      ],
      [
        "стри",
        "ров"
      ],
      [
        "волж",
        "ский"
      ],
      [
        "костро",
        "м"
      ],
      [
        "побе",
        "ды"
      ],
      [
        "любов",
        "ь"
      ],
      [
        "вре",
        "ме"
      ],
      [
        "зареги",
        "стриров"
      ],
      [
        "молодеж",
        "ная"
      ],
      [
        "reu",
        "ter"
      ],
      [
        "догово",
        "ра"
      ],
      [
        "reuter",
        "s"
      ],
      [
        ".",
        "-"
      ],
      [
        "а",
        "зер"
      ],
      [
        "б",
        "ри"
      ],
      [
        "в",
        "цова"
      ],
      [
        "г",
        "ер"
      ],
      [
        "г",
        "ина"
      ],
      [
        "д",
        "р"
      ],
      [
        "д",
        "уб"
      ],
      [
        "е",
        "ли"
      ],
      [
        "к",
        "уб"
      ],
      [
        "к",
        "лю"
      ],
      [
        "о",
        "ре"
      ],
      [
        "о",
        "ла"
      ],
      [
        "с",
        "ай"
      ],
      [
        "с",
        "еме"
      ],
      [
        "т",
        "ад"
      ],
      [
        "у",
        "кт"
      ],
      [
        "ч",
        "ный"
      ],
      [
        "ш",
        "ан"
      ],
      [
        "ш",
        "ин"
      ],
      [
        "ш",
        "кин"
      ],
      [
        "щ",
        "и"
      ],
      [
        "э",
        "ль"
      ],
      [
        "ст",
        "ар"
      ],
      [
        "ан",
        "га"
      ],
      [
        "ми",
        "на"
      ],
      [
        "ра",
        "б"
      ],
      [
        "на",
        "хо"
      ],
      [
        "мо",
        "вич"
      ],
      [
        "га",
        "гарина"
      ],
      [
        "но",
        "град"
      ],
      [
        "ар",
        "и"
      ],
      [
        "ев",
        "ская"
      ],
      [
        "ме",
        "ся"
      ],
      [
        "ль",
        "евны"
      ],
      [
        "ад",
        "р"
      ],
      [
        "та",
        "ра"
      ],
      [
        "ин",
        "диви"
      ],
      [
        "ки",
        "рова"
      ],
      [
        "зац",
        "ия"
      ],
      [
        "реали",
        "з"
      ],
      [
        "про",
        "м"
      ],
      [
        "влади",
        "восто"
      ],
      [
        "ду",
        "аль"
      ],
      [
        "нов",
        "городской"
      ],
      [
        "граж",
        "д"
      ],
      [
        "со",
        "ко"
      ],
      [
        "бе",
        "ля"
      ],
      [
        "тов",
        "на"
      ],
      [
        "сов",
        "етская"
      ],
      [
        "ру",
        "сл"
      ],
      [
        "юр",
        "ий"
      ],
      [
        "шко",
        "льная"
      ],
      [
        "кеме",
        "рово"
      ],
      [
        "чер",
        "еп"
      ],
      [
        "валер",
        "ьевна"
      ],
      [
        "владимир",
        "ская"
      ],
      [
        "михайлов",
        "ич"
      ],
      [
        "бу",
        "ла"
      ],
      [
        "дмитри",
        "евич"
      ],
      [
        "рязан",
        "ь"
      ],
      [
        "чуваш",
        "ская"
      ],
      [
        "куз",
        "нец"
      ],
      [
        "хабаров",
        "ск"
      ],
      [
        "цко",
        "го"
      ],
      [
        "олегов",
        "ич"
      ],
      [
        "ярослав",
        "ль"
      ],
      [
        "дар",
        "ья"
      ],
      [
        "сахали",
        "нской"
      ],
      [
        "верх",
        "не"
      ],
      [
        "вячеславов",
        "ич"
      ],
      [
        "прод",
        "а"
      ],
      [
        "ксе",
        "ния"
      ],
      [
        "ma",
        "il"
      ],
      [
        "чел",
        "ны"
      ],
      [
        "удмурт",
        "ской"
      ],
      [
        "действующе",
        "е"
      ],
      [
        "таш",
        "кент"
      ],
      [
        "анга",
        "рск"
      ],
      [
        "меся",
        "цев"
      ],
      [
        "индиви",
        "дуаль"
      ],
      [
        "o",
        "l"
      ],
      [
        "̈",
        "в"
      ],
      [
        "г",
        "ин"
      ],
      [
        "ж",
        "у"
      ],
      [
        "ж",
        "дения"
      ],
      [
        "з",
        "о"
      ],
      [
        "з",
        "ир"
      ],
      [
        "и",
        "ли"
      ],
      [
        "к",
        "ро"
      ],
      [
        "м",
        "ад"
      ],
      [
        "о",
        "г"
      ],
      [
        "о",
        "к"
      ],
      [
        "о",
        "зер"
      ],
      [
        "т",
        "ре"
      ],
      [
        "у",
        "к"
      ],
      [
        "у",
        "ри"
      ],
      [
        "х",
        "ас"
      ],
      [
        "ч",
        "ная"
      ],
      [
        "э",
        "н"
      ],
      [
        "я",
        "на"
      ],
      [
        "ст",
        "у"
      ],
      [
        "ан",
        "о"
      ],
      [
        "ер",
        "че"
      ],
      [
        "ва",
        "я"
      ],
      [
        "мо",
        "ва"
      ],
      [
        "ли",
        "н"
      ],
      [
        "город",
        "казань"
      ],
      [
        "ас",
        "ии"
      ],
      [
        "ка",
        "в"
      ],
      [
        ">)",
        "-"
      ],
      [
        "ки",
        "ри"
      ],
      [
        "крас",
        "ная"
      ],
      [
        "ма",
        "г"
      ],
      [
        "ба",
        "ш"
      ],
      [
        "лов",
        "ский"
      ],
      [
        "нов",
        "ский"
      ],
      [
        "ков",
        "на"
      ],
      [
        "ков",
        "ская"
      ],
      [
        "анов",
        "ич"
      ],
      [
        "ир",
        "к"
      ],
      [
        "стр",
        "укт"
      ],
      [
        "конкурс",
        "ного"
      ],
      [
        "евге",
        "ния"
      ],
      [
        "валер",
        "ия"
      ],
      [
        "сро",
        "к"
      ],
      [
        "фе",
        "до"
      ],
      [
        "татья",
        "ны"
      ],
      [
        "анаст",
        "асии"
      ],
      [
        "калини",
        "на"
      ],
      [
        "екатер",
        "инбург"
      ],
      [
        "зер",
        "ж"
      ],
      [
        "октя",
        "бря"
      ],
      [
        "гри",
        "гор"
      ],
      [
        "гри",
        "вцова"
      ],
      [
        "завод",
        "ск"
      ],
      [
        "октябрь",
        "ская"
      ],
      [
        "петро",
        "павлов"
      ],
      [
        "россий",
        "ск"
      ],
      [
        "арме",
        "ния"
      ],
      [
        "сою",
        "за"
      ],
      [
        "дон",
        "у"
      ],
      [
        "пред",
        "при"
      ],
      [
        "бла",
        "го"
      ],
      [
        "сообщ",
        "ает"
      ],
      [
        "азер",
        "бай"
      ],
      [
        "нахо",
        "ждения"
      ],
      [
        "владивосто",
        "к"
      ],
      [
        "б",
        "ул"
      ],
      [
        "в",
        "ор"
      ],
      [
        "д",
        "зерж"
      ],
      [
        "е",
        "к"
      ],
      [
        "ж",
        "ен"
      ],
      [
        "и",
        "ш"
      ],
      [
        "и",
        "горь"
      ],
      [
        "н",
        "ор"
      ],
      [
        "п",
        "ров"
      ],
      [
        "с",
        "им"
      ],
      [
        "т",
        "ья"
      ],
      [
        "х",
        "ова"
      ],
      [
        "ч",
        "ка"
      ],
      [
        "ч",
        "инский"
      ],
      [
        "э",
        "ду"
      ],
      [
        "ст",
        "ани"
      ],
      [
        "й",
        "ош"
      ],
      [
        "ни",
        "ма"
      ],
      [
        "ра",
        "ди"
      ],
      [
        "ва",
        "зир"
      ],
      [
        "нн",
        "ая"
      ],
      [
        "не",
        "ф"
      ],
      [
        "ар",
        "ы"
      ],
      [
        "ар",
        "те"
      ],
      [
        "комм",
        "ерче"
      ],
      [
        "ев",
        "ского"
      ],
      [
        "ов",
        "ец"
      ],
      [
        "во",
        "з"
      ],
      [
        "та",
        "ж"
      ],
      [
        ".:",
        "<"
      ],
      [
        "ве",
        "ще"
      ],
      [
        "от",
        "ра"
      ],
      [
        "место",
        "река"
      ],
      [
        "че",
        "бо"
      ],
      [
        "ма",
        "л"
      ],
      [
        "ма",
        "го"
      ],
      [
        "ма",
        "ха"
      ],
      [
        "те",
        "лей"
      ],
      [
        "ново",
        "кузнецк"
      ],
      [
        "пет",
        "рович"
      ],
      [
        "пер",
        "во"
      ],
      [
        "красно",
        "арме"
      ],
      [
        "алтай",
        "ск"
      ],
      [
        "ши",
        "ха"
      ],
      [
        "иванов",
        "ская"
      ],
      [
        "чер",
        "кас"
      ],
      [
        "кры",
        "лосов"
      ],
      [
        "бря",
        "нская"
      ],
      [
        "астрахан",
        "ская"
      ],
      [
        "дмитри",
        "я"
      ],
      [
        "хабаров",
        "ский"
      ],
      [
        "кор",
        "п"
      ],
      [
        "арханге",
        "льская"
      ],
      [
        "геннад",
        "ьевна"
      ],
      [
        "липе",
        "цкая"
      ],
      [
        "павлов",
        "ич"
      ],
      [
        "ульянов",
        "ской"
      ],
      [
        "ассоциа",
        "ция"
      ],
      [
        "вячеславов",
        "на"
      ],
      [
        "борисов",
        "ич"
      ],
      [
        "россий",
        "ский"
      ],
      [
        "вален",
        "ти"
      ],
      [
        "вален",
        "тина"
      ],
      [
        "нижне",
        "камск"
      ],
      [
        "сев",
        "ер"
      ],
      [
        "ада",
        "мович"
      ],
      [
        "аукци",
        "онный"
      ],
      [
        "наблю",
        "дения"
      ],
      [
        "само",
        "рег"
      ],
      [
        "череп",
        "овец"
      ],
      [
        "индивидуаль",
        "ный"
      ],
      [
        "предпри",
        "нима"
      ],
      [
        "азербай",
        "джан"
      ],
      [
        "эду",
        "ар"
      ],
      [
        "йош",
        "кар"
      ],
      [
        "вазир",
        "ханов"
      ],
      [
        "чебо",
        "кс"
      ],
      [
        "предпринима",
        "тель"
      ],
      [
        "c",
        "h"
      ],
      [
[...]
