<unk>	0
<s>	0
</s>	0
nu	-0
num	-1
▁<	-2
ст	-3
ро	-4
▁о	-5
ск	-6
ан	-7
ни	-8
▁г	-9
ер	-10
ле	-11
>,	-12
▁к	-13
ми	-14
▁д	-15
▁об	-16
>-	-17
од	-18
>-<	-19
ре	-20
▁с	-21
ра	-22
▁а	-23
ва	-24
нн	-25
ерс	-26
▁п	-27
ла	-28
ор	-29
▁в	-30
на	-31
▁б	-32
мо	-33
ов	-34
▁ре	-35
ом	-36
ет	-37
анк	-38
не	-39
лек	-40
ства	-41
ост	-42
рот	-43
ии	-44
анкрот	-45
ско	-46
ния	-47
уп	-48
ай	-49
▁банкрот	-50
▁не	-51
об	-52
аз	-53
ел	-54
го	-55
▁э	-56
>.	-57
мит	-58
ант	-59
имо	-60
яв	-61
▁ком	-62
явле	-63
нны	-64
пи	-65
▁оф	-66
тро	-67
▁объ	-68
▁под	-69
▁объявле	-70
ход	-71
▁комм	-72
лектро	-73
▁и	-74
▁электро	-75
▁дост	-76
еты	-77
лам	-78
ску	-79
упа	-80
▁газ	-81
▁банкротства	-82
фай	-83
мить	-84
▁электронны	-85
df	-86
▁p	-87
антъ	-88
▁pdf	-89
ерсии	-90
ниями	-91
обход	-92
писку	-93
▁офор	-94
файлам	-95
ерсантъ	-96
▁версии	-97
▁газеты	-98
обходимо	-99
▁доступа	-100
▁оформить	-101
▁подписку	-102
▁необходимо	-103
▁коммерсантъ	-104
▁электронные	-105
▁банкротствах	-106
▁объявлениями	-107
▁(	-108
ше	-109
но	-110
ли	-111
ем	-112
шени	-113
ев	-114
ая	-115
би	-116
ской	-117
▁м	-118
лс	-119
род	-120
.,	-121
нилс	-122
▁обл	-123
ская	-124
раж	-125
▁дел	-126
▁у	-127
▁решени	-128
ест	-129
▁решением	-130
▁снилс	-131
▁ар	-132
ий	-133
уд	-134
▁делу	-135
бит	-136
битраж	-137
▁арбитраж	-138
▁суд	-139
▁го	-140
ри	-141
▁город	-142
дре	-143
▁инн	-144
ич	-145
ны	-146
ласт	-147
▁област	-148
ар	-149
>.<	-150
дрес	-151
ль	-152
▁кра	-153
де	-154
ров	-155
за	-156
ский	-157
▁т	-158
▁n	-159
▁адрес	-160
▁no	-161
▁ас	-162
ного	-163
▁ул	-164
▁области	-165
он	-166
ур	-167
▁суда	-168
▁арбитражного	-169
ия	-170
ского	-171
▁мест	-172
али	-173
ин	-174
>)	-175
ка	-176
.:	-177
▁р	-178
▁городр	-179
▁мо	-180
ко	-181
ат	-182
▁ро	-183
ен	-184
сп	-185
инн	-186
▁,	-187
ве	-188
▁ч	-189
▁моск	-190
зац	-191
▁ра	-192
▁реали	-193
▁при	-194
▁реализац	-195
▁респ	-196
ина	-197
ный	-198
▁от	-199
.<	-200
ще	-201
му	-202
зн	-203
лекс	-204
ово	-205
▁рай	-206
▁алекс	-207
щества	-208
▁иму	-209
знан	-210
▁имущества	-211
ол	-212
яр	-213
▁реализация	-214
ки	-215
уб	-216
евич	-217
гр	-218
▁ф	-219
▁район	-220
ам	-221
евна	-222
▁ст	-223
ди	-224
ова	-225
овской	-226
▁признан	-227
жде	-228
▁местор	-229
▁крас	-230
▁края	-231
ерев	-232
убли	-233
▁кв	-234
▁про	-235
веде	-236
▁место	-237
анд	-238
еревн	-239
овская	-240
ведена	-241
▁уп	-242
▁ан	-243
ед	-244
▁гор	-245
▁республи	-246
город	-247
ге	-248
лени	-249
кт	-250
дан	-251
ги	-252
ждения	-253
▁арбитражный	-254
▁александ	-255
▁ни	-256
▁н	-257
ург	-258
>.,	-259
▁рождения	-260
шении	-261
▁отно	-262
▁отношении	-263
еревняр	-264
ная	-265
мест	-266
лади	-267
во	-268
гра	-269
ель	-270
си	-271
▁-	-272
▁влади	-273
деревняр	-274
ля	-275
▁х	-276
оль	-277
ровна	-278
▁граж	-279
лиц	-280
▁сер	-281
местор	-282
град	-283
▁огр	-284
ани	-285
стра	-286
▁граждан	-287
ку	-288
▁введена	-289
▁дело	-290
▁банкротом	-291
ав	-292
ура	-293
▁владими	-294
ал	-295
▁ва	-296
вет	-297
▁проц	-298
▁серге	-299
нод	-300
рав	-301
рович	-302
▁край	-303
ович	-304
нодар	-305
ой	-306
бин	-307
бург	-308
ят	-309
лица	-310
▁ю	-311
овна	-312
▁управ	-313
▁процед	-314
еля	-315
ющ	-316
▁гражданина	-317
▁республики	-318
▁на	-319
енн	-320
▁процедура	-321
▁управля	-322
ян	-323
▁краснодар	-324
▁са	-325
▁ма	-326
▁фин	-327
▁управляющ	-328
га	-329
▁по	-330
елябин	-331
ков	-332
ным	-333
▁ново	-334
вер	-335
ева	-336
▁реги	-337
страц	-338
>;	-339
та	-340
▁регистрац	-341
▁тат	-342
▁челябин	-343
▁ви	-344
▁ми	-345
щест	-346
▁е	-347
▁общест	-348
▁ш	-349
ас	-350
ман	-351
▁общество	-352
,<	-353
▁(<	-354
снилс	-355
венн	-356
ср	-357
ственн	-358
▁ор	-359
осто	-360
▁кон	-361
▁пер	-362
ью	-363
стан	-364
▁признана	-365
оро	-366
анич	-367
▁за	-368
▁москва	-369
▁вол	-370
енной	-371
остью	-372
▁ответ	-373
▁огранич	-374
ственностью	-375
▁ограниченной	-376
аст	-377
кова	-378
▁область	-379
▁регистрации	-380
же	-381
кур	-382
▁нико	-383
▁л	-384
▁ба	-385
▁никола	-386
гор	-387
▁ал	-388
▁алексе	-389
ма	-390
кут	-391
мен	-392
▁московской	-393
от	-394
▁лени	-395
ван	-396
дат	-397
▁ки	-398
▁ку	-399
▁оп	-400
гов	-401
▁нес	-402
▁несосто	-403
кр	-404
▁сам	-405
нград	-406
ятель	-407
▁несостоятель	-408
бир	-409
пет	-410
▁улица	-411
▁викт	-412
цы	-413
▁ир	-414
▁опре	-415
шк	-416
сов	-417
▁опреде	-418
▁московская	-419
лен	-420
▁определени	-421
▁ка	-422
ба	-423
роп	-424
сибир	-425
▁определением	-426
курс	-427
со	-428
тай	-429
▁красно	-430
рат	-431
хан	-432
▁управляющий	-433
вы	-434
▁конкурс	-435
▁иван	-436
▁андре	-437
анкт	-438
петер	-439
▁самар	-440
петербург	-441
▁татар	-442
рен	-443
▁ом	-444
ес	-445
▁города	-446
ул	-447
▁иркут	-448
▁ко	-449
▁тор	-450
им	-451
лов	-452
тор	-453
▁рост	-454
ци	-455
▁з	-456
▁тю	-457
рани	-458
▁реализации	-459
ым	-460
раницы	-461
▁алтай	-462
▁новосибир	-463
▁краснодарского	-464
сс	-465
нец	-466
▁несостоятельным	-467
ти	-468
ья	-469
▁упр	-470
▁санкт	-471
еме	-472
▁ли	-473
ское	-474
▁орг	-475
▁став	-476
рополь	-477
▁тюмен	-478
лав	-479
▁москвы	-480
рина	-481
▁торгов	-482
▁республика	-483
▁я	-484
▁пос	-485
банкрот	-486
▁юр	-487
▁дмит	-488
ад	-489
ус	-490
ное	-491
огр	-492
▁ев	-493
ьевич	-494
▁огрн	-495
▁органи	-496
▁ленинград	-497
▁татарстан	-498
▁ставрополь	-499
огрн	-500
▁воро	-501
▁викто	-502
да	-503
лан	-504
емеров	-505
ун	-506
затор	-507
гоград	-508
ха	-509
▁александровна	-510
ной	-511
ог	-512
верд	-513
▁бел	-514
▁челябинской	-515
▁со	-516
адрес	-517
▁кемеров	-518
▁организатор	-519
▁владимировна	-520
▁александрович	-521
бр	-522
при	-523
▁пр	-524
она	-525
▁ха	-526
нова	-527
рова	-528
▁кур	-529
▁орен	-530
ьевна	-531
банкротом	-532
),	-533
кра	-534
неж	-535
▁мар	-536
датам	-537
кв	-538
▁кр	-539
есто	-540
▁сарат	-541
▁волгоград	-542
рез	-543
▁уро	-544
вердл	-545
улица	-546
▁местож	-547
городской	-548
датаместо	-549
мор	-550
▁де	-551
овой	-552
▁пет	-553
▁краснояр	-554
▁александр	-555
ец	-556
ит	-557
ере	-558
▁гр	-559
енко	-560
▁оренбург	-561
▁конкурсный	-562
лия	-563
▁(,	-564
▁ле	-565
введена	-566
▁сергеевич	-567
ансов	-568
▁васи	-569
ах	-570
вод	-571
нов	-572
орт	-573
▁свердл	-574
▁страницы	-575
ент	-576
асть	-577
▁краснодарский	-578
>).	-579
лена	-580
таль	-581
▁перм	-582
▁воронеж	-583
ме	-584
евны	-585
▁вал	-586
остан	-587
моск	-588
шкорт	-589
▁анат	-590
шкортостан	-591
.;	-592
кс	-593
ут	-594
яз	-595
тер	-596
хай	-597
▁реш	-598
▁асср	-599
▁василь	-600
▁сергеевна	-601
ис	-602
▁ж	-603
▁росс	-604
▁каз	-605
▁ниже	-606
▁михай	-607
▁челябинская	-608
▁башкортостан	-609
ся	-610
зна	-611
▁валер	-612
▁киров	-613
:<	-614
▁)	-615
ний	-616
петербурга	-617
ансовым	-618
▁примор	-619
▁анатоль	-620
▁владимирович	-621
жд	-622
ло	-623
ань	-624
▁владимир	-625
▁самарской	-626
▁ростовской	-627
бе	-628
ши	-629
кци	-630
▁да	-631
лова	-632
▁том	-633
инский	-634
▁елена	-635
▁ленинградской	-636
▁ри	-637
▁чу	-638
слав	-639
урман	-640
▁татья	-641
▁часть	-642
городская	-643
▁алтайского	-644
чи	-645
▁судом	-646
страхан	-647
▁сергей	-648
▁арбитражным	-649
ви	-650
ген	-651
▁свет	-652
▁самарская	-653
▁нов	-654
▁оль	-655
астас	-656
нский	-657
признан	-658
▁района	-659
▁анастас	-660
кры	-661
шев	-662
дата	-663
▁бор	-664
льная	-665
овский	-666
▁управляющим	-667
лю	-668
еле	-669
мур	-670
тив	-671
уль	-672
анская	-673
▁призна	-674
ый	-675
▁бр	-676
▁ут	-677
▁сср	-678
катер	-679
инского	-680
▁мурман	-681
▁омской	-682
▁ставропольского	-683
са	-684
▁.	-685
ваш	-686
горск	-687
▁дмитри	-688
▁астрахан	-689
▁городмоск	-690
▁иркутской	-691
▁тюменской	-692
▁николаевна	-693
▁кемеровской	-694
жи	-695
▁ц	-696
олю	-697
▁оле	-698
▁ряз	-699
▁кали	-700
▁евген	-701
ется	-702
лина	-703
онер	-704
▁рожд	-705
тивная	-706
▁николаевич	-707
▁новосибирской	-708
ды	-709
то	-710
ябр	-711
▁ольга	-712
▁наталь	-713
ру	-714
хо	-715
ара	-716
рев	-717
▁лю	-718
▁мр	-719
крас	-720
анской	-721
▁чуваш	-722
▁екатер	-723
▁светлан	-724
▁свердловской	-725
уш	-726
кая	-727
анова	-728
че	-729
бар	-730
ние	-731
▁гу	-732
гель	-733
▁член	-734
▁калини	-735
▁татьяна	-736
▁викторович	-737
бы	-738
из	-739
ты	-740
вар	-741
зер	-742
кар	-743
ункт	-744
▁сро	-745
баров	-746
▁урож	-747
▁волог	-748
▁утвер	-749
▁россия	-750
▁алексей	-751
▁признается	-752
амб	-753
рий	-754
▁ла	-755
▁вер	-756
▁пав	-757
резолю	-758
кционер	-759
▁дмитрий	-760
▁утвержде	-761
▁анастасия	-762
▁алексеевич	-763
▁финансовым	-764
▁волгоградской	-765
▁красноярского	-766
гт	-767
ил	-768
ня	-769
ана	-770
ода	-771
уга	-772
▁фу	-773
▁бур	-774
▁ниж	-775
▁евге	-776
▁акционер	-777
▁алтайский	-778
▁иркутская	-779
▁викторовна	-780
резолютивная	-781
мао	-782
▁ав	-783
гест	-784
▁роман	-785
▁вологод	-786
▁хабаров	-787
▁городмосква	-788
яч	-789
бай	-790
пец	-791
▁рт	-792
▁че	-793
роди	-794
▁арт	-795
▁иль	-796
▁мес	-797
▁брян	-798
нского	-799
▁ирина	-800
▁михайл	-801
▁наталья	-802
▁светлана	-803
▁гражданин	-804
▁оренбургской	-805
:.	-806
уз	-807
кин	-808
хов	-809
▁бо	-810
ания	-811
▁кам	-812
▁чер	-813
женец	-814
ровны	-815
▁кург	-816
▁виктор	-817
ир	-818
уг	-819
>,<	-820
ром	-821
ково	-822
▁дол	-823
ктябр	-824
▁ростовская	-825
лы	-826
каз	-827
кас	-828
обл	-829
сть	-830
цев	-831
▁су	-832
▁пом	-833
▁генн	-834
▁года	-835
▁твер	-836
хангель	-837
▁нижегородской	-838
▁ставропольский	-839
▁си	-840
имов	-841
кина	-842
река	-843
щина	-844
ятия	-845
▁гри	-846
▁наб	-847
▁амур	-848
▁олег	-849
▁хмао	-850
▁геннад	-851
▁дагест	-852
страницы	-853
▁саратовской	-854
ду	-855
мов	-856
▁ло	-857
жная	-858
ячес	-859
▁кор	-860
▁тамб	-861
еревня	-862
▁вячес	-863
▁откры	-864
▁уроженец	-865
▁андреевич	-866
▁архангель	-867
:,	-868
аль	-869
ных	-870
ств	-871
тов	-872
▁сп	-873
▁пгт	-874
▁уль	-875
▁юлия	-876
▁липец	-877
▁андрей	-878
▁омская	-879
▁юрьевич	-880
▁новосибирская	-881
дж	-882
еп	-883
их	-884
ца	-885
ьев	-886
▁ос	-887
▁ше	-888
алин	-889
лева	-890
овка	-891
▁окр	-892
▁городс	-893
▁гущина	-894
▁вячеслав	-895
ча	-896
гар	-897
дов	-898
ели	-899
йбы	-900
ции	-901
чат	-902
енка	-903
▁ант	-904
▁иго	-905
инская	-906
признана	-907
▁васильевна	-908
▁акционерное	-909
▁анатольевна	-910
бов	-911
кий	-912
рег	-913
ури	-914
чер	-915
▁ин	-916
▁та	-917
анты	-918
знец	-919
оном	-920
▁бар	-921
▁мор	-922
рослав	-923
▁игорев	-924
▁октябр	-925
▁андреевна	-926
▁приморского	-927
ос	-928
се	-929
ыш	-930
бал	-931
кам	-932
▁аб	-933
▁ши	-934
ании	-935
ийск	-936
кино	-937
кого	-938
льск	-939
▁мкр	-940
▁орл	-941
извод	-942
▁стро	-943
йбышев	-944
▁городв	-945
▁евгений	-946
▁курской	-947
▁екатерина	-948
▁кировской	-949
▁челябинск	-950
▁воронежской	-951
▁несостоятельной	-952
(,	-953
ещ	-954
ело	-955
▁га	-956
▁кк	-957
инск	-958
манс	-959
соци	-960
▁авт	-961
▁пре	-962
▁омск	-963
алания	-964
▁местон	-965
▁бурятия	-966
▁дагестан	-967
▁признано	-968
▁производ	-969
▁утвержден	-970
▁приморский	-971
▁астраханской	-972
▁белгородской	-973
).	-974
уж	-975
ук	-976
ша	-977
>),	-978
кой	-979
ото	-980
▁ая	-981
рист	-982
▁кар	-983
▁мер	-984
ентра	-985
социа	-986
▁анна	-987
▁усть	-988
▁борис	-989
▁марий	-990
▁пункт	-991
▁марина	-992
▁автоном	-993
▁куйбышев	-994
▁евгеньевна	-995
▁калининград	-996
оп	-997
ух	-998
>,,	-999
гры	-1000
ево	-1001
фин	-1002
▁эл	-1003
дино	-1004
жный	-1005
каль	-1006
ново	-1007
▁дер	-1008
▁мак	-1009
▁рег	-1010
итель	-1011
ников	-1012
ченко	-1013
▁кабар	-1014
▁ульян	-1015
▁ханты	-1016
▁тверская	-1017
▁пермского	-1018
▁тюменская	-1019
▁алексеевна	-1020
▁регистрация	-1021
дм	-1022
зд	-1023
фа	-1024
гея	-1025
лев	-1026
мир	-1027
они	-1028
пов	-1029
▁во	-1030
лент	-1031
нный	-1032
▁дей	-1033
▁мск	-1034
релия	-1035
▁дени	-1036
балкар	-1037
евский	-1038
мансий	-1039
▁кабардино	-1040
▁кемеровская	-1041
ник	-1042
юще	-1043
▁ау	-1044
ство	-1045
ству	-1046
▁кал	-1047
▁тер	-1048
стант	-1049
▁кост	-1050
никова	-1051
▁округа	-1052
▁новосибирск	-1053
ау	-1054
бо	-1055
рт	-1056
вед	-1057
или	-1058
ные	-1059
ула	-1060
▁дж	-1061
▁до	-1062
евка	-1063
овск	-1064
стро	-1065
цова	-1066
ьева	-1067
▁риг	-1068
▁сах	-1069
▁сов	-1070
▁фед	-1071
овича	-1072
▁верх	-1073
▁наде	-1074
▁степ	-1075
▁укра	-1076
▁алина	-1077
▁макси	-1078
овского	-1079
стантин	-1080
▁валент	-1081
▁центра	-1082
▁сахалин	-1083
▁юрьевна	-1084
▁чувашской	-1085
▁александра	-1086
▁валерьевич	-1087
▁дмитриевна	-1088
▁мурманской	-1089
▁автономного	-1090
▁анатольевич	-1091
▁вологодской	-1092
▁красноярский	-1093
▁ленинградская	-1094
бас	-1095
бер	-1096
лин	-1097
чен	-1098
▁ве	-1099
▁ге	-1100
▁рп	-1101
наул	-1102
шева	-1103
▁ады	-1104
▁кбр	-1105
▁маг	-1106
касия	-1107
курий	-1108
▁банк	-1109
▁гали	-1110
▁крым	-1111
▁мари	-1112
▁павл	-1113
▁денис	-1114
▁казах	-1115
ковский	-1116
▁ассоциа	-1117
▁курская	-1118
▁саратов	-1119
▁хакасия	-1120
▁виктория	-1121
▁меркурий	-1122
▁уроженка	-1123
▁васильевич	-1124
▁константин	-1125
▁оренбургская	-1126
▁нижегородская	-1127
сь	-1128
дин	-1129
▁ад	-1130
▁ша	-1131
улиц	-1132
▁дом	-1133
▁мал	-1134
▁пен	-1135
▁рсо	-1136
▁сол	-1137
▁стр	-1138
завод	-1139
место	-1140
▁кара	-1141
▁река	-1142
енский	-1143
етская	-1144
▁основ	-1145
байкаль	-1146
▁адыгея	-1147
▁действу	-1148
▁томской	-1149
краснодар	-1150
▁ивановна	-1151
▁областьот	-1152
▁основании	-1153
▁рязанской	-1154
▁белгородская	-1155
▁волгоградская	-1156
фу	-1157
бек	-1158
лет	-1159
чка	-1160
▁уд	-1161
евой	-1162
желе	-1163
лава	-1164
реги	-1165
тали	-1166
ятти	-1167
▁лит	-1168
▁рус	-1169
▁смо	-1170
▁боль	-1171
▁фото	-1172
▁крист	-1173
ольятти	-1174
▁казань	-1175
▁ярослав	-1176
▁иванович	-1177
▁воронежская	-1178
▁саратовская	-1179
-<	-1180
ей	-1181
па	-1182
>;<	-1183
ган	-1184
жда	-1185
кан	-1186
ком	-1187
мат	-1188
▁аль	-1189
▁лет	-1190
жский	-1191
зация	-1192
ловск	-1193
▁миха	-1194
▁ники	-1195
▁улиц	-1196
кистан	-1197
▁леони	-1198
▁призн	-1199
ровский	-1200
явление	-1201
▁григор	-1202
▁ленина	-1203
▁карелия	-1204
▁надежда	-1205
▁октябрь	-1206
▁открыто	-1207
▁деревняр	-1208
балкарской	-1209
▁забайкаль	-1210
▁заявление	-1211
▁евгеньевич	-1212
▁михайловна	-1213
▁свердловская	-1214
те	-1215
фи	-1216
ща	-1217
ыс	-1218
ары	-1219
мал	-1220
нск	-1221
оло	-1222
про	-1223
руд	-1224
сро	-1225
упр	-1226
▁),	-1227
▁ме	-1228
▁ти	-1229
лась	-1230
овая	-1231
рово	-1232
▁али	-1233
▁мол	-1234
▁спб	-1235
▁чел	-1236
данян	-1237
строй	-1238
ьевны	-1239
▁бере	-1240
▁зеле	-1241
▁коми	-1242
▁нижне	-1243
▁леонид	-1244
▁смолен	-1245
родилась	-1246
▁деревня	-1247
▁иркутск	-1248
▁липецкой	-1249
▁тольятти	-1250
финансовым	-1251
▁объявлена	-1252
мансийского	-1253
▁конкурсное	-1254
▁центральная	-1255
▁производство	-1256
▁хабаровского	-1257
нт	-1258
ок	-1259
сз	-1260
вол	-1261
лее	-1262
ран	-1263
ция	-1264
ьян	-1265
▁ди	-1266
▁им	-1267
▁уз	-1268
анск	-1269
евск	-1270
пова	-1271
рева	-1272
цева	-1273
▁бат	-1274
▁кры	-1275
▁ксе	-1276
▁окс	-1277
▁пар	-1278
довия	-1279
ренко	-1280
▁долж	-1281
▁желе	-1282
▁пред	-1283
инбург	-1284
красно	-1285
кузнец	-1286
ленина	-1287
льский	-1288
▁антон	-1289
▁банкр	-1290
▁галина	-1291
▁тюмень	-1292
варданян	-1293
▁томская	-1294
▁амурская	-1295
▁амурской	-1296
▁мордовия	-1297
▁новгород	-1298
▁олеговна	-1299
▁курганская	-1300
▁тамбовской	-1301
▁вологодская	-1302
▁владимировны	-1303
▁владимирской	-1304
.)	-1305
eu	-1306
фе	-1307
,,<	-1308
дми	-1309
дон	-1310
иче	-1311
кон	-1312
коп	-1313
лей	-1314
нев	-1315
▁ах	-1316
▁но	-1317
анка	-1318
знод	-1319
овны	-1320
стри	-1321
▁бог	-1322
▁дар	-1323
▁поб	-1324
▁шко	-1325
йская	-1326
пункт	-1327
ургут	-1328
▁горь	-1329
▁мира	-1330
▁туль	-1331
льская	-1332
▁любов	-1333
▁людми	-1334
деревня	-1335
знодоро	-1336
ловский	-1337
чатский	-1338
▁виталь	-1339
▁максим	-1340
▁нижний	-1341
▁оксана	-1342
ковского	-1343
ровского	-1344
▁николай	-1345
▁игоревич	-1346
▁михайлов	-1347
▁пермский	-1348
▁кировская	-1349
▁орловской	-1350
▁признании	-1351
▁сергеевны	-1352
▁ассоциации	-1353
▁ивановской	-1354
▁арбитражных	-1355
▁управляющих	-1356
▁архангельской	-1357
до	-1358
пу	-1359
ард	-1360
зен	-1361
лся	-1362
мет	-1363
няя	-1364
оде	-1365
пол	-1366
удэ	-1367
ули	-1368
▁из	-1369
▁лу	-1370
▁му	-1371
▁яр	-1372
ереж	-1373
люде	-1374
мурт	-1375
орги	-1376
сова	-1377
сомо	-1378
шина	-1379
югры	-1380
▁дог	-1381
▁сар	-1382
▁сев	-1383
имова	-1384
шкина	-1385
▁илья	-1386
▁улан	-1387
альный	-1388
казань	-1389
▁аукци	-1390
▁больш	-1391
▁мария	-1392
▁помещ	-1393
ережные	-1394
ногорск	-1395
родился	-1396
▁городт	-1397
▁михаил	-1398
▁удмурт	-1399
▁людмила	-1400
▁наблюде	-1401
▁кристина	-1402
▁мурманск	-1403
▁общества	-1404
▁петровна	-1405
▁астрахань	-1406
▁владислав	-1407
▁рязанская	-1408
▁действующе	-1409
▁конкурсным	-1410
▁тамбовская	-1411
▁геннадьевич	-1412
▁калининградской	-1413
,,	-1414
гу	-1415
вом	-1416
еды	-1417
ино	-1418
лат	-1419
лии	-1420
лоб	-1421
рай	-1422
син	-1423
сср	-1424
▁ер	-1425
▁еф	-1426
▁пи	-1427
▁рб	-1428
▁ру	-1429
▁рф	-1430
▁ск	-1431
▁ча	-1432
дело	-1433
енск	-1434
мало	-1435
мира	-1436
ника	-1437
нина	-1438
респ	-1439
щает	-1440
▁вре	-1441
▁кас	-1442
▁кол	-1443
▁тел	-1444
йский	-1445
камск	-1446
ненец	-1447
овора	-1448
онный	-1449
рекач	-1450
ровой	-1451
▁бала	-1452
▁имущ	-1453
▁панк	-1454
▁реал	-1455
▁само	-1456
▁сооб	-1457
инской	-1458
▁артем	-1459
▁берез	-1460
▁калуж	-1461
▁ямало	-1462
одежная	-1463
▁георги	-1464
▁любовь	-1465
▁пензен	-1466
▁барнаул	-1467
▁костром	-1468
▁брянской	-1469
▁договора	-1470
▁городсанкт	-1471
▁утверждена	-1472
▁александровны	-1473
▁владимировича	-1474
▁александровича	-1475
.-	-1476
зе	-1477
▁e	-1478
ала	-1479
езд	-1480
кол	-1481
мин	-1482
ола	-1483
раз	-1484
реч	-1485
рсо	-1486
шин	-1487
▁ак	-1488
▁кл	-1489
▁ры	-1490
▁се	-1491
▁ур	-1492
▁чи	-1493
арме	-1494
зная	-1495
иной	-1496
нева	-1497
чури	-1498
яцев	-1499
▁бла	-1500
▁кот	-1501
▁куз	-1502
▁мир	-1503
▁поч	-1504
▁сою	-1505
▁тад	-1506
алтай	-1507
восто	-1508
вцова	-1509
гарск	-1510
мович	-1511
ропав	-1512
ханов	-1513
шкент	-1514
▁азер	-1515
▁игор	-1516
▁кири	-1517
▁смир	-1518
▁юрий	-1519
гарина	-1520
ноград	-1521
ублика	-1522
▁гражд	-1523
▁дарья	-1524
▁рекап	-1525
▁челны	-1526
анского	-1527
стриров	-1528
▁зареги	-1529
▁ксения	-1530
▁кузнец	-1531
▁победы	-1532
▁россий	-1533
▁руслан	-1534
▁рязань	-1535
▁самара	-1536
▁месяцев	-1537
▁украина	-1538
▁олегович	-1539
▁городново	-1540
▁казахстан	-1541
▁орловская	-1542
▁советская	-1543
▁валерьевна	-1544
▁дмитриевич	-1545
▁михайлович	-1546
▁мурманская	-1547
▁удмуртской	-1548
▁действующее	-1549
▁железнодоро	-1550
▁сахалинской	-1551
▁вячеславович	-1552
▁новгородской	-1553
ры	-1554
уч	-1555
щи	-1556
ыз	-1557
ье	-1558
ёв	-1559
>)-	-1560
бел	-1561
гин	-1562
ект	-1563
ень	-1564
ерм	-1565
зир	-1566
нен	-1567
нин	-1568
пос	-1569
ста	-1570
чик	-1571
▁бе	-1572
▁ль	-1573
▁уч	-1574
▁шо	-1575
асср	-1576
виду	-1577
дону	-1578
елей	-1579
зерж	-1580
мова	-1581
омед	-1582
росс	-1583
срок	-1584
стоп	-1585
шкин	-1586
▁ада	-1587
▁ирк	-1588
▁май	-1589
▁ман	-1590
▁сав	-1591
▁ста	-1592
▁тур	-1593
▁эль	-1594
ленко	-1595
ольск	-1596
рожде	-1597
часть	-1598
▁егор	-1599
▁инди	-1600
▁коро	-1601
▁корп	-1602
айский	-1603
восток	-1604
евская	-1605
кского	-1606
▁завод	-1607
▁петро	-1608
заводск	-1609
краснояр	-1610
хождения	-1611
▁азербай	-1612
▁валерия	-1613
▁евгения	-1614
▁предпри	-1615
▁татьяны	-1616
▁валентин	-1617
▁гривцова	-1618
▁индивиду	-1619
▁сообщает	-1620
▁анастасии	-1621
▁строитель	-1622
▁чувашская	-1623
▁курганской	-1624
▁владимирская	-1625
▁екатеринбург	-1626
▁зарегистриров	-1627
(<	-1628
ак	-1629
йо	-1630
чу	-1631
▁щ	-1632
.:<	-1633
ано	-1634
вел	-1635
кав	-1636
маз	-1637
нии	-1638
рин	-1639
▁йо	-1640
▁ог	-1641
▁па	-1642
▁рд	-1643
▁те	-1644
▁фа	-1645
▁чр	-1646
▁шу	-1647
бокс	-1648
введ	-1649
воро	-1650
гина	-1651
гова	-1652
дова	-1653
куль	-1654
лаев	-1655
мина	-1656
ники	-1657
шево	-1658
шиха	-1659
шкар	-1660
▁его	-1661
▁кир	-1662
▁мин	-1663
▁мус	-1664
▁неф	-1665
▁нор	-1666
▁пол	-1667
▁сур	-1668
▁уфа	-1669
▁хас	-1670
▁эду	-1671
▁яна	-1672
лосов	-1673
нимат	-1674
повец	-1675
▁беля	-1676
▁дани	-1677
▁офис	-1678
▁прод	-1679
▁тара	-1680
▁федо	-1681
ителей	-1682
овское	-1683
▁вазир	-1684
▁време	-1685
▁дзерж	-1686
▁игорь	-1687
▁пермь	-1688
▁стани	-1689
евского	-1690
ковская	-1691
кузнецк	-1692
ровская	-1693
▁йошкар	-1694
▁первом	-1695
▁степан	-1696
ереповец	-1697
ниматель	-1698
▁дмитрия	-1699
▁комсомо	-1700
▁магомед	-1701
▁октября	-1702
▁саморег	-1703
▁адамович	-1704
▁брянская	-1705
▁калинина	-1706
▁крылосов	-1707
▁павлович	-1708
▁петрович	-1709
▁петропав	-1710
▁финансов	-1711
▁школьная	-1712
▁азербайдж	-1713
▁борисович	-1714
▁валентина	-1715
▁аукционный	-1716
▁вазирханов	-1717
▁наблюдения	-1718
▁нахождения	-1719
▁российский	-1720
▁геннадьевна	-1721
▁конкурсного	-1722
▁ульяновской	-1723
▁хабаровский	-1724
▁вячеславовна	-1725
▁индивидуальный	-1726
▁предприниматель	-1727
om	-1728
on	-1729
ид	-1730
ое	-1731
пп	-1732
сф	-1733
уй	-1734
ыр	-1735
ём	-1736
▁;	-1737
гиз	-1738
год	-1739
дер	-1740
жан	-1741
ины	-1742
ого	-1743
пат	-1744
рад	-1745
таж	-1746
▁ай	-1747
▁ат	-1748
▁жи	-1749
▁мж	-1750
▁эн	-1751
▁ян	-1752
амед	-1753
дина	-1754
нито	-1755
нная	-1756
перм	-1757
рукт	-1758
ссур	-1759
цкая	-1760
чева	-1761
чная	-1762
чный	-1763
ября	-1764
▁гер	-1765
▁доб	-1766
▁дуб	-1767
▁еле	-1768
▁кис	-1769
▁мед	-1770
▁нев	-1771
▁руб	-1772
▁тал	-1773
▁хар	-1774
влади	-1775
говещ	-1776
далее	-1777
ецкая	-1778
жевск	-1779
ильск	-1780
иркут	-1781
крыта	-1782
льный	-1783
мения	-1784
район	-1785
реали	-1786
улиру	-1787
хачка	-1788
цкого	-1789
ьевск	-1790
▁асмо	-1791
▁бакс	-1792
▁бори	-1793
▁мака	-1794
▁мель	-1795
▁оглы	-1796
▁пров	-1797
▁сент	-1798
▁стар	-1799
▁шосс	-1800
▁яков	-1801
анский	-1802
нецкая	-1803
▁сурхо	-1804
▁таджи	-1805
▁уссур	-1806
горский	-1807
открыта	-1808
сибирск	-1809
хачкала	-1810
▁верхне	-1811
▁камчат	-1812
▁реализ	-1813
▁сергея	-1814
▁сургут	-1815
▁эдуард	-1816
бекистан	-1817
деревням	-1818
ловского	-1819
российск	-1820
▁алексея	-1821
▁армения	-1822
▁красная	-1823
▁открыта	-1824
▁панкова	-1825
ненецкого	-1826
▁игоревна	-1827
▁липецкая	-1828
▁норильск	-1829
▁сентября	-1830
▁тульской	-1831
камчатский	-1832
▁месяцевфу	-1833
▁татарской	-1834
▁хабаровск	-1835
▁ивановская	-1836
▁набережные	-1837
▁николаевны	-1838
▁городказань	-1839
▁городмосквы	-1840
▁сахалинская	-1841
▁ярославской	-1842
▁новороссийск	-1843
▁саморегулиру	-1844
▁забайкальского	-1845
ее	-1846
ие	-1847
ик	-1848
ну	-1849
по	-1850
сб	-1851
сы	-1852
ть	-1853
цк	-1854
юк	-1855
ата	-1856
бот	-1857
дим	-1858
еде	-1859
жно	-1860
кза	-1861
лес	-1862
мас	-1863
мон	-1864
мск	-1865
наб	-1866
ниж	-1867
ном	-1868
ред	-1869
ртк	-1870
руж	-1871
уна	-1872
шки	-1873
▁аг	-1874
▁вы	-1875
▁др	-1876
▁пе	-1877
▁то	-1878
▁фи	-1879
емая	-1880
рост	-1881
сфср	-1882
ушка	-1883
хина	-1884
хова	-1885
цкий	-1886
ющий	-1887
янск	-1888
▁аба	-1889
▁аск	-1890
▁бай	-1891
▁бер	-1892
▁вад	-1893
▁вар	-1894
▁ели	-1895
▁клю	-1896
▁луг	-1897
▁оре	-1898
▁пят	-1899
▁раз	-1900
▁руд	-1901
▁сат	-1902
▁сем	-1903
▁ура	-1904
▁хол	-1905
баева	-1906
варде	-1907
завет	-1908
казах	-1909
кутия	-1910
летар	-1911
ловка	-1912
новая	-1913
ровка	-1914
слава	-1915
спект	-1916
талий	-1917
ющего	-1918
▁груз	-1919
▁доро	-1920
▁кала	-1921
▁проф	-1922
▁ради	-1923
▁саха	-1924
▁тимо	-1925
▁югры	-1926
городс	-1927
кавказ	-1928
структ	-1929
янская	-1930
▁алена	-1931
▁артур	-1932
▁вадим	-1933
▁курск	-1934
▁павел	-1935
▁прода	-1936
▁рсфср	-1937
▁серги	-1938
▁союза	-1939
▁старо	-1940
▁строй	-1941
▁шоссе	-1942
алтайск	-1943
ельская	-1944
менский	-1945
ольский	-1946
челябин	-1947
ярослав	-1948
▁брянск	-1949
▁иванов	-1950
▁ижевск	-1951
▁попова	-1952
▁проезд	-1953
▁ростов	-1954
▁сроком	-1955
▁улицап	-1956
кзальная	-1957
нинского	-1958
▁вадимов	-1959
▁виталий	-1960
▁магнито	-1961
▁ташкент	-1962
говещенск	-1963
ленинград	-1964
▁гагарина	-1965
▁кемерово	-1966
▁тверской	-1967
московская	-1968
▁гражданка	-1969
▁ленинский	-1970
▁махачкала	-1971
▁станислав	-1972
▁ульяновск	-1973
▁уссурийск	-1974
▁красноарме	-1975
▁красноярск	-1976
▁нижнекамск	-1977
▁пензенской	-1978
▁узбекистан	-1979
▁финансовый	-1980
▁архангельск	-1981
▁костромская	-1982
▁николаевича	-1983
▁таджикистан	-1984
▁улицаленина	-1985
▁архангельская	-1986
▁забайкальский	-1987
▁городкраснодар	-1988
зи	-1989
зу	-1990
оф	-1991
пр	-1992
ту	-1993
фо	-1994
.:,	-1995
бри	-1996
бур	-1997
воб	-1998
гал	-1999
дар	-2000
ден	-2001
дул	-2002
иль	-2003
леб	-2004
лий	-2005
лон	-2006
раб	-2007
рак	-2008
рсб	-2009
спб	-2010
тат	-2011
фон	-2012
шат	-2013
шах	-2014
шен	-2015
ько	-2016
▁аш	-2017
▁бу	-2018
▁бы	-2019
▁зи	-2020
▁ил	-2021
▁ис	-2022
▁ош	-2023
▁ря	-2024
атья	-2025
бова	-2026
була	-2027
вест	-2028
енер	-2029
енов	-2030
ерче	-2031
олот	-2032
рины	-2033
скол	-2034
снов	-2035
тина	-2036
това	-2037
хово	-2038
югра	-2039
янка	-2040
▁бал	-2041
▁брю	-2042
▁гус	-2043
▁ков	-2044
▁кре	-2045
▁куб	-2046
▁ног	-2047
▁сад	-2048
▁соф	-2049
▁сус	-2050
▁там	-2051
▁тра	-2052
▁фар	-2053
▁шах	-2054
берцы	-2055
билей	-2056
елина	-2057
кович	-2058
ление	-2059
лобод	-2060
льчик	-2061
новой	-2062
откин	-2063
щение	-2064
▁бело	-2065
▁брат	-2066
▁ввел	-2067
▁мага	-2068
▁орск	-2069
▁пест	-2070
▁фили	-2071
▁югра	-2072
▁юлии	-2073
айская	-2074
завета	-2075
кирова	-2076
манова	-2077
хозная	-2078
якутия	-2079
▁артём	-2080
▁ефрсб	-2081
▁ирины	-2082
▁кирил	-2083
▁оренб	-2084
▁север	-2085
▁томск	-2086
барнаул	-2087
бинский	-2088
ическая	-2089
ковское	-2090
линская	-2091
чинский	-2092
▁беляев	-2093
▁богдан	-2094
▁долгов	-2095
▁житель	-2096
▁киргиз	-2097
▁курган	-2098
▁никита	-2099
▁старый	-2100
▁чебокс	-2101
чурилова	-2102
▁должник	-2103
▁натальи	-2104
▁николая	-2105
▁проведе	-2106
▁продаже	-2107
▁решение	-2108
казахстан	-2109
советская	-2110
структури	-2111
ярославль	-2112
▁балашиха	-2113
▁коммерче	-2114
▁павловна	-2115
▁пермской	-2116
▁пролетар	-2117
▁смирнова	-2118
республика	-2119
▁елизавета	-2120
▁калужской	-2121
▁романовна	-2122
▁череповец	-2123
▁витальевич	-2124
▁жительства	-2125
▁молодежная	-2126
▁сергеевича	-2127
▁алексеевича	-2128
▁владивосток	-2129
▁красногорск	-2130
▁реструктури	-2131
краснодарский	-2132
▁куйбышевской	-2133
▁магнитогорск	-2134
▁новгородская	-2135
▁петрозаводск	-2136
▁управляющего	-2137
▁калининградская	-2138
no	-2139
бу	-2140
гм	-2141
зо	-2142
ив	-2143
су	-2144
як	-2145
аны	-2146
бан	-2147
вой	-2148
дия	-2149
еро	-2150
есч	-2151
иму	-2152
кес	-2153
кул	-2154
лая	-2155
мол	-2156
ома	-2157
ору	-2158
пгт	-2159
рос	-2160
сев	-2161
сою	-2162
суд	-2163
там	-2164
хма	-2165
чев	-2166
▁ус	-2167
▁фо	-2168
▁эт	-2169
басс	-2170
гуль	-2171
елев	-2172
иков	-2173
кали	-2174
кент	-2175
крым	-2176
мана	-2177
нист	-2178
нным	-2179
одск	-2180
олье	-2181
омыс	-2182
ским	-2183
сово	-2184
утов	-2185
▁аау	-2186
▁адр	-2187
▁анд	-2188
▁арм	-2189
▁бав	-2190
▁воз	-2191
▁вор	-2192
▁дав	-2193
▁заб	-2194
▁кос	-2195
▁кри	-2196
▁лап	-2197
▁льв	-2198
▁мая	-2199
▁мух	-2200
▁сай	-2201
▁сул	-2202
▁тол	-2203
▁ува	-2204
▁усп	-2205
▁фор	-2206
▁чит	-2207
▁чка	-2208
▁шат	-2209
алекс	-2210
алова	-2211
астов	-2212
басср	-2213
бинск	-2214
замас	-2215
киров	-2216
лават	-2217
менко	-2218
пермь	-2219
сталь	-2220
талия	-2221
татар	-2222
товск	-2223
уденн	-2224
шения	-2225
щенко	-2226
▁асгм	-2227
▁введ	-2228
▁гого	-2229
▁гуль	-2230
▁каза	-2231
▁кова	-2232
▁комп	-2233
▁миро	-2234
▁моро	-2235
▁озер	-2236
▁соко	-2237
▁спор	-2238
▁труд	-2239
▁тула	-2240
▁этаж	-2241
▁якут	-2242
илимск	-2243
ктябрь	-2244
макова	-2245
омысск	-2246
свердл	-2247
▁аслан	-2248
▁введе	-2249
▁вороб	-2250
▁восто	-2251
▁горьк	-2252
▁далее	-2253
▁долго	-2254
▁лисин	-2255
▁нефте	-2256
▁новая	-2257
▁новос	-2258
▁отрад	-2259
▁прожи	-2260
▁рамаз	-2261
▁солне	-2262
▁торги	-2263
▁чебар	-2264
бурятия	-2265
воронеж	-2266
линский	-2267
ловская	-2268
минский	-2269
октябрь	-2270
▁андрея	-2271
▁брюхов	-2272
▁кбасср	-2273
▁майкоп	-2274
▁невинн	-2275
▁соснов	-2276
▁энгель	-2277
▁юбилей	-2278
▁ангарск	-2279
▁арзамас	-2280
▁большая	-2281
▁верхняя	-2282
▁зеленод	-2283
▁магадан	-2284
▁наталия	-2285
▁новочер	-2286
▁юрьевны	-2287
месторека	-2288
татарстан	-2289
▁виноград	-2290
▁городвол	-2291
▁должника	-2292
▁донецкая	-2293
▁пермская	-2294
▁проспект	-2295
▁светланы	-2296
красноярск	-2297
мансийский	-2298
▁борисовна	-2299
▁чебаркуль	-2300
▁леонидовна	-2301
▁смоленской	-2302
▁строителей	-2303
▁акционерным	-2304
▁викторовича	-2305
▁горьковской	-2306
▁новокузнецк	-2307
▁октябрьская	-2308
▁организация	-2309
▁астраханская	-2310
▁благовещенск	-2311
▁куйбышевская	-2312
▁невинномысск	-2313
▁строительная	-2314
▁петропавловск	-2315
▁городкрасноярск	-2316
▁зарегистрирован	-2317
.(	-2318
ап	-2319
зы	-2320
лк	-2321
лу	-2322
мы	-2323
нг	-2324
ьи	-2325
эн	-2326
>.)	-2327
адр	-2328
асс	-2329
бре	-2330
джи	-2331
ера	-2332
жев	-2333
ича	-2334
йск	-2335
кое	-2336
кса	-2337
мар	-2338
маш	-2339
мед	-2340
нич	-2341
нян	-2342
пит	-2343
ппи	-2344
реж	-2345
сун	-2346
сут	-2347
тан	-2348
тиз	-2349
уса	-2350
фан	-2351
чар	-2352
шов	-2353
юрт	-2354
ёва	-2355
▁пу	-2356
▁ту	-2357
▁фр	-2358
амет	-2359
анбе	-2360
берт	-2361
дева	-2362
етия	-2363
имущ	-2364
лино	-2365
мень	-2366
ност	-2367
пром	-2368
ранс	-2369
угур	-2370
щева	-2371
ышле	-2372
▁ави	-2373
▁алё	-2374
▁вес	-2375
▁гар	-2376
▁гом	-2377
▁дем	-2378
▁дне	-2379
▁зай	-2380
▁кат	-2381
▁коб	-2382
▁кок	-2383
▁кпп	-2384
▁лен	-2385
▁лес	-2386
▁лоб	-2387
▁мас	-2388
▁мах	-2389
▁мос	-2390
▁над	-2391
▁око	-2392
▁ост	-2393
▁рез	-2394
▁рож	-2395
▁сим	-2396
▁снт	-2397
▁тар	-2398
▁тре	-2399
▁хай	-2400
▁юри	-2401
амара	-2402
бован	-2403
говая	-2404
деева	-2405
зации	-2406
касск	-2407
ковая	-2408
ненко	-2409
нушка	-2410
ональ	-2411
орова	-2412
совны	-2413
услан	-2414
цовск	-2415
▁баба	-2416
▁баку	-2417
▁вера	-2418
▁геро	-2419
▁конд	-2420
▁кроп	-2421
▁куна	-2422
▁лаза	-2423
▁лари	-2424
▁макс	-2425
▁марс	-2426
▁морд	-2427
▁пере	-2428
▁пром	-2429
▁пяти	-2430
▁свод	-2431
▁село	-2432
▁слав	-2433
▁соау	-2434
▁суво	-2435
▁турк	-2436
▁харь	-2437
▁част	-2438
▁южно	-2439
банова	-2440
брянск	-2441
гварде	-2442
городр	-2443
евское	-2444
област	-2445
полова	-2446
уллина	-2447
ханова	-2448
чикова	-2449
▁алише	-2450
▁анато	-2451
▁бород	-2452
▁закры	-2453
▁ленин	-2454
▁лилия	-2455
▁мамед	-2456
▁новый	-2457
▁оскол	-2458
▁пенза	-2459
▁работ	-2460
▁реест	-2461
▁сибир	-2462
▁сокол	-2463
▁тракт	-2464
▁труда	-2465
▁узбек	-2466
▁участ	-2467
▁черем	-2468
ангарск	-2469
евастоп	-2470
карелия	-2471
ловодск	-2472
рождена	-2473
ченская	-2474
▁абакан	-2475
▁батраз	-2476
▁вороши	-2477
▁кустан	-2478
▁полина	-2479
▁привол	-2480
▁урожен	-2481
вартовск	-2482
ольского	-2483
совского	-2484
ышленная	-2485
▁введено	-2486
▁зеленая	-2487
▁красный	-2488
▁кузбасс	-2489
▁люберцы	-2490
▁признал	-2491
▁сводном	-2492
▁чувашии	-2493
бованенко	-2494
вердловск	-2495
сибирское	-2496
угуруслан	-2497
челябинск	-2498
▁волжский	-2499
▁городчер	-2500
▁макарова	-2501
▁тульская	-2502
балкарская	-2503
молодежная	-2504
реализация	-2505
▁временным	-2506
▁кропоткин	-2507
▁татарская	-2508
▁алексеенко	-2509
▁алишеровна	-2510
▁андреевича	-2511
▁ассоциация	-2512
▁витальевна	-2513
▁владислава	-2514
▁вокзальная	-2515
▁георгиевна	-2516
▁кисловодск	-2517
▁леонидович	-2518
▁азербайджан	-2519
▁анатольевны	-2520
▁баксанского	-2521
▁брюховецкая	-2522
▁долгополова	-2523
▁камчатского	-2524
▁новоалтайск	-2525
▁октябрьский	-2526
▁городбарнаул	-2527
▁коммерческим	-2528
▁новочеркасск	-2529
▁городярославль	-2530
▁константиновна	-2531
▁республикакрым	-2532
▁улицасоветская	-2533
вл	-2534
др	-2535
жа	-2536
иш	-2537
мж	-2538
оу	-2539
пе	-2540
рм	-2541
тю	-2542
ум	-2543
це	-2544
ых	-2545
ёл	-2546
▁:	-2547
ады	-2548
алл	-2549
бад	-2550
бат	-2551
гат	-2552
гир	-2553
гуш	-2554
доб	-2555
ерг	-2556
зов	-2557
ила	-2558
ицк	-2559
кат	-2560
кит	-2561
луб	-2562
мер	-2563
нар	-2564
нип	-2565
нур	-2566
пад	-2567
плы	-2568
пом	-2569
рам	-2570
сен	-2571
стр	-2572
тар	-2573
тка	-2574
тур	-2575
тых	-2576
уро	-2577
хин	-2578
чет	-2579
чно	-2580
ьот	-2581
яна	-2582
▁).	-2583
▁ам	-2584
▁ап	-2585
▁би	-2586
▁ги	-2587
▁дм	-2588
▁ел	-2589
▁ем	-2590
▁жу	-2591
▁ио	-2592
▁мы	-2593
▁сз	-2594
▁сы	-2595
▁хи	-2596
▁хо	-2597
▁ца	-2598
амар	-2599
анна	-2600
боль	-2601
гари	-2602
гово	-2603
еева	-2604
елик	-2605
зова	-2606
инка	-2607
коро	-2608
кута	-2609
моно	-2610
монт	-2611
нара	-2612
нино	-2613
озер	-2614
омна	-2615
онда	-2616
онов	-2617
пуст	-2618
стов	-2619
укре	-2620
улок	-2621
хмао	-2622
чков	-2623
чное	-2624
шино	-2625
шкир	-2626
▁боб	-2627
▁бой	-2628
▁габ	-2629
▁гла	-2630
▁дан	-2631
▁зем	-2632
▁зин	-2633
▁каб	-2634
▁кай	-2635
▁кан	-2636
▁коз	-2637
▁коп	-2638
▁мат	-2639
▁мил	-2640
▁пан	-2641
▁пря	-2642
▁пск	-2643
▁пут	-2644
▁хут	-2645
▁чим	-2646
алиля	-2647
арова	-2648
ество	-2649
киной	-2650
ковна	-2651
левая	-2652
ления	-2653
лехов	-2654
машев	-2655
остро	-2656
паева	-2657
ранее	-2658
ратов	-2659
ринск	-2660
совна	-2661
товый	-2662
упова	-2663
фанас	-2664
ховка	-2665
▁авто	-2666
▁аскк	-2667
▁высо	-2668
▁дата	-2669
▁ильи	-2670
▁квар	-2671
▁коно	-2672
▁мало	-2673
▁мант	-2674
▁мура	-2675
▁нина	-2676
▁песч	-2677
▁поле	-2678
▁поли	-2679
▁почт	-2680
▁прав	-2681
▁прот	-2682
▁рами	-2683
▁руза	-2684
▁саид	-2685
▁семи	-2686
▁сочи	-2687
▁сред	-2688
▁стре	-2689
▁тихо	-2690
▁юрга	-2691
айской	-2692
аллург	-2693
вестен	-2694
гестан	-2695
городб	-2696
динова	-2697
екатер	-2698
зарова	-2699
лолаев	-2700
никово	-2701
примор	-2702
улицам	-2703
ческая	-2704
ьянова	-2705
▁бийск	-2706
▁букре	-2707
▁елены	-2708
▁зарег	-2709
▁истра	-2710
▁казач	-2711
▁караг	-2712
▁комму	-2713
▁марат	-2714
▁матро	-2715
▁муром	-2716
▁муслю	-2717
▁олеся	-2718
▁петуш	-2719
▁погар	-2720
▁попов	-2721
▁публи	-2722
▁солов	-2723
▁чаплы	-2724
▁чехов	-2725
▁южный	-2726
ассоциа	-2727
бековна	-2728
бования	-2729
винский	-2730
гинский	-2731
ережная	-2732
ический	-2733
кемеров	-2734
ловское	-2735
ненский	-2736
ринский	-2737
совский	-2738
убликов	-2739
уральск	-2740
ховский	-2741
чевский	-2742
▁банком	-2743
▁башкир	-2744
▁братск	-2745
▁гоголя	-2746
▁городб	-2747
▁кирилл	-2748
▁кирова	-2749
▁кресть	-2750
▁липецк	-2751
▁ломоно	-2752
▁мадина	-2753
▁мирный	-2754
▁мичури	-2755
▁партиз	-2756
▁пионер	-2757
▁россии	-2758
▁сальск	-2759
▁сатина	-2760
▁светло	-2761
▁северо	-2762
▁тимофе	-2763
▁улицат	-2764
ановский	-2765
арбитраж	-2766
астрахан	-2767
дагестан	-2768
линского	-2769
метьевск	-2770
▁верхний	-2771
▁егорова	-2772
▁иванова	-2773
▁иваново	-2774
▁маргари	-2775
▁полевая	-2776
▁прожива	-2777
▁протест	-2778
▁профсою	-2779
▁публика	-2780
▁рамазан	-2781
▁реестре	-2782
▁решения	-2783
▁садовая	-2784
▁салават	-2785
▁тимашев	-2786
▁филиппи	-2787
▁чимкент	-2788
▁шелехов	-2789
ановского	-2790
волгоград	-2791
заводская	-2792
иркутская	-2793
кузнецкий	-2794
областьот	-2795
▁анатолий	-2796
▁белгород	-2797
▁геннадий	-2798
▁городнаб	-2799
▁григорий	-2800
▁данилова	-2801
▁ковалева	-2802
▁кристины	-2803
▁кузнецов	-2804
▁подольск	-2805
▁почтовый	-2806
▁рубцовск	-2807
▁юрьевича	-2808
ассоциация	-2809
▁алексеева	-2810
▁андреевны	-2811
▁временный	-2812
▁калужская	-2813
▁кузнецова	-2814
▁марийской	-2815
▁матросова	-2816
▁месторека	-2817
▁нижегород	-2818
▁пятигорск	-2819
▁степанова	-2820
▁страницыа	-2821
▁уральская	-2822
▁чебоксары	-2823
▁юбилейная	-2824
▁ярославль	-2825
владикавказ	-2826
октябрьская	-2827
улицаленина	-2828
▁васильевны	-2829
▁камчатский	-2830
▁михайловны	-2831
▁набережная	-2832
▁пензенская	-2833
▁проведении	-2834
▁публикации	-2835
▁спортивная	-2836
▁украинская	-2837
▁управление	-2838
екатеринбург	-2839
красноярский	-2840
свердловская	-2841
▁александров	-2842
▁григорьевна	-2843
▁действующий	-2844
▁костромской	-2845
▁анатольевича	-2846
▁валентинович	-2847
▁валентиновна	-2848
▁городворонеж	-2849
▁дзержинского	-2850
▁красногварде	-2851
▁первомайская	-2852
▁первомайский	-2853
▁нижневартовск	-2854
▁городволгоград	-2855
▁городнабережные	-2856
▁железнодорожный	-2857
▁красноармейская	-2858
▁улицамолодежная	-2859
du	-2860
oo	-2861
еж	-2862
ек	-2863
мр	-2864
оч	-2865
рх	-2866
ря	-2867
фр	-2868
хи	-2869
шь	-2870
ыв	-2871
ые	-2872
юр	-2873
яя	-2874
.),	-2875
.,<	-2876
>(<	-2877
>)<	-2878
аев	-2879
алы	-2880
аму	-2881
ати	-2882
вен	-2883
вис	-2884
воз	-2885
вор	-2886
гаш	-2887
гем	-2888
гил	-2889
гит	-2890
гри	-2891
гун	-2892
дес	-2893
ерт	-2894
жды	-2895
зак	-2896
каб	-2897
кал	-2898
кор	-2899
кос	-2900
кре	-2901
кро	-2902
куб	-2903
лар	-2904
лим	-2905
мкр	-2906
нав	-2907
нию	-2908
ноп	-2909
ооб	-2910
орг	-2911
рит	-2912
рог	-2913
сах	-2914
сер	-2915
сип	-2916
сог	-2917
сто	-2918
тау	-2919
тия	-2920
тое	-2921
тре	-2922
тыр	-2923
узи	-2924
упп	-2925
фип	-2926
хоз	-2927
хру	-2928
цов	-2929
цуз	-2930
чак	-2931
чин	-2932
шие	-2933
шко	-2934
ызы	-2935
юль	-2936
▁,<	-2937
▁аз	-2938
▁вн	-2939
▁ет	-2940
▁иш	-2941
▁мц	-2942
▁нп	-2943
▁пл	-2944
▁рм	-2945
▁рх	-2946
▁св	-2947
▁ук	-2948
▁ху	-2949
▁ще	-2950
▁эк	-2951
бала	-2952
бина	-2953
гале	-2954
гора	-2955
дное	-2956
жной	-2957
иван	-2958
кала	-2959
каме	-2960
кара	-2961
кину	-2962
ктыв	-2963
кург	-2964
лово	-2965
мель	-2966
мени	-2967
мсро	-2968
наци	-2969
орен	-2970
осин	-2971
поро	-2972
прав	-2973
ских	-2974
сков	-2975
степ	-2976
тищи	-2977
удин	-2978
укра	-2979
улым	-2980
унзе	-2981
цево	-2982
цкой	-2983
чино	-2984
шала	-2985
шахт	-2986
шими	-2987
шков	-2988
шова	-2989
ысел	-2990
ышма	-2991
юган	-2992
▁ага	-2993
▁акс	-2994
▁ала	-2995
▁ари	-2996
▁баз	-2997
▁бет	-2998
▁бул	-2999
▁ван	-3000
▁вен	-3001
▁вла	-3002
▁гал	-3003
▁гре	-3004
▁гур	-3005
▁деп	-3006
▁джи	-3007
▁дон	-3008
▁душ	-3009
▁жел	-3010
▁зак	-3011
▁ива	-3012
▁иса	-3013
▁иск	-3014
▁ким	-3015
▁куд	-3016
▁куж	-3017
▁куш	-3018
▁лук	-3019
▁мет	-3020
▁наи	-3021
▁нсо	-3022
▁пле	-3023
▁рес	-3024
▁рос	-3025
▁руз	-3026
▁рыб	-3027
▁сал	-3028
▁саф	-3029
▁сая	-3030
▁сви	-3031
▁сот	-3032
▁сух	-3033
▁тим	-3034
▁тих	-3035
▁тка	-3036
▁тля	-3037
▁тро	-3038
▁ума	-3039
▁фил	-3040
▁чай	-3041
▁шад	-3042
акова	-3043
амуре	-3044
арово	-3045
веева	-3046
винск	-3047
вобод	-3048
довна	-3049
еевка	-3050
енняя	-3051
ергет	-3052
ерсон	-3053
заева	-3054
зареч	-3055
илова	-3056
йкино	-3057
кесск	-3058
ковой	-3059
лебск	-3060
левна	-3061
лимпи	-3062
ловой	-3063
мовна	-3064
нижне	-3065
нская	-3066
няхов	-3067
онден	-3068
оруче	-3069
поляр	-3070
резол	-3071
рянка	-3072
сович	-3073
стого	-3074
упино	-3075
усова	-3076
фович	-3077
ходка	-3078
цевой	-3079
чного	-3080
шанск	-3081
шахты	-3082
ьевой	-3083
ьянов	-3084
язино	-3085
▁алла	-3086
▁алма	-3087
▁анис	-3088
▁анны	-3089
▁арно	-3090
▁боло	-3091
▁була	-3092
▁века	-3093
▁воло	-3094
▁даль	-3095
▁ерев	-3096
▁каре	-3097
▁кари	-3098
▁клуб	-3099
▁коло	-3100
▁круг	-3101
▁кызы	-3102
▁лазо	-3103
▁лебе	-3104
▁лото	-3105
▁мала	-3106
▁наро	-3107
▁нарт	-3108
▁неиз	-3109
▁орел	-3110
▁парф	-3111
▁поме	-3112
▁пост	-3113
▁приз	-3114
▁рина	-3115
▁семе	-3116
▁симо	-3117
▁спас	-3118
▁ссср	-3119
▁тере	-3120
▁фран	-3121
▁хайр	-3122
▁хоро	-3123
▁шара	-3124
▁широ	-3125
▁шуль	-3126
адыгея	-3127
алинск	-3128
ганрог	-3129
горная	-3130
данова	-3131
ельная	-3132
ийская	-3133
имовна	-3134
латово	-3135
льцова	-3136
мирала	-3137
митров	-3138
мсроау	-3139
мурман	-3140
нижний	-3141
органи	-3142
призна	-3143
рилова	-3144
ристов	-3145
ровича	-3146
ростов	-3147
статья	-3148
улицат	-3149
унский	-3150
уровна	-3151
учково	-3152
ушкино	-3153
центра	-3154
шников	-3155
янский	-3156
▁алёна	-3157
▁арина	-3158
▁баган	-3159
▁баран	-3160
▁бойко	-3161
▁болот	-3162
▁бонда	-3163
▁высел	-3164
▁демон	-3165
▁диана	-3166
▁досто	-3167
▁камыш	-3168
▁карла	-3169
▁касли	-3170
▁колес	-3171
▁лидия	-3172
▁литер	-3173
▁льгов	-3174
▁манту	-3175
▁миасс	-3176
▁округ	-3177
▁ольги	-3178
▁отсут	-3179
▁перев	-3180
▁приво	-3181
▁ракит	-3182
▁ребри	-3183
▁семен	-3184
▁совет	-3185
▁софья	-3186
▁тасср	-3187
▁федор	-3188
▁форме	-3189
▁хасав	-3190
▁хутор	-3191
▁части	-3192
▁чегем	-3193
▁эльви	-3194
динский	-3195
ийского	-3196
иркутск	-3197
комсомо	-3198
конкурс	-3199
ктывкар	-3200
льского	-3201
менская	-3202
никовой	-3203
нинский	-3204
ровской	-3205
электро	-3206
▁адресу	-3207
▁айгуль	-3208
▁афанас	-3209
▁баксан	-3210
▁героев	-3211
▁городу	-3212
▁городч	-3213
▁давлек	-3214
▁калуга	-3215
▁камень	-3216
▁карача	-3217
▁кирово	-3218
▁ксении	-3219
▁кунаша	-3220
▁маркса	-3221
▁марьян	-3222
▁нижняя	-3223
▁огрнип	-3224
▁олимпи	-3225
▁ошская	-3226
▁поруче	-3227
▁работу	-3228
▁разина	-3229
▁резолю	-3230
▁романа	-3231
▁слобод	-3232
▁статья	-3233
▁улицас	-3234
▁усолье	-3235
▁херсон	-3236
▁черкас	-3237
белгород	-3238
гагарина	-3239
городспб	-3240
кемерово	-3241
копьевск	-3242
кульский	-3243
минского	-3244
ненецкий	-3245
онденции	-3246
оренбург	-3247
ринского	-3248
рождение	-3249
соглебск	-3250
ственная	-3251
уроженец	-3252
чинского	-3253
шахтинск	-3254
▁альберт	-3255
▁валерий	-3256
▁воркута	-3257
▁горький	-3258
▁душанбе	-3259
▁казачья	-3260
▁каменка	-3261
▁коломна	-3262
▁корресп	-3263
▁ленинск	-3264
▁максима	-3265
▁маркова	-3266
▁михаила	-3267
▁молдова	-3268
▁надежды	-3269
▁нальчик	-3270
▁находка	-3271
▁орехово	-3272
▁сергиев	-3273
▁ступино	-3274
▁томский	-3275
▁туркмен	-3276
▁француз	-3277
▁энгельс	-3278
алинского	-3279
кабристов	-3280
сахалинск	-3281
▁андреева	-3282
▁аукциона	-3283
▁борисова	-3284
▁бородина	-3285
▁виктории	-3286
▁восточно	-3287
▁закрытое	-3288
▁ивановны	-3289
▁игоревны	-3290
▁караганд	-3291
▁королева	-3292
▁лебедева	-3293
▁матвеева	-3294
▁моршанск	-3295
▁мценский	-3296
▁переулок	-3297
▁процедур	-3298
▁севастоп	-3299
▁северная	-3300
▁смоленск	-3301
▁соколова	-3302
▁таганрог	-3303
▁чаплыгин	-3304
▁черкесск	-3305
признается	-3306
приморский	-3307
ростовская	-3308
убликовано	-3309
▁березники	-3310
▁борисовны	-3311
▁вадимовна	-3312
▁екатерины	-3313
▁казахская	-3314
▁колхозная	-3315
▁коммунист	-3316
▁краснотур	-3317
▁луганская	-3318
▁нефтеюган	-3319
▁помещение	-3320
▁проживает	-3321
▁сыктывкар	-3322
▁тюменский	-3323
▁читинская	-3324
каменогорск	-3325
центральная	-3326
▁автономный	-3327
▁башкирская	-3328
▁бондаренко	-3329
▁бугуруслан	-3330
▁викторовны	-3331
▁владимиров	-3332
▁георгиевич	-3333
▁городпермь	-3334
▁григорьева	-3335
▁зеленоград	-3336
▁камчатская	-3337
▁ломоносова	-3338
▁мельникова	-3339
▁московский	-3340
▁наблюдение	-3341
▁неизвестен	-3342
▁пионерская	-3343
▁свердловск	-3344
▁смоленская	-3345
▁эдуардович	-3346
арбитражного	-3347
астраханская	-3348
городиркутск	-3349
улицакомсомо	-3350
▁возрождение	-3351
▁комсомольск	-3352
▁магаданской	-3353
▁маяковского	-3354
▁приволжский	-3355
▁ульяновская	-3356
▁харьковская	-3357
▁ярославская	-3358
казахстанская	-3359
ленинградская	-3360
▁борисоглебск	-3361
▁дагестанской	-3362
▁зеленодольск	-3363
▁крестьянская	-3364
▁производства	-3365
месторекагород	-3366
▁владиславовна	-3367
▁городчернушка	-3368
▁красногорский	-3369
▁станиславовна	-3370
▁городчелябинск	-3371
▁константинович	-3372
▁железнодорожная	-3373
▁корреспонденции	-3374
>(	-3375
зё	-3376
ищ	-3377
ию	-3378
йд	-3379
мз	-3380
мс	-3381
оа	-3382
рд	-3383
тя	-3384
уф	-3385
хл	-3386
чр	-3387
ын	-3388
ыт	-3389
ют	-3390
аза	-3391
амз	-3392
арм	-3393
баш	-3394
бед	-3395
беж	-3396
боч	-3397
бра	-3398
бря	-3399
)-	-3400
биб	-3401
ват	-3402
виз	-3403
вин	-3404
вон	-3405
вух	-3406
газ	-3407
гау	-3408
гер	-3409
гуз	-3410
гул	-3411
дав	-3412
дев	-3413
дзе	-3414
дит	-3415
дом	-3416
дор	-3417
дуб	-3418
дур	-3419
еву	-3420
ерз	-3421
жок	-3422
жск	-3423
жье	-3424
зве	-3425
иты	-3426
ить	-3427
йсы	-3428
кад	-3429
кбр	-3430
кер	-3431
ких	-3432
куж	-3433
лад	-3434
лай	-3435
лак	-3436
лер	-3437
лый	-3438
лян	-3439
лёв	-3440
маг	-3441
май	-3442
мой	-3443
мут	-3444
мух	-3445
мяч	-3446
нок	-3447
нос	-3448
ныт	-3449
оби	-3450
оду	-3451
ора	-3452
орш	-3453
оте	-3454
пас	-3455
пау	-3456
пок	-3457
реш	-3458
риз	-3459
рож	-3460
рон	-3461
ске	-3462
сяд	-3463
тех	-3464
тин	-3465
той	-3466
тол	-3467
тул	-3468
тыш	-3469
уст	-3470
усь	-3471
ующ	-3472
фед	-3473
фоп	-3474
фут	-3475
хаб	-3476
хад	-3477
хаз	-3478
хне	-3479
хон	-3480
чих	-3481
чук	-3482
чёв	-3483
шка	-3484
▁(.	-3485
▁(;	-3486
▁-.	-3487
▁-<	-3488
▁дн	-3489
▁ду	-3490
▁жк	-3491
▁зд	-3492
▁зу	-3493
▁зы	-3494
▁ив	-3495
▁км	-3496
▁ля	-3497
▁ов	-3498
▁сд	-3499
▁ци	-3500
▁юж	-3501
аван	-3502
авир	-3503
аева	-3504
алак	-3505
алит	-3506
анее	-3507
анов	-3508
арая	-3509
арта	-3510
арян	-3511
атив	-3512
атим	-3513
верь	-3514
гань	-3515
гард	-3516
гиза	-3517
гино	-3518
гион	-3519
голь	-3520
деле	-3521
деми	-3522
джан	-3523
динг	-3524
друж	-3525
дуна	-3526
ейск	-3527
елок	-3528
ерли	-3529
есси	-3530
жели	-3531
зван	-3532
илии	-3533
имки	-3534
инки	-3535
ишим	-3536
кмор	-3537
колп	-3538
коно	-3539
крат	-3540
ксем	-3541
кура	-3542
лавы	-3543
лены	-3544
ложе	-3545
лоща	-3546
маск	-3547
миха	-3548
мово	-3549
нево	-3550
нель	-3551
нецк	-3552
ницы	-3553
нных	-3554
оаоф	-3555
овец	-3556
овое	-3557
огуч	-3558
одар	-3559
одос	-3560
олне	-3561
омер	-3562
омка	-3563
онал	-3564
опер	-3565
оров	-3566
офис	-3567
план	-3568
преж	-3569
разц	-3570
рата	-3571
рецк	-3572
риже	-3573
рожд	-3574
сино	-3575
сочи	-3576
сошь	-3577
став	-3578
стве	-3579
тава	-3580
тира	-3581
туль	-3582
улло	-3583
улов	-3584
унду	-3585
утат	-3586
фина	-3587
цена	-3588
член	-3589
шман	-3590
яков	-3591
янов	-3592
яшев	-3593
ёвой	-3594
▁абз	-3595
▁аза	-3596
▁ака	-3597
▁акт	-3598
▁ами	-3599
▁анг	-3600
▁ара	-3601
▁баш	-3602
▁без	-3603
▁бол	-3604
▁век	-3605
▁вич	-3606
▁виш	-3607
▁вод	-3608
▁гав	-3609
▁гас	-3610
▁гат	-3611
▁ген	-3612
▁губ	-3613
▁дес	-3614
▁дро	-3615
▁дру	-3616
▁жит	-3617
▁зар	-3618
▁зве	-3619
▁зор	-3620
▁зуб	-3621
▁исп	-3622
▁кав	-3623
▁киз	-3624
▁кня	-3625
▁коч	-3626
▁куп	-3627
▁кущ	-3628
▁кчр	-3629
▁лат	-3630
▁мам	-3631
▁меж	-3632
▁мех	-3633
▁муп	-3634
▁нур	-3635
▁пли	-3636
▁пок	-3637
▁рах	-3638
▁рев	-3639
▁рмэ	-3640
▁род	-3641
▁сау	-3642
▁син	-3643
▁ско	-3644
▁сод	-3645
▁сыр	-3646
▁таз	-3647
▁тем	-3648
▁топ	-3649
▁три	-3650
▁туй	-3651
▁уне	-3652
▁ури	-3653
▁фир	-3654
▁фом	-3655
▁фро	-3656
▁хан	-3657
▁чир	-3658
▁шам	-3659
▁шар	-3660
▁шев	-3661
▁шен	-3662
▁шер	-3663
▁щёл	-3664
▁эст	-3665
амбул	-3666
аниил	-3667
анным	-3668
асова	-3669
асооб	-3670
бакан	-3671
больш	-3672
бочая	-3673
вания	-3674
визии	-3675
годар	-3676
групп	-3677
джали	-3678
динов	-3679
дович	-3680
евича	-3681
енков	-3682
ераль	-3683
женск	-3684
зуево	-3685
иевна	-3686
имово	-3687
камен	-3688
лазна	-3689
летия	-3690
линой	-3691
лиции	-3692
миков	-3693
миров	-3694
монав	-3695
мская	-3696
невая	-3697
новка	-3698
номор	-3699
ности	-3700
нтузи	-3701
обнов	-3702
ображ	-3703
овали	-3704
онова	-3705
основ	-3706
повой	-3707
покры	-3708
пухов	-3709
равля	-3710
ридов	-3711
риева	-3712
риков	-3713
риман	-3714
самар	-3715
север	-3716
совка	-3717
судар	-3718
таева	-3719
тамак	-3720
тамыш	-3721
товны	-3722
тьева	-3723
уллин	-3724
ульян	-3725
усман	-3726
ухина	-3727
ующие	-3728
чинск	-3729
чкова	-3730
чский	-3731
шенко	-3732
шкино	-3733
ышева	-3734
ьевка	-3735
ьянск	-3736
южный	-3737
юмень	-3738
ютина	-3739
▁аван	-3740
▁авра	-3741
▁агро	-3742
▁акмо	-3743
▁алия	-3744
▁анже	-3745
▁апат	-3746
▁ахту	-3747
▁ашот	-3748
▁ашта	-3749
▁баты	-3750
▁берд	-3751
▁веки	-3752
▁вели	-3753
▁вени	-3754
▁веро	-3755
▁волж	-3756
▁врем	-3757
▁гара	-3758
▁глеб	-3759
▁двух	-3760
▁днеп	-3761
▁друж	-3762
▁дуна	-3763
▁елис	-3764
▁ермо	-3765
▁зала	-3766
▁зале	-3767
▁заяв	-3768
▁звер	-3769
▁здан	-3770
▁ками	-3771
▁кизи	-3772
▁киль	-3773
▁клин	-3774
▁кляв	-3775
▁ковы	-3776
▁конк	-3777
▁крив	-3778
▁кузь	-3779
▁кула	-3780
▁кули	-3781
▁латы	-3782
▁лесо	-3783
▁марк	-3784
▁миль	-3785
▁мона	-3786
▁муни	-3787
▁мусы	-3788
▁нест	-3789
▁нины	-3790
▁одес	-3791
▁отме	-3792
▁петр	-3793
▁погр	-3794
▁поро	-3795
▁прес	-3796
▁прох	-3797
▁пуга	-3798
▁рафа	-3799
▁рафи	-3800
▁розы	-3801
▁селе	-3802
▁сидо	-3803
▁сист	-3804
▁слоб	-3805
▁соли	-3806
▁соро	-3807
▁союз	-3808
▁спец	-3809
▁стан	-3810
▁терс	-3811
▁тофи	-3812
▁усср	-3813
▁фами	-3814
▁фани	-3815
▁чита	-3816
▁шами	-3817
▁шебе	-3818
▁шеве	-3819
▁юрид	-3820
▁юрия	-3821
▁ягод	-3822
▁янао	-3823
▁янги	-3824
ановая	-3825
анокоп	-3826
анское	-3827
арский	-3828
атимат	-3829
биевич	-3830
буденн	-3831
ведева	-3832
венной	-3833
винова	-3834
горный	-3835
демика	-3836
елково	-3837
енская	-3838
ецкого	-3839
жанова	-3840
илович	-3841
ионный	-3842
итовна	-3843
кимова	-3844
кономи	-3845
ламова	-3846
льевич	-3847
мельни	-3848
местож	-3849
мидова	-3850
мирный	-3851
мирова	-3852
москва	-3853
одосия	-3854
олюции	-3855
онович	-3856
рабали	-3857
реализ	-3858
ровичи	-3859
родная	-3860
слобод	-3861
сургут	-3862
сядько	-3863
тивной	-3864
товича	-3865
улицав	-3866
упской	-3867
усинск	-3868
чебокс	-3869
черкес	-3870
чкарев	-3871
шимися	-3872
ымский	-3873
ярский	-3874
▁абдул	-3875
▁алиев	-3876
▁альме	-3877
▁ангар	-3878
▁антик	-3879
▁аркад	-3880
▁аткар	-3881
▁ахмет	-3882
▁бавлы	-3883
▁балах	-3884
▁богат	-3885
▁генер	-3886
▁голов	-3887
▁данил	-3888
▁дарьи	-3889
▁елене	-3890
▁жанна	-3891
▁желез	-3892
▁жигал	-3893
▁забло	-3894
▁запад	-3895
▁зареч	-3896
▁ивана	-3897
▁илшат	-3898
▁имени	-3899
▁ингуш	-3900
▁интер	-3901
▁иртыш	-3902
▁ключи	-3903
▁кохма	-3904
▁лебед	-3905
▁лилии	-3906
▁львов	-3907
▁марии	-3908
▁марты	-3909
▁милле	-3910
▁мирза	-3911
▁моска	-3912
▁номер	-3913
▁объяв	-3914
▁оконе	-3915
▁олене	-3916
▁павла	-3917
▁перес	-3918
▁посад	-3919
▁прямо	-3920
▁ранее	-3921
▁рейсы	-3922
▁решет	-3923
▁рыбно	-3924
▁салда	-3925
▁сапро	-3926
▁сафон	-3927
▁сопау	-3928
▁состо	-3929
▁сулей	-3930
▁суход	-3931
▁тагил	-3932
▁талды	-3933
▁тогуч	-3934
▁транс	-3935
▁черка	-3936
▁чечен	-3937
▁шахты	-3938
▁шебек	-3939
▁шеста	-3940
▁южная	-3941
андалак	-3942
ативная	-3943
баровск	-3944
басская	-3945
брежный	-3946
веровна	-3947
говский	-3948
динович	-3949
ельский	-3950
енского	-3951
ентьева	-3952
женский	-3953
зерский	-3954
касимов	-3955
ловград	-3956
ложения	-3957
лонская	-3958
мухамет	-3959
нинская	-3960
новский	-3961
ренкова	-3962
ронский	-3963
саратов	-3964
страция	-3965
ташкент	-3966
тяников	-3967
украина	-3968
улицаба	-3969
управля	-3970
ховская	-3971
чегорск	-3972
чинская	-3973
чникова	-3974
▁адхмао	-3975
▁анжели	-3976
▁антони	-3977
▁боград	-3978
▁буденн	-3979
▁волков	-3980
▁гварде	-3981
▁городо	-3982
▁даниил	-3983
▁данные	-3984
▁действ	-3985
▁демина	-3986
▁егоров	-3987
▁ереван	-3988
▁ильина	-3989
▁климов	-3990
▁конова	-3991
▁коопер	-3992
▁лариса	-3993
▁лесная	-3994
▁литера	-3995
▁маслен	-3996
▁мегион	-3997
▁медвед	-3998
▁мытищи	-3999
▁направ	-4000
▁норова	-4001
▁образц	-4002
▁олегов	-4003
▁орлова	-4004
▁осетия	-4005
▁ошской	-4006
▁париже	-4007
▁петров	-4008
▁полины	-4009
▁ризван	-4010
▁совхоз	-4011
▁содруж	-4012
▁сотруд	-4013
▁султан	-4014
▁туймаз	-4015
▁улицаз	-4016
▁филимо	-4017
▁фомина	-4018
▁шатура	-4019
▁шестоп	-4020
▁якутск	-4021
▁яранск	-4022
александ	-4023
аллургов	-4024
бинского	-4025
емейкино	-4026
заречный	-4027
кальская	-4028
ксембург	-4029
мансийск	-4030
мовского	-4031
монавтов	-4032
невского	-4033
ническая	-4034
новгород	-4035
ональная	-4036
ональной	-4037
пермский	-4038
покрытых	-4039
товского	-4040
улицапро	-4041
утатская	-4042
ферополь	-4043
чарского	-4044
черняхов	-4045
явшимися	-4046
▁апатиты	-4047
▁бабаева	-4048
▁бабаюрт	-4049
▁богород	-4050
▁большие	-4051
▁большой	-4052
▁василий	-4053
▁вологда	-4054
▁воронов	-4055
▁герцена	-4056
▁городна	-4057
▁городпо	-4058
▁городра	-4059
▁городха	-4060
▁государ	-4061
▁джалиля	-4062
▁дивизии	-4063
▁заводоу	-4064
▁зайцева	-4065
▁заполяр	-4066
▁зверева	-4067
▁ильинич	-4068
▁кармаск	-4069
▁киселев	-4070
▁коммуна	-4071
▁коркино	-4072
▁куженер	-4073
▁луговая	-4074
▁маршала	-4075
▁межреги	-4076
▁нариман	-4077
▁новопок	-4078
▁новотро	-4079
▁ногинск	-4080
▁обоснов	-4081
▁пестово	-4082
▁пестреч	-4083
▁петрова	-4084
▁подосин	-4085
▁полазна	-4086
▁поселок	-4087
▁пушкина	-4088
▁рабочая	-4089
▁саранск	-4090
▁северск	-4091
▁семенов	-4092
▁степная	-4093
▁суворов	-4094
▁тарасов	-4095
▁татарск	-4096
▁тучково	-4097
▁улицапи	-4098
▁фрязино	-4099
▁химиков	-4100
▁холдинг	-4101
▁чкалова	-4102
▁чувашия	-4103
▁экономи	-4104
▁эльвира	-4105
▁энергет	-4106
▁яковлев	-4107
алковский	-4108
ерлитамак	-4109
кировская	-4110
орловская	-4111
реченская	-4112
самарская	-4113
шкинского	-4114
▁авангард	-4115
▁авиасооб	-4116
▁ангелина	-4117
▁антонова	-4118
▁ашотович	-4119
▁благодар	-4120
▁большере	-4121
▁борского	-4122
▁букреева	-4123
▁вероника	-4124
▁весенняя	-4125
▁возобнов	-4126
▁городуфа	-4127
▁горького	-4128
▁димитров	-4129
▁дорожная	-4130
▁забастов	-4131
▁квартира	-4132
▁киргизия	-4133
▁комарова	-4134
▁компания	-4135
▁крымской	-4136
▁куртамыш	-4137
▁лазарева	-4138
▁миронова	-4139
▁назарова	-4140
▁николаев	-4141
▁парфенов	-4142
▁погранич	-4143
▁признаны	-4144
▁признать	-4145
▁професси	-4146
▁семенова	-4147
▁соколово	-4148
▁сорокина	-4149
▁сосновый	-4150
▁спасский	-4151
▁уроженца	-4152
▁харабали	-4153
▁хасавюрт	-4154
▁хасанова	-4155
▁черномор	-4156
▁шадринск	-4157
▁шебекино	-4158
▁школьный	-4159
▁яковлева	-4160
городпермь	-4161
конкурсный	-4162
курганской	-4163
нтузиастов	-4164
ставрополь	-4165
строителей	-4166
черкесской	-4167
▁академика	-4168
▁асланович	-4169
▁васильева	-4170
▁владимира	-4171
▁городсочи	-4172
▁дзержинск	-4173
▁ингушетия	-4174
▁интернаци	-4175
▁казахской	-4176
▁карачаево	-4177
▁кириленко	-4178
▁кировский	-4179
▁маргарита	-4180
▁медведева	-4181
▁михайлова	-4182
▁обществом	-4183
▁орловский	-4184
▁отсутству	-4185
▁поручению	-4186
▁профсоюза	-4187
▁процедуру	-4188
▁псковской	-4189
▁раменский	-4190
▁совхозная	-4191
▁страницып	-4192
▁тимашевск	-4193
▁тимофеева	-4194
▁узбекская	-4195
▁узбекской	-4196
▁федоровой	-4197
▁филиппины	-4198
▁чеченской	-4199
▁читинской	-4200
владивосток	-4201
железнодоро	-4202
организатор	-4203
челябинская	-4204
▁афанасьева	-4205
▁валерьевны	-4206
▁городвлади	-4207
▁городкиров	-4208
▁городтверь	-4209
▁грузинской	-4210
▁евгеньевны	-4211
▁киргизская	-4212
▁кировоград	-4213
▁магомедова	-4214
▁михайловка	-4215
▁михайловск	-4216
▁мордовская	-4217
▁московское	-4218
▁непокрытых	-4219
▁оленегорск	-4220
▁песчанокоп	-4221
▁петровский	-4222
▁прибрежный	-4223
▁публичного	-4224
▁решениемас	-4225
▁руслановна	-4226
▁саяногорск	-4227
▁советского	-4228
▁степанаван	-4229
▁степановна	-4230
▁страницыса	-4231
▁украинской	-4232
▁ульбинский	-4233
▁участников	-4234
▁эдуардовна	-4235
башкортостан	-4236
▁альметьевск	-4237
▁виноградная	-4238
▁геннадьевны	-4239
▁городсамара	-4240
▁городтюмень	-4241
▁депутатская	-4242
▁дзержинский	-4243
▁колесникова	-4244
▁космонавтов	-4245
▁михайловича	-4246
▁олимпийская	-4247
▁островского	-4248
▁предложения	-4249
▁признанного	-4250
▁прокопьевск	-4251
▁содружество	-4252
▁туркменской	-4253
▁улицакирова	-4254
▁центральный	-4255
▁чимкентской	-4256
▁шебекинский	-4257
▁шестопалова	-4258
▁энергетиков	-4259
▁юридический	-4260
улицагагарина	-4261
▁акционерного	-4262
▁городкасимов	-4263
▁дагестанская	-4264
▁димитровград	-4265
▁достоевского	-4266
▁железногорск	-4267
▁куйбышевский	-4268
▁кустанайской	-4269
▁масленникова	-4270
▁новошахтинск	-4271
▁обоснованным	-4272
▁октябрьского	-4273
▁опубликовано	-4274
▁партизанская	-4275
▁пролетарская	-4276
▁пролетарский	-4277
▁промышленная	-4278
▁протестующие	-4279
▁строительное	-4280
▁электросталь	-4281
городленинград	-4282
▁ворошиловград	-4283
▁государственн	-4284
▁комсомольская	-4285
▁кооперативная	-4286
▁красногвардей	-4287
▁ленинградский	-4288
▁новосемейкино	-4289
▁пестречинский	-4290
▁городхабаровск	-4291
▁зеленодольский	-4292
ассоциациямсроау	-4293
▁азербайджанской	-4294
▁регистрационный	-4295
fd	-4296
mo	-4297
гл	-4298
дз	-4299
):	-4300
en	-4301
дю	-4302
еб	-4303
еф	-4304
ех	-4305
жу	-4306
зя	-4307
кк	-4308
лд	-4309
нк	-4310
пк	-4311
пш	-4312
пь	-4313
рп	-4314
фх	-4315
чь	-4316
шт	-4317
шу	-4318
эт	-4319
юб	-4320
юг	-4321
яж	-4322
ях	-4323
ящ	-4324
.:.	-4325
>))	-4326
>.(	-4327
>;.	-4328
авт	-4329
ага	-4330
ади	-4331
апк	-4332
аты	-4333
бег	-4334
бко	-4335
быт	-4336
вай	-4337
вал	-4338
вас	-4339
вах	-4340
вая	-4341
вич	-4342
вои	-4343
гай	-4344
гап	-4345
гда	-4346
гик	-4347
гих	-4348
гна	-4349
гож	-4350
гре	-4351
гро	-4352
дак	-4353
дам	-4354
дей	-4355
дет	-4356
джа	-4357
диз	-4358
дио	-4359
дра	-4360
еда	-4361
еев	-4362
ейт	-4363
еми	-4364
енд	-4365
ене	-4366
ени	-4367
ета	-4368
жем	-4369
жки	-4370
зин	-4371
зуб	-4372
ива	-4373
иле	-4374
ичо	-4375
ият	-4376
йво	-4377
каш	-4378
кже	-4379
кма	-4380
кси	-4381
кти	-4382
ктя	-4383
куй	-4384
кум	-4385
кун	-4386
кус	-4387
кяр	-4388
лас	-4389
леи	-4390
леп	-4391
лех	-4392
леш	-4393
лив	-4394
лип	-4395
лит	-4396
лла	-4397
лли	-4398
льв	-4399
даб	-4400
ида	-4401
иха	-4402
лот	-4403
ляк	-4404
мач	-4405
меш	-4406
мод	-4407
мук	-4408
мыш	-4409
наз	-4410
нер	-4411
нес	-4412
них	-4413
обе	-4414
обо	-4415
обы	-4416
одж	-4417
олж	-4418
оля	-4419
ому	-4420
рес	-4421
рия	-4422
роб	-4423
рук	-4424
сад	-4425
сай	-4426
сед	-4427
сиб	-4428
сян	-4429
таз	-4430
тва	-4431
тев	-4432
тел	-4433
теп	-4434
туд	-4435
уев	-4436
унк	-4437
уня	-4438
уре	-4439
урн	-4440
уры	-4441
ута	-4442
фат	-4443
фия	-4444
хар	-4445
хот	-4446
хта	-4447
ций	-4448
цит	-4449
чье	-4450
шав	-4451
шад	-4452
шан	-4453
шуй	-4454
ызр	-4455
ырг	-4456
ыть	-4457
ьер	-4458
ьта	-4459
янс	-4460
ясо	-4461
▁mo	-4462
▁бю	-4463
▁гм	-4464
▁ды	-4465
▁еж	-4466
▁зе	-4467
▁ию	-4468
▁кб	-4469
▁кн	-4470
▁мг	-4471
▁од	-4472
▁пк	-4473
▁сх	-4474
▁сч	-4475
▁ты	-4476
▁цы	-4477
▁яб	-4478
▁яв	-4479
▁яс	-4480
.:(<	-4481
анаш	-4482
анин	-4483
анки	-4484
анны	-4485
анта	-4486
арак	-4487
арин	-4488
атам	-4489
атов	-4490
атра	-4491
баев	-4492
база	-4493
банк	-4494
беля	-4495
бино	-4496
бины	-4497
бров	-4498
ваев	-4499
вил	-4500
лок	-4501
унд	-4502
хви	-4503
шир	-4504
язи	-4505
▁жа	-4506
▁жд	-4507
анах	-4508
ахта	-4509
вили	-4510
высо	-4511
гиль	-4512
голи	-4513
горе	-4514
дени	-4515
дире	-4516
дный	-4517
ебря	-4518
елов	-4519
еляб	-4520
ентр	-4521
ерба	-4522
ерго	-4523
ереп	-4524
ерод	-4525
жиев	-4526
жини	-4527
заги	-4528
зала	-4529
зина	-4530
зово	-4531
илек	-4532
инга	-4533
итим	-4534
йная	-4535
каев	-4536
карь	-4537
край	-4538
ланд	-4539
лече	-4540
лора	-4541
ляев	-4542
ляет	-4543
ляра	-4544
маат	-4545
маку	-4546
мань	-4547
мзан	-4548
мист	-4549
нада	-4550
ната	-4551
нена	-4552
нико	-4553
ными	-4554
овар	-4555
овод	-4556
олов	-4557
омск	-4558
омут	-4559
оруд	-4560
орус	-4561
орый	-4562
пере	-4563
перс	-4564
пецк	-4565
пина	-4566
порт	-4567
приз	-4568
проц	-4569
рава	-4570
ролю	-4571
рома	-4572
ромы	-4573
роты	-4574
свет	-4575
сине	-4576
сках	-4577
слан	-4578
стар	-4579
стит	-4580
стре	-4581
стун	-4582
сули	-4583
таев	-4584
тере	-4585
тиец	-4586
торг	-4587
торо	-4588
ужба	-4589
укон	-4590
уман	-4591
ухов	-4592
ушко	-4593
феев	-4594
фоми	-4595
фсою	-4596
ханы	-4597
хело	-4598
чика	-4599
люк	-4600
тые	-4601
ушт	-4602
чуг	-4603
арев	-4604
лато	-4605
омыш	-4606
орса	-4607
разд	-4608
саля	-4609
саха	-4610
усть	-4611
ушев	-4612
хоши	-4613
чина	-4614
чита	-4615
шего	-4616
шена	-4617
шиев	-4618
шник	-4619
щено	-4620
ымса	-4621
ьево	-4622
язан	-4623
яная	-4624
▁аве	-4625
▁ани	-4626
▁арб	-4627
▁арх	-4628
▁аул	-4629
▁бан	-4630
▁бая	-4631
▁бри	-4632
▁бро	-4633
▁бры	-4634
▁буд	-4635
▁ваш	-4636
▁вед	-4637
▁вин	-4638
▁вит	-4639
▁вко	-4640
▁вяз	-4641
▁гай	-4642
▁гим	-4643
▁гол	-4644
▁гос	-4645
▁гро	-4646
▁гуд	-4647
▁гул	-4648
▁днр	-4649
▁днт	-4650
▁дур	-4651
▁дья	-4652
▁ени	-4653
▁еро	-4654
▁еси	-4655
▁заи	-4656
▁зия	-4657
▁зна	-4658
▁инз	-4659
▁ише	-4660
▁кач	-4661
▁кош	-4662
▁кст	-4663
▁кус	-4664
▁кут	-4665
▁куч	-4666
▁лан	-4667
▁леш	-4668
▁лид	-4669
▁луж	-4670
▁лыс	-4671
▁мав	-4672
▁маз	-4673
▁мит	-4674
▁мих	-4675
▁мож	-4676
▁моц	-4677
▁наз	-4678
▁нах	-4679
▁нер	-4680
▁общ	-4681
▁ома	-4682
▁оно	-4683
▁орш	-4684
▁отн	-4685
▁оча	-4686
▁пов	-4687
▁рав	-4688
▁рас	-4689
▁раф	-4690
▁реа	-4691
▁сак	-4692
▁сел	-4693
▁сид	-4694
▁суб	-4695
▁сущ	-4696
▁тав	-4697
▁тех	-4698
▁тон	-4699
.(<	-4700
гуй	-4701
ейн	-4702
жак	-4703
▁eu	-4704
зеро	-4705
мары	-4706
пруд	-4707
смир	-4708
▁джа	-4709
▁есе	-4710
▁туг	-4711
▁тул	-4712
▁туп	-4713
▁тыс	-4714
▁уда	-4715
▁уст	-4716
▁хаз	-4717
▁хал	-4718
▁хат	-4719
▁хот	-4720
▁цел	-4721
▁цим	-4722
▁час	-4723
▁чул	-4724
▁шаб	-4725
▁шпа	-4726
▁шур	-4727
▁шут	-4728
▁эми	-4729
▁юли	-4730
▁яри	-4731
авина	-4732
алист	-4733
амбов	-4734
арева	-4735
арная	-4736
асово	-4737
астли	-4738
ахмед	-4739
ахтар	-4740
байка	-4741
байны	-4742
басар	-4743
бинка	-4744
болат	-4745
ватов	-4746
ворон	-4747
гаджи	-4748
гаева	-4749
галым	-4750
генер	-4751
гепас	-4752
гиной	-4753
говар	-4754
говка	-4755
гожня	-4756
горцы	-4757
гулев	-4758
джони	-4759
диной	-4760
ейнов	-4761
елева	-4762
ельск	-4763
ельян	-4764
ендер	-4765
енный	-4766
ерина	-4767
етово	-4768
жение	-4769
женко	-4770
здная	-4771
знева	-4772
илина	-4773
илово	-4774
инова	-4775
инцев	-4776
ителя	-4777
итова	-4778
каева	-4779
канаш	-4780
карев	-4781
карла	-4782
карян	-4783
катав	-4784
кевич	-4785
керчь	-4786
кидзе	-4787
ковка	-4788
ковск	-4789
ковый	-4790
конов	-4791
кской	-4792
кумер	-4793
ламей	-4794
легов	-4795
леева	-4796
ленин	-4797
лешня	-4798
лиева	-4799
амин	-4800
вобо	-4801
дарь	-4802
жаны	-4803
овну	-4804
ринг	-4805
снаб	-4806
стое	-4807
чуев	-4808
▁вну	-4809
▁жкх	-4810
▁тео	-4811
белый	-4812
гинка	-4813
денко	-4814
жники	-4815
ицкая	-4816
ицкий	-4817
лкова	-4818
ляева	-4819
ляков	-4820
маков	-4821
мацев	-4822
михай	-4823
муром	-4824
невка	-4825
ниной	-4826
новое	-4827
ногир	-4828
ногор	-4829
ность	-4830
нское	-4831
нской	-4832
няков	-4833
овичу	-4834
олоса	-4835
омати	-4836
опург	-4837
ормов	-4838
отека	-4839
отова	-4840
отрад	-4841
охина	-4842
очная	-4843
палат	-4844
повна	-4845
разба	-4846
рамов	-4847
ревая	-4848
речен	-4849
ризис	-4850
ринка	-4851
рипов	-4852
ритор	-4853
рыков	-4854
саков	-4855
сарат	-4856
саров	-4857
скова	-4858
скрес	-4859
ссвет	-4860
стань	-4861
ством	-4862
таево	-4863
товна	-4864
угина	-4865
ужева	-4866
ужная	-4867
узова	-4868
унова	-4869
уравл	-4870
урван	-4871
урген	-4872
утина	-4873
ухова	-4874
ушина	-4875
ушкин	-4876
ханты	-4877
хвист	-4878
хлома	-4879
ховая	-4880
хруши	-4881
чаева	-4882
чаков	-4883
чатов	-4884
черем	-4885
чиков	-4886
чуваш	-4887
шевой	-4888
шехаб	-4889
шиной	-4890
шкова	-4891
щения	-4892
ыкина	-4893
ькова	-4894
якова	-4895
ятков	-4896
яшево	-4897
▁авгу	-4898
▁авер	-4899
пез	-4900
афон	-4901
буха	-4902
нгур	-4903
цкое	-4904
ызяк	-4905
бийск	-4906
булак	-4907
булах	-4908
гачев	-4909
питал	-4910
расун	-4911
стреж	-4912
умана	-4913
умкан	-4914
хабад	-4915
▁аауц	-4916
▁алев	-4917
▁алим	-4918
▁алты	-4919
▁алфе	-4920
▁арми	-4921
▁асад	-4922
▁баже	-4923
▁баль	-4924
▁бард	-4925
▁баст	-4926
▁бату	-4927
▁буля	-4928
▁вали	-4929
▁веде	-4930
▁векв	-4931
▁вект	-4932
▁верб	-4933
▁воль	-4934
▁вост	-4935
▁всев	-4936
▁глан	-4937
▁голы	-4938
▁гора	-4939
▁гума	-4940
▁гусь	-4941
▁дали	-4942
▁демо	-4943
▁джам	-4944
▁дина	-4945
▁евла	-4946
▁елец	-4947
▁ефим	-4948
▁ефре	-4949
▁жала	-4950
▁зайн	-4951
▁заур	-4952
▁зима	-4953
▁зина	-4954
▁зуль	-4955
▁ибра	-4956
▁игна	-4957
▁изве	-4958
▁илда	-4959
▁илек	-4960
▁инна	-4961
▁ипат	-4962
▁исма	-4963
▁карт	-4964
▁кона	-4965
▁коче	-4966
▁криу	-4967
▁крут	-4968
▁куба	-4969
▁куса	-4970
▁кырг	-4971
▁леон	-4972
▁лиха	-4973
▁логи	-4974
▁лома	-4975
▁лука	-4976
▁луна	-4977
▁мали	-4978
▁март	-4979
▁мели	-4980
▁мень	-4981
▁мика	-4982
▁мише	-4983
▁моло	-4984
▁мост	-4985
▁нара	-4986
▁наур	-4987
▁неми	-4988
▁неча	-4989
▁один	-4990
▁октя	-4991
▁орёл	-4992
▁осин	-4993
▁осип	-4994
▁оста	-4995
▁песк	-4996
▁пича	-4997
▁план	-4998
▁побе	-4999
хтия	-5000
возне	-5001
ежное	-5002
магит	-5003
пышма	-5004
хруст	-5005
четав	-5006
▁афип	-5007
▁ваню	-5008
▁дмсо	-5009
▁копы	-5010
▁пыть	-5011
▁рави	-5012
▁раши	-5013
▁роди	-5014
▁роза	-5015
▁ряби	-5016
▁сель	-5017
▁слан	-5018
▁слеп	-5019
▁слон	-5020
▁сныт	-5021
▁соци	-5022
▁стат	-5023
▁стри	-5024
▁сухо	-5025
▁сызр	-5026
▁тали	-5027
▁томв	-5028
▁томи	-5029
▁троф	-5030
▁тури	-5031
▁тюлю	-5032
▁уточ	-5033
▁федю	-5034
▁фест	-5035
▁хаби	-5036
▁хлев	-5037
▁холм	-5038
▁цаау	-5039
▁чаны	-5040
▁школ	-5041
▁шуми	-5042
▁эксп	-5043
абакан	-5044
алексе	-5045
альянс	-5046
анович	-5047
ановка	-5048
арская	-5049
белово	-5050
бербаш	-5051
бицкая	-5052
бышева	-5053
верхне	-5054
ветств	-5055
видное	-5056
гасово	-5057
городо	-5058
городп	-5059
городщ	-5060
датуна	-5061
донецк	-5062
дужный	-5063
дышева	-5064
ейская	-5065
елевич	-5066
еленая	-5067
енделе	-5068
енного	-5069
енское	-5070
ерации	-5071
еренко	-5072
ерское	-5073
ерства	-5074
жского	-5075
залари	-5076
ийских	-5077
иловна	-5078
имович	-5079
инское	-5080
ирович	-5081
исовой	-5082
калини	-5083
колпна	-5084
кулово	-5085
кунова	-5086
латова	-5087
лесная	-5088
лковой	-5089
лькова	-5090
льного	-5091
льское	-5092
льской	-5093
маново	-5094
мелева	-5095
метова	-5096
мишева	-5097
монова	-5098
монтаж	-5099
звени	-5100
ктора	-5101
кужин	-5102
стоящ	-5103
▁векн	-5104
▁году	-5105
▁латв	-5106
▁омут	-5107
▁опыт	-5108
▁чамз	-5109
ларусь	-5110
лощади	-5111
мортка	-5112
нецкий	-5113
нецкой	-5114
ницыно	-5115
олотух	-5116
ольная	-5117
ортава	-5118
паевск	-5119
проект	-5120
пропет	-5121
пустин	-5122
ратова	-5123
ремонт	-5124
решени	-5125
рикова	-5126
родино	-5127
рожден	-5128
ронова	-5129
россия	-5130
сервис	-5131
срогау	-5132
сутств	-5133
торжок	-5134
тулома	-5135
уковой	-5136
укский	-5137
улицаз	-5138
улицан	-5139
улицап	-5140
ундуки	-5141
усолье	-5142
фарова	-5143
фрунзе	-5144
ченков	-5145
ческий	-5146
ческое	-5147
чугова	-5148
шевого	-5149
шенков	-5150
шилова	-5151
ызстан	-5152
ышский	-5153
янской	-5154
ятской	-5155
▁абхаз	-5156
▁агент	-5157
▁адлан	-5158
▁аксай	-5159
▁алдар	-5160
▁алёны	-5161
▁амира	-5162
▁андри	-5163
▁антра	-5164
▁аргун	-5165
▁арсен	-5166
▁ахвах	-5167
▁ахмед	-5168
▁байма	-5169
▁бакал	-5170
▁басср	-5171
▁белог	-5172
▁белый	-5173
▁бочка	-5174
▁булат	-5175
▁буран	-5176
▁ваган	-5177
▁васин	-5178
▁велик	-5179
▁венге	-5180
▁воору	-5181
▁выпол	-5182
▁гасан	-5183
▁герас	-5184
▁героя	-5185
▁горка	-5186
▁горно	-5187
▁джеты	-5188
▁джили	-5189
▁дмани	-5190
▁дубна	-5191
▁завер	-5192
▁задер	-5193
▁заклю	-5194
▁засед	-5195
▁земет	-5196
▁земля	-5197
▁игнат	-5198
▁игоря	-5199
ыпь	-5200
▁кфх	-5201
букаш	-5202
ением	-5203
ишлеи	-5204
модем	-5205
пшичо	-5206
шуйка	-5207
▁княз	-5208
▁тунк	-5209
▁цене	-5210
питкяр	-5211
пуголи	-5212
▁акций	-5213
▁алтуд	-5214
▁гагик	-5215
▁дария	-5216
▁датам	-5217
▁ильяс	-5218
▁кайби	-5219
▁капит	-5220
▁карен	-5221
▁кизел	-5222
▁ковер	-5223
▁кораб	-5224
▁корне	-5225
▁корот	-5226
▁котов	-5227
▁кошки	-5228
▁куйбы	-5229
▁кутлу	-5230
▁левон	-5231
▁лидер	-5232
▁лопат	-5233
▁лотош	-5234
▁малая	-5235
▁малка	-5236
▁мансу	-5237
▁марта	-5238
▁машин	-5239
▁медве	-5240
▁мелик	-5241
▁месту	-5242
▁микро	-5243
▁минск	-5244
▁мокро	-5245
▁мороз	-5246
▁мотор	-5247
▁муста	-5248
▁надым	-5249
▁наиль	-5250
▁налоб	-5251
▁никит	-5252
▁новод	-5253
▁новое	-5254
▁около	-5255
▁окруж	-5256
▁олега	-5257
▁палех	-5258
▁перел	-5259
▁петух	-5260
▁плани	-5261
▁пласт	-5262
▁поном	-5263
▁пребы	-5264
▁прямы	-5265
▁пугач	-5266
▁пышма	-5267
▁радик	-5268
▁рамен	-5269
▁рекач	-5270
▁рекаш	-5271
▁рекаю	-5272
▁решил	-5273
▁ромаш	-5274
▁савин	-5275
▁садов	-5276
▁сайте	-5277
▁славы	-5278
▁софьи	-5279
▁сузак	-5280
▁также	-5281
▁тамер	-5282
▁таран	-5283
▁тахта	-5284
▁торга	-5285
▁тофиг	-5286
▁трейд	-5287
▁унеча	-5288
▁урван	-5289
▁урмар	-5290
▁фабри	-5291
▁фирма	-5292
▁химки	-5293
▁центр	-5294
▁чекма	-5295
▁череп	-5296
▁черла	-5297
▁черны	-5298
▁члены	-5299
инжини	-5300
исинга	-5301
▁злато	-5302
▁озеро	-5303
▁тонша	-5304
▁челяб	-5305
▁шарья	-5306
▁шутов	-5307
▁щепет	-5308
▁южное	-5309
▁юрина	-5310
▁яблон	-5311
▁янтар	-5312
антский	-5313
армавир	-5314
армения	-5315
атищева	-5316
афонтов	-5317
ахтарск	-5318
бинская	-5319
галеево	-5320
гаревая	-5321
гирский	-5322
гулевск	-5323
гульдет	-5324
датамес	-5325
джалиль	-5326
джанова	-5327
диновна	-5328
диновой	-5329
дубрава	-5330
дынский	-5331
елорецк	-5332
ельмана	-5333
ережный	-5334
ерзиной	-5335
ерпухов	-5336
заринск	-5337
ической	-5338
канская	-5339
королев	-5340
красная	-5341
красный	-5342
кращено	-5343
лабинск	-5344
левский	-5345
левской	-5346
ленский	-5347
линской	-5348
льдовна	-5349
люберцы	-5350
мацевты	-5351
микович	-5352
минская	-5353
мирская	-5354
мовский	-5355
невская	-5356
невский	-5357
ненская	-5358
ненское	-5359
нищенко	-5360
новоруд	-5361
нянский	-5362
обыково	-5363
озерный	-5364
олнения	-5365
ольская	-5366
омышаст	-5367
оршанка	-5368
петрова	-5369
порожье	-5370
прежние	-5371
пустить	-5372
роновна	-5373
рудянка	-5374
сеновка	-5375
степная	-5376
странты	-5377
улицана	-5378
урманов	-5379
утдинов	-5380
уфриева	-5381
фатович	-5382
фоминск	-5383
хинский	-5384
хошижем	-5385
цевский	-5386
чевская	-5387
ченкова	-5388
черская	-5389
чихиной	-5390
шевский	-5391
шниково	-5392
ьевский	-5393
ьянская	-5394
▁абдуна	-5395
▁абзели	-5396
▁абсаля	-5397
▁азамат	-5398
▁алатыр	-5399
▁аммаат	-5400
▁анжеро	-5401
▁антона	-5402
▁арслан	-5403
▁артема	-5404
▁артура	-5405
▁атяшев	-5406
▁белова	-5407
▁белово	-5408
▁болгар	-5409
▁бычков	-5410
▁вардан	-5411
▁видное	-5412
▁вичуга	-5413
▁вольск	-5414
▁габбас	-5415
▁габдул	-5416
▁галины	-5417
▁гардаб	-5418
▁гомель	-5419
▁гремяч	-5420
▁гуково	-5421
▁гурген	-5422
▁гусева	-5423
▁дачная	-5424
▁дельта	-5425
▁деревн	-5426
▁дружбы	-5427
▁егорлы	-5428
▁ежовка	-5429
▁жукова	-5430
▁журавл	-5431
▁завода	-5432
▁залина	-5433
▁здания	-5434
▁зыкова	-5435
▁ильгиз	-5436
▁инхело	-5437
▁исаева	-5438
▁кариан	-5439
▁карьер	-5440
▁кинель	-5441
▁княжев	-5442
▁ковылк	-5443
▁конфед	-5444
▁костек	-5445
▁котова	-5446
▁кукмор	-5447
▁кунгур	-5448
▁ларисы	-5449
▁летняя	-5450
▁лосино	-5451
▁лусине	-5452
▁любови	-5453
▁марины	-5454
▁марков	-5455
▁масках	-5456
▁махард	-5457
▁мелент	-5458
▁местов	-5459
▁минист	-5460
▁молдав	-5461
▁мухина	-5462
▁нартан	-5463
▁некрас	-5464
▁никити	-5465
▁никифо	-5466
▁новожи	-5467
▁новоки	-5468
▁ногина	-5469
▁обсков	-5470
▁обязан	-5471
▁озерск	-5472
▁повтор	-5473
▁погоре	-5474
▁полоса	-5475
▁поляна	-5476
▁посред	-5477
▁провод	-5478
▁прожив	-5479
▁прямое	-5480
▁пунктв	-5481
▁пунктс	-5482
▁рамзан	-5483
▁ремонт	-5484
▁реутов	-5485
▁роберт	-5486
▁рудоль	-5487
▁сайрам	-5488
▁самвел	-5489
▁сасово	-5490
▁сатурн	-5491
▁свобод	-5492
▁сервис	-5493
▁сернур	-5494
▁сибирь	-5495
▁систем	-5496
▁скором	-5497
▁славск	-5498
▁соасср	-5499
▁солнеч	-5500
▁ставка	-5501
▁старая	-5502
▁суббот	-5503
▁суслов	-5504
▁тамара	-5505
▁тамары	-5506
▁театра	-5507
▁теофип	-5508
▁ткачёв	-5509
▁тлярат	-5510
▁трапез	-5511
▁уваров	-5512
▁уйский	-5513
▁улицаб	-5514
▁улицак	-5515
▁улицам	-5516
▁улицао	-5517
▁улицах	-5518
▁улицаэ	-5519
▁ульяна	-5520
▁управл	-5521
▁уразба	-5522
▁урмары	-5523
▁фархад	-5524
▁филипп	-5525
▁формой	-5526
▁фрунзе	-5527
▁целинн	-5528
▁частью	-5529
▁чиасср	-5530
▁чистоп	-5531
▁шахтер	-5532
▁эльдар	-5533
▁эстейт	-5534
▁юности	-5535
агачский	-5536
адмирала	-5537
алинский	-5538
алитович	-5539
амбасова	-5540
аминович	-5541
астливая	-5542
атинской	-5543
балашиха	-5544
волжский	-5545
галеевна	-5546
городбла	-5547
градская	-5548
динского	-5549
добрянка	-5550
еральные	-5551
ительная	-5552
кировали	-5553
королева	-5554
крупской	-5555
куйбышев	-5556
кумертау	-5557
московск	-5558
мурзаева	-5559
мурманск	-5560
невьянск	-5561
нежского	-5562
ненского	-5563
ничество	-5564
нянского	-5565
оджалиля	-5566
ональный	-5567
ональных	-5568
орочинск	-5569
ортавала	-5570
персонал	-5571
петровка	-5572
петропав	-5573
пунктлян	-5574
решением	-5575
решетово	-5576
ролюбова	-5577
северная	-5578
смирнова	-5579
страциях	-5580
судженск	-5581
толстого	-5582
тульский	-5583
уконский	-5584
утовская	-5585
феодосия	-5586
филатово	-5587
хинского	-5588
ховского	-5589
ченского	-5590
шевского	-5591
шкинский	-5592
школьная	-5593
ымсакова	-5594
ятинская	-5595
▁аауцфоп	-5596
▁абрамов	-5597
▁алиевич	-5598
▁алтайск	-5599
▁альбины	-5600
▁аникина	-5601
▁аткарск	-5602
▁афипсип	-5603
▁аштарак	-5604
▁балахна	-5605
▁балтиец	-5606
▁березка	-5607
▁бернара	-5608
▁большое	-5609
▁борский	-5610
▁борское	-5611
▁бурмист	-5612
▁вахруши	-5613
▁великий	-5614
▁верхнек	-5615
▁виктора	-5616
▁волкова	-5617
▁воскрес	-5618
▁выселки	-5619
▁высокая	-5620
▁высокое	-5621
▁гендире	-5622
▁городищ	-5623
▁городов	-5624
▁городок	-5625
▁горшков	-5626
▁груздев	-5627
▁гсургут	-5628
▁гульшат	-5629
▁дарасун	-5630
▁денисов	-5631
▁джамбул	-5632
▁дмитрию	-5633
▁дмитров	-5634
▁дорожно	-5635
▁дружный	-5636
▁дубовка	-5637
▁емельян	-5638
▁ермаков	-5639
▁есенина	-5640
▁ивашкин	-5641
▁изображ	-5642
▁изотова	-5643
▁ильгиза	-5644
▁ильмень	-5645
▁искитим	-5646
▁исламей	-5647
▁ишеевка	-5648
▁казарян	-5649
▁калитва	-5650
▁карпова	-5651
▁касимов	-5652
▁клубный	-5653
▁когалым	-5654
▁кондрат	-5655
▁копаева	-5656
▁копейск	-5657
▁королёв	-5658
▁костина	-5659
▁котовск	-5660
▁который	-5661
▁красной	-5662
▁кунашак	-5663
▁куранах	-5664
▁лазарев	-5665
▁латыпов	-5666
▁лебедев	-5667
▁ленингр	-5668
▁луганск	-5669
▁лысенко	-5670
▁львович	-5671
▁мадинат	-5672
▁макаров	-5673
▁максиму	-5674
▁мамедов	-5675
▁марселе	-5676
▁мельник	-5677
▁морская	-5678
▁мухамед	-5679
▁надтере	-5680
▁настоящ	-5681
▁новиков	-5682
▁озерный	-5683
▁октябре	-5684
▁омарова	-5685
▁панклуб	-5686
▁патимат	-5687
▁петушки	-5688
▁площади	-5689
▁победит	-5690
▁политех	-5691
▁полиции	-5692
▁поляков	-5693
▁похвист	-5694
▁починки	-5695
▁пронина	-5696
▁прохлад	-5697
▁рассвет	-5698
▁ребриха	-5699
▁романов	-5700
▁россошь	-5701
▁руденко	-5702
▁руслана	-5703
▁русский	-5704
▁садовое	-5705
▁светлый	-5706
▁северод	-5707
▁сергеев	-5708
▁серебря	-5709
▁слобода	-5710
▁слончак	-5711
▁средних	-5712
▁суходол	-5713
▁сызрань	-5714
▁сырдарь	-5715
▁табасар	-5716
▁тарханы	-5717
▁татарин	-5718
▁тихонов	-5719
▁тлянада	-5720
▁тогучин	-5721
▁тугулым	-5722
▁уварово	-5723
▁улицаим	-5724
▁умарова	-5725
▁урицкий	-5726
▁успенка	-5727
▁учитель	-5728
▁учителя	-5729
▁фамилии	-5730
▁фестива	-5731
▁фоменко	-5732
▁фролова	-5733
▁харьков	-5734
▁хмельни	-5735
▁чиркова	-5736
▁чулкова	-5737
▁чухлома	-5738
▁шарафут	-5739
▁шентали	-5740
▁широкая	-5741
▁шишкина	-5742
▁щёлково	-5743
▁эльмира	-5744
▁юрченко	-5745
▁ягодное	-5746
айковский	-5747
алтайский	-5748
андалакша	-5749
архангель	-5750
байкальск	-5751
болатовна	-5752
буденного	-5753
городново	-5754
городусть	-5755
деревнярм	-5756
жевникова	-5757
звенигово	-5758
лабинский	-5759
мукайский	-5760
мухаметов	-5761
новосибир	-5762
рекагород	-5763
рекапункт	-5764
страницып	-5765
стрежевой	-5766
тегорский	-5767
тюменская	-5768
улицадруж	-5769
улицаразд	-5770
усманский	-5771
чебоксары	-5772
череповец	-5773
▁адмирала	-5774
▁азовская	-5775
▁алтышево	-5776
▁анжелики	-5777
▁антонина	-5778
▁аскарово	-5779
▁баженова	-5780
▁бараново	-5781
▁бастилии	-5782
▁беларусь	-5783
▁бережной	-5784
▁березово	-5785
▁бийского	-5786
▁благовар	-5787
▁болотова	-5788
▁бородино	-5789
▁брянский	-5790
▁генерала	-5791
▁голышман	-5792
▁городаль	-5793
▁городмон	-5794
▁городспб	-5795
▁гусейнов	-5796
▁демидова	-5797
▁демократ	-5798
▁деревняс	-5799
▁десятков	-5800
▁добрянка	-5801
▁долговка	-5802
▁донецкой	-5803
▁елисеева	-5804
▁ермолино	-5805
▁закрытия	-5806
▁западная	-5807
▁заречная	-5808
▁засядько	-5809
▁зинченко	-5810
▁златоуст	-5811
▁извещает	-5812
▁калашник	-5813
▁капустин	-5814
▁караталь	-5815
▁киевский	-5816
▁клявлино	-5817
▁кокчетав	-5818
▁кольский	-5819
▁коммунар	-5820
▁компании	-5821
▁коноково	-5822
▁кочкарев	-5823
▁кулакова	-5824
▁куркужин	-5825
▁курского	-5826
▁курумкан	-5827
▁курчатов	-5828
▁ленстрой	-5829
▁лиханова	-5830
▁лотошино	-5831
▁макеевка	-5832
▁максимов	-5833
▁малопург	-5834
▁малютина	-5835
▁мамедова	-5836
▁месторег	-5837
▁муромцев	-5838
▁нагорная	-5839
▁нарткала	-5840
▁невельск	-5841
▁никитина	-5842
▁объявили	-5843
▁одесская	-5844
▁окружная	-5845
▁олеговны	-5846
▁осинники	-5847
▁осипенко	-5848
▁открытое	-5849
▁открытой	-5850
▁открытых	-5851
▁отрадная	-5852
▁отрадный	-5853
▁павленко	-5854
▁павлодар	-5855
▁парковая	-5856
▁парковый	-5857
▁пересыпь	-5858
▁песковка	-5859
▁подгорцы	-5860
▁радищева	-5861
▁ракитное	-5862
▁рузаевка	-5863
▁рузского	-5864
▁рябикова	-5865
▁саидович	-5866
▁свиридов	-5867
▁сергеева	-5868
▁слепцова	-5869
▁сосновка	-5870
▁степанов	-5871
▁суворова	-5872
▁территор	-5873
▁ткаченко	-5874
▁толстого	-5875
▁улицамар	-5876
▁улицаост	-5877
▁улицапро	-5878
▁уроженки	-5879
▁фурманов	-5880
▁хакимова	-5881
▁хорошева	-5882
▁черкашин	-5883
▁чернушка	-5884
▁шабанова	-5885
▁шатохина	-5886
▁шевелева	-5887
▁шевченко	-5888
▁энгельса	-5889
▁якутская	-5890
алексеевка	-5891
аяковского	-5892
городмуром	-5893
джоникидзе	-5894
инжиниринг	-5895
каменского	-5896
красноарме	-5897
мурманская	-5898
нижнекамск	-5899
новорудный	-5900
петровский	-5901
рекаадыгея	-5902
требования	-5903
улицакарла	-5904
улицановая	-5905
юртовского	-5906
▁абдулзаги	-5907
▁алдаркино	-5908
▁анверовна	-5909
▁ангарская	-5910
▁анисимово	-5911
▁антоновка	-5912
▁армянская	-5913
▁армянской	-5914
▁артуровна	-5915
▁береговая	-5916
▁березовка	-5917
▁богаткова	-5918
▁боровский	-5919
▁бочкарева	-5920
▁букреевка	-5921
▁бурятской	-5922
▁вадимович	-5923
▁вадимовны	-5924
▁ванюшкина	-5925
▁вербицкая	-5926
▁вермишева	-5927
▁воробьева	-5928
▁выползово	-5929
▁вячеслава	-5930
▁гаврилова	-5931
▁глангепас	-5932
▁городчита	-5933
▁даровской	-5934
▁датаместо	-5935
▁днепропет	-5936
▁дубовский	-5937
▁дунайский	-5938
▁заводская	-5939
▁задержаны	-5940
▁запустить	-5941
▁заседании	-5942
▁илдаровна	-5943
▁ильинична	-5944
▁ильясович	-5945
▁инзенский	-5946
▁иркутский	-5947
▁иртышская	-5948
▁казанское	-5949
▁каменский	-5950
▁караганда	-5951
▁картотека	-5952
▁кириллова	-5953
▁колосовка	-5954
▁кузьменко	-5955
▁куйбышева	-5956
▁ленинское	-5957
▁леонтьева	-5958
▁любинский	-5959
▁максимова	-5960
▁малошуйка	-5961
▁мантурово	-5962
▁маргариты	-5963
▁марийская	-5964
▁мглинский	-5965
▁месторожд	-5966
▁металлург	-5967
▁миллерово	-5968
▁минусинск	-5969
▁мироненко	-5970
▁мунировна	-5971
▁муромцево	-5972
▁муслюмово	-5973
▁новоселов	-5974
▁ногайский	-5975
▁ногинский	-5976
▁открытого	-5977
▁петровича	-5978
▁порожский	-5979
▁приморско	-5980
▁присутств	-5981
▁работники	-5982
▁радикович	-5983
▁революции	-5984
▁сапроново	-5985
▁сафронова	-5986
▁сергиенко	-5987
▁сибирский	-5988
▁смирновой	-5989
▁солнечное	-5990
▁страницыб	-5991
▁сущевский	-5992
▁тегульдет	-5993
▁улицамира	-5994
▁улицароди	-5995
▁успенская	-5996
▁успенский	-5997
▁федоренко	-5998
▁федоровна	-5999
▁чегемский	-6000
▁черкасова	-6001
▁чеченская	-6002
▁шестакова	-6003
▁шигалеево	-6004
▁шульгинка	-6005
▁экономики	-6006
▁юбилейный	-6007
вердловский	-6008
городабакан	-6009
городказань	-6010
городмосква	-6011
городсамара	-6012
декабристов	-6013
калининград	-6014
курагинский	-6015
слободского	-6016
улицафрунзе	-6017
управляющий	-6018
хрустальный	-6019
▁абсалямова	-6020
▁александру	-6021
▁александры	-6022
▁алексеевны	-6023
▁антикризис	-6024
▁аркадьевич	-6025
▁бавлинский	-6026
▁баганского	-6027
▁бардымский	-6028
▁белинского	-6029
▁валериевна	-6030
▁верхошижем	-6031
▁витальевны	-6032
▁внуковское	-6033
▁вооружение	-6034
▁воробьевка	-6035
▁временного	-6036
▁гомельская	-6037
▁городтомск	-6038
▁гургенович	-6039
▁еткульский	-6040
▁жуковского	-6041
▁забастовку	-6042
▁зайнуллина	-6043
▁заполярный	-6044
▁знаменский	-6045
▁исполнения	-6046
▁каверзиной	-6047
▁карельской	-6048
▁кизильский	-6049
▁ключевский	-6050
▁ключникова	-6051
▁коновалова	-6052
▁крыловская	-6053
▁крыловский	-6054
▁кыргызстан	-6055
▁ленинского	-6056
▁люксембург	-6057
▁максимовна	-6058
▁малобыково	-6059
▁марьяновка	-6060
▁машиностро	-6061
▁микрорайон	-6062
▁мирнинский	-6063
▁михайловой	-6064
▁мордовской	-6065
▁нестеренко	-6066
▁нефтекамск	-6067
▁нефтяников	-6068
▁николаевка	-6069
▁никольское	-6070
▁образцовка	-6071
▁орловского	-6072
▁оршанского	-6073
▁панкратова	-6074
▁пребывания	-6075
▁прекращено	-6076
▁проведения	-6077
▁производит	-6078
▁протестных	-6079
▁равильевич	-6080
▁рамзановна	-6081
▁реализацию	-6082
▁российских	-6083
▁серафонтов	-6084
▁слободское	-6085
▁смоленский	-6086
▁союзсрогау	-6087
▁стрелковой	-6088
▁стрельцова	-6089
▁сургутский	-6090
▁счастливая	-6091
▁терентьева	-6092
▁тимошенков	-6093
▁тихомирова	-6094
▁требования	-6095
▁удмуртская	-6096
▁уразбаевна	-6097
▁фармацевты	-6098
▁хатлонская	-6099
▁херсонская	-6100
▁хлевенский	-6101
▁чамзинский	-6102
▁чановского	-6103
▁челбасская	-6104
▁черепанова	-6105
▁шамильский	-6106
▁ширинского	-6107
▁яшкинского	-6108
алистическая	-6109
белгородская	-6110
вознесеновка	-6111
городангарск	-6112
городщелково	-6113
михайловское	-6114
промышленная	-6115
улицабаумана	-6116
электросталь	-6117
▁авангардная	-6118
▁акмолинской	-6119
▁альбертовна	-6120
▁арнольдовна	-6121
▁бавлинского	-6122
▁байкальская	-6123
▁бакунинская	-6124
▁банкротстве	-6125
▁березовский	-6126
▁благодарный	-6127
▁бологовский	-6128
▁большеречье	-6129
▁валерьевича	-6130
▁васильевича	-6131
▁владикавказ	-6132
▁городкрасно	-6133
▁городнижний	-6134
▁городсургут	-6135
▁городтамбов	-6136
▁городторжок	-6137
▁городусолье	-6138
▁декабристов	-6139
▁дмитриевича	-6140
▁днепровская	-6141
▁добролюбова	-6142
▁евгеньевича	-6143
▁заларинский	-6144
▁калиниченко	-6145
▁корабельная	-6146
▁лешуконский	-6147
▁магаданская	-6148
▁магомедович	-6149
▁магомедовна	-6150
▁медперсонал	-6151
▁мильковский	-6152
▁минеральные	-6153
▁мичуринский	-6154
▁мишеронский	-6155
▁направления	-6156
▁октябрьское	-6157
▁определение	-6158
▁определения	-6159
▁организации	-6160
▁отсутствуют	-6161
▁подосиновец	-6162
▁посредством	-6163
▁профсоюзная	-6164
▁рамазановна	-6165
▁рудольфович	-6166
▁салаватович	-6167
▁сарымсакова	-6168
▁севастополь	-6169
▁симферополь	-6170
▁сопауальянс	-6171
▁сотрудников	-6172
▁стерлитамак	-6173
▁страницыакс	-6174
▁тарасовский	-6175
▁ташкентской	-6176
▁театральная	-6177
▁трапезников	-6178
▁французской	-6179
▁черлакского	-6180
▁чкаловского	-6181
▁яблоновский	-6182
▁ярмухаметов	-6183
архангельская	-6184
волгоградская	-6185
городбелгород	-6186
городмурманск	-6187
казахстанской	-6188
новосибирская	-6189
олотухинского	-6190
омышастовская	-6191
петропавловск	-6192
улицачерняхов	-6193
▁алексеевское	-6194
▁арзамасского	-6195
▁ахтубинского	-6196
▁баранчинский	-6197
▁вениаминович	-6198
▁владимировне	-6199
▁владимировну	-6200
▁вячеславовны	-6201
▁гендиректора	-6202
▁геннадьевичу	-6203
▁городангарск	-6204
▁городзаринск	-6205
▁городнальчик	-6206
▁городташкент	-6207
▁действующего	-6208
▁демонстранты	-6209
▁заводоуковск	-6210
▁земетчинский	-6211
▁изображением	-6212
▁калачинского	-6213
▁конфедерации	-6214
▁кунашакского	-6215
▁кустанайская	-6216
▁луначарского	-6217
▁мантуровский	-6218
▁марьяновский	-6219
▁медвеженский	-6220
▁местоджалиля	-6221
▁министерства	-6222
▁михайловская	-6223
▁михайловское	-6224
▁новоалександ	-6225
▁новокиевский	-6226
▁новомосковск	-6227
▁новопетровка	-6228
▁общественной	-6229
▁оконешниково	-6230
▁оренбургский	-6231
▁отрадненский	-6232
▁региональная	-6233
▁резолютивной	-6234
▁республикаот	-6235
▁светлоярский	-6236
▁северодвинск	-6237
▁староминский	-6238
▁страницыилек	-6239
▁страницыкара	-6240
▁центрального	-6241
▁чебоксарский	-6242
городволгоград	-6243
пунктлянгасово	-6244
страницыдатуна	-6245
страницыисинга	-6246
улицасоветская	-6247
▁авиасообщение	-6248
▁верхнеуральск	-6249
▁городволжский	-6250
▁городзаречный	-6251
▁городкемерово	-6252
▁городрадужный	-6253
▁городсерпухов	-6254
▁городтольятти	-6255
▁демонстрациях	-6256
▁заблокировали	-6257
▁красноармейск	-6258
▁краснозерский	-6259
▁краснотуранск	-6260
▁муслюмовского	-6261
▁наримановский	-6262
▁новоусманский	-6263
▁привокзальная	-6264
▁пункттульский	-6265
▁семиреченская	-6266
▁солнечногорск	-6267
▁состоявшимися	-6268
▁страницыбайны	-6269
▁страницыишлеи	-6270
▁тляратинского	-6271
▁улицататищева	-6272
▁чистопольский	-6273
железнодорожная	-6274
улицараздольная	-6275
▁абзелиловского	-6276
▁александровичу	-6277
▁виноградовский	-6278
▁городзвенигово	-6279
▁городстрежевой	-6280
▁городчебоксары	-6281
▁деревнягаревая	-6282
▁карагандинская	-6283
▁комсомольского	-6284
▁малопургинский	-6285
▁присутствовали	-6286
▁ставропольская	-6287
▁тахтамукайский	-6288
▁хасавюртовский	-6289
страницырешетово	-6290
▁азербайджанская	-6291
▁александрийская	-6292
▁верхошижемского	-6293
▁городбугуруслан	-6294
▁городмончегорск	-6295
▁городнижнекамск	-6296
▁городсвердловск	-6297
▁городчайковский	-6298
▁государственной	-6299
▁демократической	-6300
▁железнодорожной	-6301
▁красноармейский	-6302
▁политехническая	-6303
▁пунктноворудный	-6304
(;	-6305
,-	-6306
,.	-6307
::	-6308
>:	-6309
аб	-6310
аю	-6311
бк	-6312
вс	-6313
вш	-6314
гд	-6315
гж	-6316
гч	-6317
дт	-6318
дь	-6319
дэ	-6320
дя	-6321
ег	-6322
ез	-6323
жм	-6324
иг	-6325
йн	-6326
кб	-6327
ке	-6328
кл	-6329
кш	-6330
кы	-6331
кя	-6332
лт	-6333
мг	-6334
мд	-6335
мй	-6336
мк	-6337
нб	-6338
нп	-6339
ож	-6340
оз	-6341
ош	-6342
пс	-6343
рб	-6344
рш	-6345
рю	-6346
сл	-6347
съ	-6348
тм	-6349
тр	-6350
тф	-6351
тч	-6352
ущ	-6353
фт	-6354
фё	-6355
хс	-6356
цу	-6357
чт	-6358
шд	-6359
ыб	-6360
ыд	-6361
ыч	-6362
эо	-6363
эу	-6364
юм	-6365
юс	-6366
яг	-6367
яй	-6368
ял	-6369
яс	-6370
яэ	-6371
▁o	-6372
▁ъ	-6373
;),	-6374
>,)	-6375
ада	-6376
айл	-6377
айх	-6378
ами	-6379
анб	-6380
арк	-6381
аск	-6382
бия	-6383
бул	-6384
ваз	-6385
виж	-6386
вна	-6387
вро	-6388
вые	-6389
вья	-6390
гас	-6391
гел	-6392
гле	-6393
гоб	-6394
гой	-6395
гон	-6396
гощ	-6397
деж	-6398
дья	-6399
нс	-6400
.-,	-6401
анж	-6402
веч	-6403
вре	-6404
его	-6405
ейл	-6406
ела	-6407
жов	-6408
зар	-6409
зем	-6410
зск	-6411
зуф	-6412
ини	-6413
кай	-6414
кме	-6415
кош	-6416
кст	-6417
кта	-6418
лед	-6419
лец	-6420
лик	-6421
луд	-6422
моч	-6423
нег	-6424
нет	-6425
ниб	-6426
нив	-6427
нищ	-6428
нна	-6429
нол	-6430
одв	-6431
одч	-6432
одь	-6433
орж	-6434
пан	-6435
пск	-6436
пун	-6437
рет	-6438
реф	-6439
роф	-6440
роч	-6441
рош	-6442
роя	-6443
ски	-6444
сон	-6445
сск	-6446
сте	-6447
так	-6448
тал	-6449
уба	-6450
ува	-6451
уды	-6452
унт	-6453
упы	-6454
фет	-6455
фол	-6456
хри	-6457
чан	-6458
чон	-6459
шли	-6460
шта	-6461
шуш	-6462
щик	-6463
ьга	-6464
юли	-6465
юпи	-6466
юск	-6467
▁(-	-6468
▁:<	-6469
▁аи	-6470
▁бж	-6471
▁вз	-6472
▁гп	-6473
▁ич	-6474
▁кэ	-6475
▁лс	-6476
▁ня	-6477
▁ой	-6478
▁он	-6479
▁оо	-6480
▁ох	-6481
▁пз	-6482
▁сг	-6483
▁сс	-6484
▁сф	-6485
▁сё	-6486
▁уй	-6487
▁фк	-6488
▁щи	-6489
▁эф	-6490
▁яз	-6491
азал	-6492
алал	-6493
алах	-6494
алич	-6495
алов	-6496
алыг	-6497
анте	-6498
арка	-6499
ари	-6500
ерв	-6501
лея	-6502
льт	-6503
миж	-6504
мих	-6505
оне	-6506
пер	-6507
пле	-6508
уза	-6509
хер	-6510
шер	-6511
щий	-6512
▁дп	-6513
▁дэ	-6514
▁ке	-6515
▁кы	-6516
▁ся	-6517
▁уф	-6518
▁шт	-6519
алей	-6520
анти	-6521
аско	-6522
асян	-6523
аялт	-6524
бест	-6525
били	-6526
вара	-6527
веси	-6528
вный	-6529
гско	-6530
дель	-6531
джон	-6532
джян	-6533
дзор	-6534
диди	-6535
дома	-6536
драт	-6537
дура	-6538
евла	-6539
едне	-6540
елеб	-6541
елин	-6542
енде	-6543
ение	-6544
ения	-6545
енун	-6546
еран	-6547
ерсе	-6548
ерси	-6549
естр	-6550
заго	-6551
здок	-6552
зёры	-6553
игри	-6554
инта	-6555
исуп	-6556
ичал	-6557
ичев	-6558
каше	-6559
когр	-6560
кокт	-6561
куго	-6562
кыма	-6563
лара	-6564
лины	-6565
литы	-6566
ляна	-6567
мако	-6568
мани	-6569
мату	-6570
мона	-6571
мсан	-6572
мури	-6573
нияш	-6574
обур	-6575
овде	-6576
овеж	-6577
овор	-6578
огод	-6579
один	-6580
озия	-6581
олак	-6582
олко	-6583
онцы	-6584
орск	-6585
ость	-6586
отем	-6587
отре	-6588
панк	-6589
паша	-6590
почт	-6591
прод	-6592
пчат	-6593
пшен	-6594
равы	-6595
раза	-6596
райд	-6597
рачи	-6598
реал	-6599
аре	-6600
ваб	-6601
вау	-6602
жен	-6603
оре	-6604
рас	-6605
раф	-6606
тод	-6607
хва	-6608
хил	-6609
чут	-6610
ёра	-6611
▁ач	-6612
▁аэ	-6613
▁нн	-6614
▁эй	-6615
анат	-6616
аниц	-6617
вада	-6618
даба	-6619
драх	-6620
епан	-6621
ирбе	-6622
конс	-6623
ляло	-6624
нинн	-6625
рево	-6626
роби	-6627
руст	-6628
сана	-6629
сано	-6630
скал	-6631
скун	-6632
собо	-6633
сого	-6634
стал	-6635
стор	-6636
съез	-6637
тамт	-6638
тная	-6639
тров	-6640
тфри	-6641
угуч	-6642
уден	-6643
узин	-6644
узул	-6645
улья	-6646
упов	-6647
урав	-6648
уреч	-6649
урид	-6650
учье	-6651
хлик	-6652
хров	-6653
цово	-6654
чист	-6655
шевы	-6656
ьёва	-6657
юнин	-6658
ющая	-6659
якки	-6660
яние	-6661
ярки	-6662
ячал	-6663
▁абу	-6664
▁але	-6665
▁анк	-6666
▁анц	-6667
▁аша	-6668
▁бас	-6669
▁бес	-6670
▁бон	-6671
▁бот	-6672
▁бут	-6673
▁ваг	-6674
▁вза	-6675
▁вог	-6676
▁вон	-6677
▁вью	-6678
▁гна	-6679
▁год	-6680
▁гра	-6681
▁гян	-6682
▁дуй	-6683
▁жва	-6684
▁жир	-6685
▁зау	-6686
▁зое	-6687
▁кер	-6688
▁кие	-6689
▁кич	-6690
▁кло	-6691
▁кро	-6692
▁лаз	-6693
▁лаи	-6694
▁лмс	-6695
▁лог	-6696
▁мев	-6697
▁мег	-6698
▁мон	-6699
аву	-6700
зор	-6701
лах	-6702
лсу	-6703
омо	-6704
тко	-6705
ффт	-6706
шла	-6707
▁вл	-6708
▁пф	-6709
арып	-6710
аяне	-6711
граж	-6712
едёв	-6713
естю	-6714
зёво	-6715
льно	-6716
мого	-6717
ниго	-6718
нияз	-6719
орст	-6720
рему	-6721
рена	-6722
сель	-6723
спец	-6724
▁,,<	-6725
▁бра	-6726
▁дят	-6727
▁илс	-6728
▁муг	-6729
▁нед	-6730
▁нем	-6731
▁ник	-6732
▁обе	-6733
▁обь	-6734
▁оку	-6735
▁пис	-6736
▁пор	-6737
▁птм	-6738
▁пуд	-6739
▁пуч	-6740
▁пыш	-6741
▁пян	-6742
▁ред	-6743
▁сан	-6744
▁сап	-6745
▁сми	-6746
▁соб	-6747
▁спе	-6748
▁спк	-6749
▁сун	-6750
▁суп	-6751
▁сыс	-6752
▁тап	-6753
▁тоб	-6754
▁тов	-6755
▁тяж	-6756
▁укр	-6757
▁фев	-6758
▁фло	-6759
▁хая	-6760
▁ход	-6761
▁хур	-6762
▁цес	-6763
▁чет	-6764
▁шав	-6765
▁шеп	-6766
▁шик	-6767
▁шит	-6768
▁шуш	-6769
▁эди	-6770
▁юнн	-6771
▁якс	-6772
▁яны	-6773
аволж	-6774
адкой	-6775
азара	-6776
аламо	-6777
алиев	-6778
анами	-6779
анкой	-6780
арика	-6781
архан	-6782
атыва	-6783
багат	-6784
балта	-6785
бегов	-6786
берди	-6787
бышев	-6788
ведом	-6789
верев	-6790
ворье	-6791
вроси	-6792
гибат	-6793
говор	-6794
голов	-6795
дамба	-6796
денеж	-6797
денис	-6798
дерга	-6799
бет	-6800
дуд	-6801
еть	-6802
ита	-6803
мош	-6804
ноб	-6805
нят	-6806
спь	-6807
шет	-6808
ырь	-6809
явл	-6810
яты	-6811
анко	-6812
анфи	-6813
бяты	-6814
ддин	-6815
елая	-6816
жаев	-6817
зырь	-6818
илов	-6819
иташ	-6820
кост	-6821
лену	-6822
манк	-6823
мора	-6824
ован	-6825
скет	-6826
улан	-6827
фрян	-6828
ъявл	-6829
ёдов	-6830
▁бир	-6831
▁вет	-6832
▁вов	-6833
▁гет	-6834
▁кет	-6835
▁пож	-6836
▁хоз	-6837
айшет	-6838
анина	-6839
беспь	-6840
бская	-6841
диков	-6842
довне	-6843
дыгин	-6844
дышка	-6845
едина	-6846
едово	-6847
ейкин	-6848
ельцы	-6849
емели	-6850
енний	-6851
ентий	-6852
ермес	-6853
есова	-6854
жиган	-6855
жиева	-6856
жижан	-6857
здова	-6858
зиани	-6859
зовка	-6860
идзен	-6861
измай	-6862
изово	-6863
инали	-6864
йнена	-6865
йника	-6866
карат	-6867
ксика	-6868
кулин	-6869
кунов	-6870
кутов	-6871
лаева	-6872
ламов	-6873
ламяэ	-6874
летки	-6875
летов	-6876
лечеп	-6877
ловна	-6878
мадов	-6879
менюк	-6880
мской	-6881
муров	-6882
нович	-6883
новск	-6884
ныроб	-6885
обеды	-6886
одчий	-6887
окент	-6888
ольчу	-6889
ониха	-6890
орная	-6891
пенко	-6892
пиева	-6893
пович	-6894
ранил	-6895
ратег	-6896
ратск	-6897
речка	-6898
риани	-6899
ать	-6900
гуп	-6901
зне	-6902
иди	-6903
инж	-6904
луп	-6905
муш	-6906
нек	-6907
нем	-6908
неф	-6909
руп	-6910
сар	-6911
све	-6912
сел	-6913
сии	-6914
сне	-6915
фии	-6916
хме	-6917
ерек	-6918
лект	-6919
лиан	-6920
лицы	-6921
мние	-6922
прат	-6923
роту	-6924
скон	-6925
скот	-6926
сско	-6927
стон	-6928
уева	-6929
ьинж	-6930
▁бед	-6931
▁гне	-6932
▁гуп	-6933
▁дос	-6934
▁сне	-6935
▁стю	-6936
▁юнг	-6937
антон	-6938
бизне	-6939
горка	-6940
идиан	-6941
леков	-6942
льцев	-6943
некли	-6944
нения	-6945
омать	-6946
рикос	-6947
рилов	-6948
ровск	-6949
ромар	-6950
ротех	-6951
сарма	-6952
себай	-6953
сеева	-6954
селты	-6955
сидор	-6956
снеса	-6957
сская	-6958
сстан	-6959
стина	-6960
стриа	-6961
сфера	-6962
сяков	-6963
тазин	-6964
троли	-6965
троль	-6966
убрав	-6967
угуль	-6968
упаев	-6969
хирит	-6970
хмеле	-6971
хович	-6972
ходов	-6973
чеева	-6974
черни	-6975
чуева	-6976
шаков	-6977
шапат	-6978
шинев	-6979
шинёв	-6980
шовка	-6981
щерба	-6982
ызгал	-6983
ьинск	-6984
ькина	-6985
ьютер	-6986
ясола	-6987
ятмас	-6988
▁абды	-6989
▁авей	-6990
▁авиа	-6991
▁адам	-6992
▁акпе	-6993
▁алсу	-6994
▁альд	-6995
▁анан	-6996
▁андр	-6997
▁анос	-6998
▁арав	-6999
адь	-7000
айз	-7001
айн	-7002
алт	-7003
баз	-7004
бив	-7005
гол	-7006
лта	-7007
рих	-7008
сых	-7009
тем	-7010
хаш	-7011
цип	-7012
шай	-7013
шма	-7014
ыго	-7015
ыса	-7016
▁тк	-7017
лана	-7018
мину	-7019
обор	-7020
ряжи	-7021
стая	-7022
тину	-7023
услу	-7024
хоро	-7025
шеле	-7026
щадь	-7027
ямов	-7028
▁клы	-7029
▁нег	-7030
▁неж	-7031
▁поп	-7032
▁тан	-7033
▁юма	-7034
▁ялы	-7035
айзул	-7036
артем	-7037
арход	-7038
бивка	-7039
ветис	-7040
евода	-7041
зович	-7042
льдан	-7043
малак	-7044
петян	-7045
уевой	-7046
чишма	-7047
▁арту	-7048
▁атая	-7049
▁бабы	-7050
▁бады	-7051
▁балт	-7052
▁бежи	-7053
▁биби	-7054
▁боле	-7055
▁бсср	-7056
▁буян	-7057
▁ваво	-7058
▁важи	-7059
▁ваки	-7060
▁вась	-7061
▁вато	-7062
▁вест	-7063
▁вона	-7064
▁вход	-7065
▁гагр	-7066
▁гиль	-7067
▁горб	-7068
▁горе	-7069
▁горо	-7070
▁горы	-7071
▁госп	-7072
▁гост	-7073
▁греч	-7074
▁грод	-7075
▁гура	-7076
▁деля	-7077
▁джав	-7078
▁джов	-7079
▁евро	-7080
▁забо	-7081
▁зами	-7082
▁запу	-7083
▁зари	-7084
▁зиба	-7085
▁зура	-7086
▁инза	-7087
▁кази	-7088
▁калс	-7089
▁каши	-7090
▁кваш	-7091
▁кикв	-7092
▁кили	-7093
▁клев	-7094
▁коел	-7095
▁кома	-7096
▁комн	-7097
▁креч	-7098
▁крот	-7099
вко	-7100
гим	-7101
дем	-7102
дик	-7103
иля	-7104
ныч	-7105
пио	-7106
ряв	-7107
фуд	-7108
яве	-7109
▁ид	-7110
▁эм	-7111
▁эп	-7112
▁эс	-7113
бент	-7114
дмит	-7115
елоу	-7116
емет	-7117
ксов	-7118
лазо	-7119
льев	-7120
спел	-7121
ходж	-7122
цхин	-7123
шины	-7124
▁мла	-7125
▁спи	-7126
▁шум	-7127
▁эск	-7128
белоу	-7129
бисер	-7130
бовак	-7131
бовна	-7132
даиля	-7133
деман	-7134
кская	-7135
ровод	-7136
роход	-7137
усейн	-7138
ципио	-7139
ярово	-7140
▁абди	-7141
▁деле	-7142
▁дуня	-7143
▁зард	-7144
▁идри	-7145
▁кури	-7146
▁куха	-7147
▁лаго	-7148
▁леси	-7149
▁либк	-7150
▁локо	-7151
▁лоух	-7152
▁луко	-7153
▁мади	-7154
▁мажи	-7155
▁майр	-7156
▁марь	-7157
▁маси	-7158
▁махм	-7159
▁мигу	-7160
▁мику	-7161
▁миле	-7162
▁мина	-7163
▁мини	-7164
▁мичу	-7165
▁молч	-7166
▁мюль	-7167
▁нави	-7168
▁нажм	-7169
▁него	-7170
▁нена	-7171
▁непи	-7172
▁нерю	-7173
▁нура	-7174
▁нури	-7175
▁обог	-7176
▁обра	-7177
▁обще	-7178
▁оган	-7179
▁окол	-7180
▁орла	-7181
▁оруд	-7182
▁отро	-7183
▁пант	-7184
▁паст	-7185
▁песо	-7186
▁пода	-7187
▁подл	-7188
▁позд	-7189
▁прич	-7190
▁прос	-7191
▁прош	-7192
▁разв	-7193
▁рати	-7194
▁ролд	-7195
▁ружи	-7196
▁руст	-7197
▁саги	-7198
▁саль	-7199
бру	-7200
зли	-7201
плю	-7202
три	-7203
шед	-7204
юка	-7205
айлы	-7206
арск	-7207
буга	-7208
евза	-7209
жден	-7210
линн	-7211
лист	-7212
миль	-7213
мино	-7214
носк	-7215
олод	-7216
плюс	-7217
убур	-7218
ущем	-7219
ятни	-7220
▁бли	-7221
▁взд	-7222
▁илю	-7223
▁кем	-7224
▁лын	-7225
▁нар	-7226
▁ору	-7227
▁рак	-7228
▁рзд	-7229
▁фай	-7230
▁эли	-7231
бруси	-7232
везли	-7233
кулах	-7234
лабат	-7235
мский	-7236
пегин	-7237
харда	-7238
химки	-7239
шевое	-7240
▁амам	-7241
▁инны	-7242
▁купа	-7243
▁леда	-7244
▁мить	-7245
▁орды	-7246
▁реше	-7247
▁самс	-7248
▁сант	-7249
▁сарк	-7250
▁своб	-7251
▁сили	-7252
▁сине	-7253
▁сири	-7254
▁скмд	-7255
▁скол	-7256
▁снеж	-7257
▁соля	-7258
▁сост	-7259
▁суки	-7260
▁султ	-7261
▁теле	-7262
▁тики	-7263
▁тург	-7264
▁тыва	-7265
▁увал	-7266
▁угле	-7267
▁уезд	-7268
▁фарт	-7269
▁фгуп	-7270
▁фило	-7271
▁фоат	-7272
▁фуэн	-7273
▁хард	-7274
▁хаса	-7275
▁цвет	-7276
▁цвил	-7277
▁шали	-7278
▁шари	-7279
▁шиго	-7280
▁шика	-7281
▁шипи	-7282
▁эман	-7283
адовая	-7284
алиева	-7285
анково	-7286
анокин	-7287
ансово	-7288
афанас	-7289
башево	-7290
ботько	-7291
величе	-7292
верево	-7293
веркин	-7294
виевна	-7295
высоки	-7296
газавт	-7297
городв	-7298
городд	-7299
дил	-7300
жби	-7301
шая	-7302
яев	-7303
ёев	-7304
▁мк	-7305
▁ув	-7306
аная	-7307
асов	-7308
атор	-7309
аясе	-7310
енза	-7311
жина	-7312
ираж	-7313
края	-7314
ктус	-7315
леси	-7316
реля	-7317
ринэ	-7318
тале	-7319
теур	-7320
▁(.,	-7321
▁вил	-7322
▁дам	-7323
▁жер	-7324
▁заг	-7325
▁зуд	-7326
▁кип	-7327
▁мод	-7328
▁свх	-7329
жской	-7330
зская	-7331
илецк	-7332
лопат	-7333
овать	-7334
спапк	-7335
теров	-7336
▁глаз	-7337
▁гсср	-7338
▁деме	-7339
▁замг	-7340
▁кила	-7341
▁клгд	-7342
▁куру	-7343
▁муси	-7344
▁руми	-7345
▁свер	-7346
▁соль	-7347
▁тава	-7348
▁тень	-7349
▁тура	-7350
▁удюк	-7351
гимова	-7352
городк	-7353
гулова	-7354
гурова	-7355
дебург	-7356
долина	-7357
дырева	-7358
евской	-7359
еливан	-7360
емхово	-7361
еткино	-7362
етский	-7363
жаевич	-7364
зляков	-7365
зского	-7366
ийской	-7367
илиной	-7368
имково	-7369
имного	-7370
инство	-7371
ирлеси	-7372
казьян	-7373
коргон	-7374
кулова	-7375
кумова	-7376
курган	-7377
курова	-7378
кушино	-7379
лаврен	-7380
ленных	-7381
летная	-7382
ликова	-7383
линная	-7384
ловцев	-7385
лощадь	-7386
льевна	-7387
лякова	-7388
ляшова	-7389
магина	-7390
мазова	-7391
макуль	-7392
менова	-7393
менчик	-7394
мерова	-7395
мершая	-7396
мижбек	-7397
мокова	-7398
мостро	-7399
буд	-7400
гей	-7401
гуд	-7402
кзы	-7403
ныа	-7404
пуд	-7405
риб	-7406
риф	-7407
уки	-7408
чич	-7409
эль	-7410
▁ую	-7411
алой	-7412
анян	-7413
арий	-7414
битр	-7415
дрет	-7416
запи	-7417
кзыл	-7418
кчар	-7419
ровы	-7420
удев	-7421
удор	-7422
урин	-7423
хета	-7424
▁гон	-7425
▁дуд	-7426
▁лив	-7427
▁лот	-7428
▁мещ	-7429
▁ори	-7430
▁щел	-7431
андре	-7432
битов	-7433
гудан	-7434
ерхне	-7435
зский	-7436
иевны	-7437
минус	-7438
ныауз	-7439
озная	-7440
олева	-7441
рибян	-7442
стная	-7443
укиря	-7444
чеево	-7445
шариф	-7446
ыбгей	-7447
▁абит	-7448
▁рыбо	-7449
▁судж	-7450
▁уюта	-7451
▁чугу	-7452
▁эмма	-7453
авская	-7454
дшариф	-7455
еликий	-7456
еменко	-7457
мошное	-7458
мурино	-7459
мутова	-7460
ничева	-7461
нышова	-7462
общест	-7463
оводск	-7464
оложск	-7465
омства	-7466
онконс	-7467
оркута	-7468
оруков	-7469
отовой	-7470
пакова	-7471
переул	-7472
пского	-7473
пушкин	-7474
района	-7475
регион	-7476
реестр	-7477
релова	-7478
ровали	-7479
ручева	-7480
ряжино	-7481
садула	-7482
самара	-7483
служба	-7484
сормов	-7485
сочный	-7486
спелих	-7487
ститко	-7488
ститут	-7489
сякова	-7490
томати	-7491
убурки	-7492
удович	-7493
улиной	-7494
улицаб	-7495
улицаи	-7496
ультат	-7497
уновны	-7498
упрова	-7499
дек	-7500
дмр	-7501
зап	-7502
озе	-7503
тон	-7504
тюм	-7505
шар	-7506
▁тд	-7507
▁тп	-7508
>,).	-7509
аран	-7510
вага	-7511
даст	-7512
елян	-7513
маро	-7514
наде	-7515
пиль	-7516
рови	-7517
уров	-7518
▁лош	-7519
альцы	-7520
атово	-7521
бошар	-7522
дание	-7523
зиной	-7524
калов	-7525
кский	-7526
пласт	-7527
посад	-7528
ридин	-7529
утова	-7530
шский	-7531
▁асль	-7532
▁атня	-7533
▁возд	-7534
▁жозе	-7535
▁калу	-7536
▁кира	-7537
▁кире	-7538
▁крав	-7539
▁рель	-7540
▁урен	-7541
борови	-7542
дастак	-7543
ийский	-7544
ийское	-7545
надежд	-7546
одиной	-7547
омский	-7548
пильво	-7549
урская	-7550
уштобе	-7551
федова	-7552
фомина	-7553
формов	-7554
фёрова	-7555
харева	-7556
ходжон	-7557
ходько	-7558
черджи	-7559
шанова	-7560
шиевой	-7561
шковой	-7562
шовген	-7563
щенова	-7564
ыновна	-7565
юбилей	-7566
ючкова	-7567
яновна	-7568
ятский	-7569
▁абдра	-7570
▁абдых	-7571
▁авиап	-7572
▁адыге	-7573
▁алдан	-7574
▁алины	-7575
▁алисы	-7576
▁алхан	-7577
▁ангуй	-7578
▁анкуд	-7579
▁ардан	-7580
▁астра	-7581
▁атмас	-7582
▁бакин	-7583
▁балта	-7584
▁бариз	-7585
▁баров	-7586
▁барте	-7587
▁бежан	-7588
▁белан	-7589
▁белая	-7590
▁белун	-7591
▁белых	-7592
▁бетев	-7593
▁богус	-7594
▁богуш	-7595
▁болат	-7596
▁бордя	-7597
▁брони	-7598
▁буров	-7599
кап	-7600
куз	-7601
лда	-7602
ука	-7603
урс	-7604
цин	-7605
▁рж	-7606
веле	-7607
зиля	-7608
наур	-7609
онат	-7610
паки	-7611
сужд	-7612
убоп	-7613
усай	-7614
хали	-7615
чево	-7616
▁аще	-7617
▁ват	-7618
▁ион	-7619
▁кия	-7620
▁лун	-7621
▁мур	-7622
▁пур	-7623
▁фаз	-7624
▁чан	-7625
нехта	-7626
разит	-7627
фаева	-7628
фусай	-7629
ховой	-7630
чевки	-7631
▁бирю	-7632
▁гера	-7633
▁жито	-7634
▁зинн	-7635
▁неля	-7636
▁саба	-7637
▁соот	-7638
антина	-7639
ельева	-7640
капран	-7641
кугоей	-7642
лдаево	-7643
сионат	-7644
товили	-7645
трубоп	-7646
уторов	-7647
черных	-7648
▁венер	-7649
▁вздор	-7650
▁волга	-7651
▁вязов	-7652
▁гаево	-7653
▁газов	-7654
▁галия	-7655
▁герус	-7656
▁гимаз	-7657
▁гинин	-7658
▁глава	-7659
▁гомбо	-7660
▁горки	-7661
▁грата	-7662
▁далиа	-7663
▁дерга	-7664
▁дерев	-7665
▁джими	-7666
▁дианы	-7667
▁долбе	-7668
▁дубин	-7669
▁дудко	-7670
▁дурин	-7671
▁егора	-7672
▁жанат	-7673
▁завья	-7674
▁загво	-7675
▁заира	-7676
▁зинню	-7677
▁ивашк	-7678
▁измал	-7679
▁ирбит	-7680
▁иштер	-7681
▁казим	-7682
▁камыз	-7683
▁карим	-7684
▁катав	-7685
▁кизил	-7686
▁ковар	-7687
▁колпа	-7688
▁конищ	-7689
▁конти	-7690
▁крапи	-7691
▁кудря	-7692
▁кузми	-7693
▁кукол	-7694
▁кучко	-7695
▁лапти	-7696
▁лашов	-7697
▁лидии	-7698
▁линия	-7699
йцы	-7700
коз	-7701
коф	-7702
ояр	-7703
пко	-7704
рка	-7705
хат	-7706
▁рэ	-7707
алла	-7708
амад	-7709
бака	-7710
вашк	-7711
гжит	-7712
етен	-7713
коли	-7714
кума	-7715
обко	-7716
одат	-7717
прид	-7718
пуль	-7719
ькин	-7720
▁кен	-7721
▁мой	-7722
▁рощ	-7723
▁хам	-7724
айная	-7725
гарян	-7726
етных	-7727
зёрка	-7728
ленки	-7729
мурод	-7730
ногра	-7731
одков	-7732
оярви	-7733
пульс	-7734
робог	-7735
тепло	-7736
чепко	-7737
▁летя	-7738
▁меди	-7739
▁мого	-7740
▁наны	-7741
▁нино	-7742
▁отст	-7743
▁прив	-7744
▁рэдэ	-7745
▁сиве	-7746
▁тона	-7747
▁ферс	-7748
▁шира	-7749
▁эвер	-7750
вашкре	-7751
вильск	-7752
диково	-7753
кумача	-7754
лышева	-7755
озёрка	-7756
ологов	-7757
помкоф	-7758
сыколи	-7759
ублики	-7760
▁второ	-7761
▁кенже	-7762
▁лобва	-7763
▁лужки	-7764
▁лунёв	-7765
▁ляман	-7766
▁маджи	-7767
▁малин	-7768
▁малое	-7769
▁малый	-7770
▁манук	-7771
▁марию	-7772
▁марфи	-7773
▁махма	-7774
▁медиц	-7775
▁минге	-7776
▁минин	-7777
▁мираг	-7778
▁мирба	-7779
▁можай	-7780
▁мокре	-7781
▁молот	-7782
▁морус	-7783
▁мурат	-7784
▁назна	-7785
▁неман	-7786
▁неску	-7787
▁никоп	-7788
▁обход	-7789
▁оруже	-7790
▁палла	-7791
▁парус	-7792
▁перси	-7793
▁пионе	-7794
▁писку	-7795
▁подол	-7796
▁попри	-7797
▁пропи	-7798
▁путин	-7799
вес	-7800
вец	-7801
ище	-7802
мум	-7803
спе	-7804
вина	-7805
зный	-7806
иназ	-7807
курп	-7808
ралы	-7809
рема	-7810
яжма	-7811
яман	-7812
▁рад	-7813
▁раш	-7814
▁чон	-7815
▁чуд	-7816
▁чур	-7817
мания	-7818
обово	-7819
орина	-7820
рашин	-7821
ридон	-7822
скина	-7823
спече	-7824
урный	-7825
цовка	-7826
щеево	-7827
▁милю	-7828
▁отде	-7829
▁отра	-7830
▁приб	-7831
▁циол	-7832
▁ярав	-7833
ангиль	-7834
ереван	-7835
конова	-7836
ражный	-7837
▁анань	-7838
▁верче	-7839
▁джузи	-7840
▁рамин	-7841
▁расте	-7842
▁рафис	-7843
▁рашид	-7844
▁резер	-7845
▁розов	-7846
▁росин	-7847
▁руста	-7848
▁рыжак	-7849
▁сабыт	-7850
▁самед	-7851
▁свири	-7852
▁связи	-7853
▁селен	-7854
▁сибко	-7855
▁сиваш	-7856
▁синяв	-7857
▁сокра	-7858
▁сомов	-7859
▁сталь	-7860
▁стань	-7861
▁стран	-7862
▁сухум	-7863
▁талас	-7864
▁танки	-7865
▁татев	-7866
▁терек	-7867
▁тквар	-7868
▁топты	-7869
▁туриз	-7870
▁фанта	-7871
▁февра	-7872
▁фенун	-7873
▁фидан	-7874
▁хамза	-7875
▁хапан	-7876
▁хачат	-7877
▁царев	-7878
▁цыден	-7879
▁чаада	-7880
▁черви	-7881
▁чиназ	-7882
▁чулым	-7883
▁шента	-7884
▁шесть	-7885
▁шираз	-7886
▁шишев	-7887
▁эйваз	-7888
▁эману	-7889
▁южноб	-7890
▁юрьян	-7891
▁язева	-7892
▁яруга	-7893
айкской	-7894
алиевич	-7895
алиндер	-7896
алистов	-7897
алыкова	-7898
аметько	-7899
аул	-7900
знь	-7901
люч	-7902
сук	-7903
сул	-7904
убл	-7905
хол	-7906
цюр	-7907
чки	-7908
щал	-7909
ьки	-7910
юки	-7911
▁фе	-7912
гогр	-7913
гран	-7914
долж	-7915
елки	-7916
ключ	-7917
кову	-7918
кцию	-7919
лега	-7920
лета	-7921
лики	-7922
овол	-7923
огии	-7924
тула	-7925
хаев	-7926
▁аки	-7927
▁озн	-7928
▁хва	-7929
азово	-7930
аново	-7931
брика	-7932
говое	-7933
елово	-7934
ельхо	-7935
женки	-7936
оволь	-7937
опубл	-7938
очуры	-7939
рамен	-7940
рыкин	-7941
укцию	-7942
▁глоб	-7943
▁гпом	-7944
▁губа	-7945
▁коре	-7946
▁наче	-7947
▁поим	-7948
▁райс	-7949
▁скто	-7950
▁хеда	-7951
анихол	-7952
аторов	-7953
гольша	-7954
джский	-7955
емовна	-7956
еромор	-7957
касова	-7958
ригань	-7959
султан	-7960
цюрупы	-7961
юбинск	-7962
▁горяч	-7963
▁жизнь	-7964
▁калин	-7965
▁куюки	-7966
▁подга	-7967
▁тихан	-7968
▁эдуар	-7969
анихова	-7970
араевна	-7971
арского	-7972
асского	-7973
ахмадов	-7974
багаева	-7975
баевича	-7976
баровна	-7977
бинскмй	-7978
битович	-7979
бокарев	-7980
больный	-7981
венская	-7982
воронки	-7983
ворцова	-7984
гасаров	-7985
гитовой	-7986
гогаева	-7987
гольчон	-7988
городиз	-7989
городле	-7990
городли	-7991
городлы	-7992
городма	-7993
городпо	-7994
горское	-7995
граждан	-7996
джетных	-7997
джихаев	-7998
дзусова	-7999
рян	-8000
асрт	-8001
диев	-8002
ития	-8003
лоны	-8004
меша	-8005
ннам	-8006
отра	-8007
подв	-8008
ёнов	-8009
▁гам	-8010
▁оди	-8011
▁шал	-8012
арист	-8013
венце	-8014
волга	-8015
ковец	-8016
убова	-8017
чатск	-8018
ьевне	-8019
юткин	-8020
▁анне	-8021
▁данд	-8022
▁дрез	-8023
▁мосц	-8024
▁тюль	-8025
▁шкул	-8026
биевна	-8027
енкино	-8028
лиевна	-8029
родова	-8030
▁балин	-8031
▁верев	-8032
▁гамаю	-8033
▁залещ	-8034
▁заура	-8035
▁илоны	-8036
▁каспи	-8037
▁кокон	-8038
▁момен	-8039
▁рожде	-8040
▁рубан	-8041
▁смако	-8042
▁специ	-8043
▁тадэу	-8044
▁тарак	-8045
▁тимир	-8046
▁устюг	-8047
▁цырен	-8048
венцека	-8049
гилдиев	-8050
дорснаб	-8051
дратюка	-8052
дустриа	-8053
дыковой	-8054
дюскина	-8055
евалово	-8056
еделина	-8057
елковая	-8058
ендеева	-8059
ербаков	-8060
засеева	-8061
зидание	-8062
зуарика	-8063
канский	-8064
кашкина	-8065
кинский	-8066
климова	-8067
койский	-8068
копская	-8069
кумский	-8070
лакский	-8071
ластный	-8072
леватор	-8073
лекский	-8074
ллаевич	-8075
лукский	-8076
ляйнена	-8077
ляксого	-8078
лянский	-8079
ляренко	-8080
майлова	-8081
манович	-8082
мострой	-8083
мышская	-8084
нармеша	-8085
невосто	-8086
никовна	-8087
нологии	-8088
нуровна	-8089
нягиной	-8090
няховск	-8091
обского	-8092
огрнинн	-8093
одежный	-8094
одубрав	-8095
онецкая	-8096
орстрой	-8097
отрадин	-8098
пишкина	-8099
аед	-8100
ахо	-8101
укт	-8102
унц	-8103
▁ед	-8104
гире	-8105
гиша	-8106
дыду	-8107
едов	-8108
ерги	-8109
ракт	-8110
сини	-8111
суан	-8112
сьва	-8113
чной	-8114
▁дед	-8115
▁ефи	-8116
▁зеу	-8117
▁низ	-8118
▁ним	-8119
▁нст	-8120
▁опр	-8121
▁тос	-8122
гиров	-8123
годня	-8124
душка	-8125
ерова	-8126
еткин	-8127
митед	-8128
санкт	-8129
ярная	-8130
▁айна	-8131
▁двор	-8132
▁кукс	-8133
▁нург	-8134
▁пахо	-8135
▁пунц	-8136
▁томю	-8137
▁шваб	-8138
билиси	-8139
годняш	-8140
городи	-8141
дыдущи	-8142
майкоп	-8143
рожина	-8144
синило	-8145
▁актан	-8146
▁дворы	-8147
▁луков	-8148
▁мамон	-8149
▁муаед	-8150
▁фавас	-8151
гишамол	-8152
городжу	-8153
городст	-8154
дыдущие	-8155
пранова	-8156
прежняя	-8157
придоро	-8158
продукт	-8159
промтор	-8160
пунктзе	-8161
рамкент	-8162
решения	-8163
ридович	-8164
ридовны	-8165
ридонов	-8166
робогат	-8167
ромской	-8168
росенко	-8169
рослава	-8170
рустали	-8171
сайский	-8172
сенское	-8173
скунчак	-8174
сстания	-8175
страции	-8176
тажного	-8177
тальина	-8178
тренных	-8179
туновны	-8180
тырский	-8181
убаевой	-8182
убарова	-8183
уланова	-8184
улицако	-8185
улицаме	-8186
улицапр	-8187
улицаро	-8188
улицаса	-8189
улицафа	-8190
улицаюб	-8191
уманова	-8192
унского	-8193
урского	-8194
усского	-8195
фабрика	-8196
фряново	-8197
фсоюзов	-8198
хакович	-8199
виш	-8200
вог	-8201
вош	-8202
сик	-8203
сим	-8204
сит	-8205
сию	-8206
уво	-8207
ёво	-8208
белг	-8209
вино	-8210
дога	-8211
лево	-8212
миля	-8213
сиев	-8214
сиси	-8215
▁для	-8216
▁рит	-8217
▁хри	-8218
висит	-8219
ельев	-8220
канян	-8221
летты	-8222
устюг	-8223
янина	-8224
▁анти	-8225
▁арти	-8226
▁ваха	-8227
▁иман	-8228
▁свог	-8229
батова	-8230
брянка	-8231
дулёво	-8232
менным	-8233
олетты	-8234
омутни	-8235
уворов	-8236
шамиля	-8237
яковой	-8238
▁андро	-8239
▁асель	-8240
▁гисик	-8241
▁ильфа	-8242
▁кабин	-8243
▁кунер	-8244
▁мкртч	-8245
▁панфе	-8246
▁рыбин	-8247
▁савош	-8248
▁ульев	-8249
виновой	-8250
ельного	-8251
ельства	-8252
коустюг	-8253
мановка	-8254
менгско	-8255
отечная	-8256
утакова	-8257
ханович	-8258
хановна	-8259
хгорный	-8260
хилково	-8261
хирович	-8262
чанский	-8263
чапаева	-8264
ченкина	-8265
черский	-8266
чишкина	-8267
шавиной	-8268
шаровка	-8269
шатовой	-8270
шинское	-8271
шкевича	-8272
ырупаев	-8273
яккинен	-8274
ярского	-8275
ясоедов	-8276
▁алуева	-8277
▁амамло	-8278
▁аминов	-8279
▁андрею	-8280
▁анжела	-8281
▁арбитр	-8282
▁армине	-8283
▁артупа	-8284
▁аршина	-8285
▁аслана	-8286
▁атрачи	-8287
▁бабаёв	-8288
▁балтай	-8289
▁батаев	-8290
▁батури	-8291
▁баянов	-8292
▁бердск	-8293
▁бондар	-8294
▁братов	-8295
▁брилли	-8296
▁булуса	-8297
▁ведено	-8298
▁вилван	-8299
алк	-8300
цца	-8301
чал	-8302
авин	-8303
енно	-8304
ерав	-8305
лице	-8306
малт	-8307
селе	-8308
узон	-8309
утыр	-8310
халк	-8311
чаур	-8312
▁вас	-8313
▁фид	-8314
бутыр	-8315
гинск	-8316
дравы	-8317
ерсал	-8318
леино	-8319
лютка	-8320
морав	-8321
▁ваку	-8322
▁заше	-8323
▁ишим	-8324
▁колы	-8325
▁коси	-8326
▁лице	-8327
▁сани	-8328
▁серп	-8329
▁сура	-8330
етыбай	-8331
инвест	-8332
обенно	-8333
сеенко	-8334
тарева	-8335
шдузон	-8336
ысевич	-8337
▁байсу	-8338
▁батыр	-8339
▁брати	-8340
▁васюк	-8341
▁пицца	-8342
▁савру	-8343
▁умалт	-8344
▁усова	-8345
▁фидря	-8346
▁хотел	-8347
▁щучье	-8348
▁элвин	-8349
алиевой	-8350
бинцева	-8351
бутырки	-8352
высокие	-8353
зитовна	-8354
лаповна	-8355
мировна	-8356
муровна	-8357
ниболот	-8358
никович	-8359
шадовна	-8360
▁верхее	-8361
▁вингри	-8362
▁волост	-8363
▁геттин	-8364
▁глават	-8365
▁горлев	-8366
▁городз	-8367
▁городй	-8368
▁городп	-8369
▁губжев	-8370
▁гянджа	-8371
▁дальне	-8372
▁дениса	-8373
▁джалал	-8374
▁джишка	-8375
▁доброс	-8376
▁долгод	-8377
▁должни	-8378
▁долмат	-8379
▁дорога	-8380
▁еткуль	-8381
▁ефимов	-8382
▁жалали	-8383
▁живаев	-8384
▁жмуров	-8385
▁запоро	-8386
▁зубков	-8387
▁зубова	-8388
▁зульпу	-8389
▁ильича	-8390
▁кайнар	-8391
▁канука	-8392
▁карина	-8393
▁карсун	-8394
▁касьян	-8395
▁катино	-8396
▁кемерв	-8397
▁киевск	-8398
▁кизилю	-8399
кый	-8400
пша	-8401
ссы	-8402
уян	-8403
хой	-8404
цио	-8405
есян	-8406
етру	-8407
етян	-8408
манж	-8409
нчук	-8410
стуг	-8411
унья	-8412
▁вой	-8413
▁глы	-8414
▁маж	-8415
▁най	-8416
▁нау	-8417
▁пой	-8418
▁уян	-8419
▁шов	-8420
говна	-8421
датов	-8422
калуж	-8423
комму	-8424
курча	-8425
рыкый	-8426
стень	-8427
хтияр	-8428
▁гюль	-8429
▁наги	-8430
▁наза	-8431
▁петю	-8432
▁пота	-8433
▁сами	-8434
▁хава	-8435
алович	-8436
ахиной	-8437
ветмет	-8438
женков	-8439
ксетян	-8440
ойский	-8441
стугул	-8442
хзавод	-8443
▁аманж	-8444
▁еманж	-8445
▁кочет	-8446
▁массы	-8447
▁пресн	-8448
▁тотем	-8449
баговна	-8450
бадатов	-8451
жановой	-8452
латский	-8453
орончук	-8454
сурович	-8455
хзавода	-8456
ционная	-8457
чекурча	-8458
янского	-8459
▁бриент	-8460
▁войкус	-8461
▁киптев	-8462
▁кишкин	-8463
▁коелга	-8464
▁кольчу	-8465
▁корева	-8466
▁корпус	-8467
▁костан	-8468
▁крылов	-8469
▁кубань	-8470
▁кубово	-8471
▁кумсан	-8472
▁левада	-8473
▁легина	-8474
▁летная	-8475
▁ликино	-8476
▁лолиты	-8477
▁майзин	-8478
▁мануев	-8479
▁мардак	-8480
▁меньши	-8481
▁мерген	-8482
▁мерова	-8483
▁местои	-8484
▁местоо	-8485
▁миллер	-8486
▁модуль	-8487
▁моздок	-8488
▁момент	-8489
▁моцкус	-8490
▁мураве	-8491
▁надзор	-8492
▁намние	-8493
▁нижнеж	-8494
▁новоля	-8495
▁новосп	-8496
▁новоуз	-8497
▁нурдин	-8498
▁огород	-8499
гаф	-8500
тас	-8501
аков	-8502
вера	-8503
верх	-8504
верш	-8505
гаев	-8506
дков	-8507
ковы	-8508
лита	-8509
ниже	-8510
оева	-8511
тень	-8512
яева	-8513
▁мик	-8514
▁поз	-8515
▁тлк	-8516
▁шве	-8517
▁шла	-8518
▁шля	-8519
бинин	-8520
дкова	-8521
ерего	-8522
ухово	-8523
цовая	-8524
▁вира	-8525
▁куля	-8526
▁маро	-8527
▁рога	-8528
▁улет	-8529
бирюль	-8530
гафури	-8531
ендеры	-8532
пунктч	-8533
руется	-8534
сцовая	-8535
▁вавил	-8536
▁заков	-8537
▁маков	-8538
▁наира	-8539
▁нарат	-8540
▁новоя	-8541
▁орлов	-8542
▁сулин	-8543
▁шлапа	-8544
ального	-8545
герская	-8546
иражная	-8547
казский	-8548
леников	-8549
мовская	-8550
улицапу	-8551
усалиев	-8552
▁боганд	-8553
▁заявок	-8554
▁куляим	-8555
▁лашина	-8556
▁маросе	-8557
▁новоро	-8558
▁околот	-8559
▁орская	-8560
▁павеле	-8561
▁пайзул	-8562
▁поддуб	-8563
▁подлуж	-8564
▁подсер	-8565
▁предус	-8566
▁проект	-8567
▁промаг	-8568
▁публич	-8569
▁развед	-8570
▁рамиль	-8571
▁раство	-8572
▁ратная	-8573
▁рахмат	-8574
▁регион	-8575
▁редина	-8576
▁репчат	-8577
▁ржаниц	-8578
▁ритейл	-8579
▁родник	-8580
▁рожков	-8581
▁роланд	-8582
▁рузана	-8583
▁румиса	-8584
▁рустам	-8585
▁савост	-8586
▁сайфут	-8587
▁саниба	-8588
▁сарман	-8589
▁сармат	-8590
▁семибу	-8591
▁сергею	-8592
▁серков	-8593
▁синева	-8594
▁синель	-8595
▁синицы	-8596
▁сланцы	-8597
▁соловь	-8598
▁станец	-8599
иах	-8600
кпп	-8601
сос	-8602
▁лэ	-8603
авлы	-8604
нере	-8605
ором	-8606
стик	-8607
тури	-8608
эзер	-8609
▁илк	-8610
▁лор	-8611
▁осн	-8612
баган	-8613
жеева	-8614
йкова	-8615
курск	-8616
лишин	-8617
ркова	-8618
укова	-8619
цкова	-8620
юнина	-8621
ёмова	-8622
▁баби	-8623
▁доне	-8624
▁ерав	-8625
▁коня	-8626
▁лэдж	-8627
▁наср	-8628
▁филю	-8629
▁чижи	-8630
ельман	-8631
жикова	-8632
илором	-8633
кастан	-8634
киевск	-8635
кокова	-8636
листан	-8637
мадова	-8638
нигина	-8639
▁балаб	-8640
▁брянс	-8641
▁елаев	-8642
▁заева	-8643
▁заров	-8644
▁короб	-8645
▁рыбал	-8646
▁сабир	-8647
▁танца	-8648
▁шилов	-8649
ивченко	-8650
тучково	-8651
хажеева	-8652
хмельни	-8653
чиркова	-8654
▁астрах	-8655
▁катана	-8656
▁монахо	-8657
▁мусина	-8658
▁прошло	-8659
▁старор	-8660
▁статус	-8661
▁структ	-8662
▁тавели	-8663
▁талгат	-8664
▁талдом	-8665
▁тамбов	-8666
▁техноп	-8667
▁тигран	-8668
▁титова	-8669
▁ткварч	-8670
▁трипад	-8671
▁троицк	-8672
▁трощий	-8673
▁тугова	-8674
▁турсун	-8675
▁удугуч	-8676
▁улицад	-8677
▁упоров	-8678
▁участв	-8679
▁фучика	-8680
▁хазиах	-8681
▁ханмет	-8682
▁цагова	-8683
▁целина	-8684
▁цибино	-8685
▁чакина	-8686
▁черему	-8687
▁чурина	-8688
▁шарова	-8689
▁шемона	-8690
▁шоссей	-8691
▁шуркан	-8692
▁щеголь	-8693
▁эллина	-8694
▁эмилия	-8695
▁юдиной	-8696
▁юлиана	-8697
▁яльчик	-8698
▁янское	-8699
кру	-8700
отс	-8701
укр	-8702
горь	-8703
жану	-8704
маев	-8705
унец	-8706
усов	-8707
▁алб	-8708
▁бау	-8709
▁ишк	-8710
▁кул	-8711
▁муе	-8712
▁опо	-8713
▁хлы	-8714
крути	-8715
ломов	-8716
носов	-8717
петро	-8718
циева	-8719
▁алга	-8720
▁ахат	-8721
▁барк	-8722
▁киби	-8723
▁курь	-8724
▁лево	-8725
▁уфим	-8726
айкино	-8727
атулло	-8728
баевич	-8729
девицк	-8730
елиной	-8731
отсдам	-8732
▁аббас	-8733
▁булан	-8734
▁мален	-8735
▁мелен	-8736
▁опред	-8737
▁прайд	-8738
горская	-8739
зевский	-8740
камский	-8741
маровна	-8742
начеева	-8743
ольство	-8744
тистрой	-8745
▁алгаши	-8746
▁гимаев	-8747
▁кардов	-8748
▁кулунд	-8749
▁муезер	-8750
▁несост	-8751
▁опочка	-8752
▁улицал	-8753
▁улицаш	-8754
▁яровой	-8755
автомати	-8756
адышский	-8757
амадовна	-8758
амедович	-8759
андского	-8760
балаково	-8761
банчеево	-8762
бековича	-8763
бердиева	-8764
вичилова	-8765
вишневка	-8766
вобожден	-8767
вобокова	-8768
гайского	-8769
ганского	-8770
говского	-8771
городная	-8772
городниж	-8773
городный	-8774
городсев	-8775
городтал	-8776
горького	-8777
делеевка	-8778
диозавод	-8779
диятовны	-8780
дорстрой	-8781
ежинская	-8782
еловская	-8783
еметьева	-8784
жановича	-8785
закского	-8786
запчасть	-8787
зинского	-8788
зуевский	-8789
ивановка	-8790
ительный	-8791
йляксого	-8792
карамова	-8793
коммунар	-8794
корсаков	-8795
красовой	-8796
ктимиров	-8797
кяккинен	-8798
лавского	-8799
бес	-8800
соц	-8801
▁зт	-8802
>,-<	-8803
баку	-8804
кувы	-8805
леба	-8806
лень	-8807
раты	-8808
руши	-8809
сола	-8810
таба	-8811
▁авр	-8812
▁быв	-8813
▁кад	-8814
▁кап	-8815
▁каш	-8816
▁шей	-8817
жевка	-8818
зимир	-8819
камут	-8820
онбек	-8821
райск	-8822
ропот	-8823
ханди	-8824
▁капи	-8825
▁клен	-8826
▁носа	-8827
▁саши	-8828
▁шлен	-8829
▁штай	-8830
▁эрен	-8831
▁янды	-8832
бакова	-8833
беслан	-8834
едовая	-8835
здкина	-8836
нечный	-8837
никола	-8838
ропрод	-8839
▁ассоц	-8840
▁карих	-8841
▁семин	-8842
▁хабиб	-8843
булагат	-8844
востока	-8845
гинцева	-8846
донская	-8847
кувыкта	-8848
патруши	-8849
ратский	-8850
саренко	-8851
солапов	-8852
▁караты	-8853
▁комрат	-8854
▁омский	-8855
▁хасейн	-8856
▁штайнб	-8857
▁шукова	-8858
▁юность	-8859
▁яндыки	-8860
аковский	-8861
исуплеба	-8862
левского	-8863
манского	-8864
машукова	-8865
мезского	-8866
назарова	-8867
никольск	-8868
нограева	-8869
овичский	-8870
одгорная	-8871
озерское	-8872
оловьева	-8873
оложский	-8874
ональное	-8875
ондарева	-8876
оновская	-8877
орусская	-8878
оубиевич	-8879
пашаевна	-8880
поварово	-8881
приморск	-8882
пристань	-8883
прудский	-8884
пунктзна	-8885
рактовая	-8886
ратовичу	-8887
риховича	-8888
сельская	-8889
станский	-8890
старцева	-8891
страхань	-8892
талиевна	-8893
тельмана	-8894
теперего	-8895
тинского	-8896
удиновна	-8897
уковская	-8898
улицават	-8899
оча	-8900
сса	-8901
тих	-8902
тым	-8903
фул	-8904
ссии	-8905
цива	-8906
ьяна	-8907
▁зая	-8908
▁зер	-8909
▁пти	-8910
▁тюм	-8911
ловян	-8912
ромин	-8913
ыштым	-8914
▁бабе	-8915
▁бары	-8916
▁ибря	-8917
▁коко	-8918
▁торф	-8919
рунова	-8920
тихвин	-8921
торгов	-8922
торный	-8923
унямед	-8924
харова	-8925
чагина	-8926
шкиной	-8927
▁газим	-8928
▁корен	-8929
▁коров	-8930
▁птице	-8931
▁русса	-8932
▁торба	-8933
бийская	-8934
булиной	-8935
лощапов	-8936
рейская	-8937
цивадзе	-8938
▁арифул	-8939
▁артуру	-8940
▁волтор	-8941
▁заякин	-8942
▁коксов	-8943
▁кубани	-8944
▁кыштым	-8945
▁мартын	-8946
▁оловян	-8947
▁поступ	-8948
▁сообщи	-8949
▁хабиба	-8950
▁хайрул	-8951
илецкого	-8952
матюнина	-8953
улицагат	-8954
улицакос	-8955
улицакуб	-8956
улицанеф	-8957
уллоевна	-8958
ультатах	-8959
унямедин	-8960
уроженки	-8961
уторовск	-8962
уховская	-8963
ушевской	-8964
ушманова	-8965
фудрыков	-8966
цивильск	-8967
чаевская	-8968
чичерина	-8969
ширского	-8970
шковский	-8971
ызякский	-8972
ьютерные	-8973
юскинцев	-8974
явежский	-8975
язевское	-8976
ячалково	-8977
▁акбулак	-8978
▁алексею	-8979
▁альбина	-8980
▁ананьев	-8981
▁антонов	-8982
▁антраци	-8983
▁арамиль	-8984
▁ахметов	-8985
▁аштахма	-8986
▁ашхабад	-8987
▁бабешко	-8988
▁байгора	-8989
▁бакуров	-8990
▁балашов	-8991
▁барклая	-8992
▁барское	-8993
▁белунди	-8994
▁беляева	-8995
▁бендеры	-8996
▁бибитов	-8997
▁бобровы	-8998
▁богачев	-8999
жья	-9000
▁яд	-9001
генч	-9002
ткач	-9003
шеви	-9004
▁пуш	-9005
▁яга	-9006
▁яль	-9007
▁яма	-9008
адная	-9009
гауши	-9010
латов	-9011
льное	-9012
люжья	-9013
мовны	-9014
новов	-9015
усово	-9016
хеева	-9017
шевик	-9018
▁авау	-9019
▁акса	-9020
▁аста	-9021
▁джем	-9022
▁лига	-9023
▁лили	-9024
▁лини	-9025
арское	-9026
никову	-9027
усевич	-9028
шедрин	-9029
▁карбы	-9030
▁орган	-9031
▁посол	-9032
▁пушма	-9033
▁ягафа	-9034
▁яльчи	-9035
ападная	-9036
емеевна	-9037
пшеньга	-9038
редасов	-9039
ровское	-9040
ткачёва	-9041
хазская	-9042
▁альфия	-9043
▁горное	-9044
▁донецк	-9045
▁инзиля	-9046
▁карамз	-9047
▁качева	-9048
▁кирина	-9049
▁курина	-9050
▁майков	-9051
▁мокина	-9052
▁талщик	-9053
▁торему	-9054
▁тутова	-9055
▁ургенч	-9056
▁хусейн	-9057
жвинский	-9058
моргауши	-9059
нковское	-9060
уземовна	-9061
чуевской	-9062
▁богдана	-9063
▁борисов	-9064
▁булатов	-9065
▁ваганов	-9066
▁ванеева	-9067
▁верхнее	-9068
▁вершина	-9069
▁виников	-9070
▁власова	-9071
▁вьюжный	-9072
▁газпром	-9073
▁гараеву	-9074
▁гарибян	-9075
▁гариева	-9076
▁георгиу	-9077
▁гоголев	-9078
▁горадиз	-9079
▁горбань	-9080
▁городах	-9081
▁городаш	-9082
▁городми	-9083
▁городор	-9084
▁городча	-9085
▁горский	-9086
▁губенко	-9087
▁гумиров	-9088
▁дальний	-9089
▁демьяна	-9090
▁джемрук	-9091
▁дондина	-9092
▁донелай	-9093
▁екатери	-9094
▁елишева	-9095
▁ефимова	-9096
▁жвакина	-9097
▁зависит	-9098
▁загорск	-9099
даш	-9100
йун	-9101
фун	-9102
далс	-9103
дара	-9104
зска	-9105
льда	-9106
нтер	-9107
отпп	-9108
▁тей	-9109
▁хиз	-9110
▁шун	-9111
анной	-9112
даева	-9113
ербат	-9114
лиона	-9115
нтерн	-9116
приво	-9117
ровал	-9118
хаева	-9119
▁ахты	-9120
▁белг	-9121
▁наха	-9122
▁нова	-9123
▁хале	-9124
анышев	-9125
дарова	-9126
дбегов	-9127
ланова	-9128
повцев	-9129
фундур	-9130
цызска	-9131
▁белок	-9132
▁белом	-9133
▁ворон	-9134
▁ворош	-9135
▁мурид	-9136
▁присе	-9137
▁суйун	-9138
▁федер	-9139
▁чулат	-9140
▁юрова	-9141
бекович	-9142
далсоло	-9143
еевская	-9144
ербатых	-9145
лановна	-9146
митрова	-9147
фрязино	-9148
фундуры	-9149
ьяновны	-9150
▁айдара	-9151
▁бурчик	-9152
▁винова	-9153
▁гнедаш	-9154
▁дигора	-9155
▁катина	-9156
▁планах	-9157
▁сталин	-9158
▁тверск	-9159
▁фокино	-9160
▁цимбал	-9161
▁шильда	-9162
▁шунько	-9163
анизатор	-9164
анышевич	-9165
зованной	-9166
шенцевой	-9167
▁бехаева	-9168
▁здвинск	-9169
▁зеленое	-9170
▁зорькин	-9171
▁зотовой	-9172
▁ильмира	-9173
▁имущест	-9174
▁инногрн	-9175
▁казанка	-9176
▁казинка	-9177
▁камилла	-9178
▁каралар	-9179
▁каховка	-9180
▁килимат	-9181
▁кильдин	-9182
▁кирилла	-9183
▁клыпина	-9184
▁кононых	-9185
▁коняхин	-9186
▁косимов	-9187
▁котовой	-9188
▁красиль	-9189
▁краснов	-9190
▁красноф	-9191
▁крутень	-9192
▁кугенер	-9193
▁куксова	-9194
▁кунаева	-9195
▁латушко	-9196
▁леушина	-9197
▁лидский	-9198
▁лобанов	-9199
ахов	-9200
вода	-9201
ушах	-9202
▁гау	-9203
▁ере	-9204
▁кру	-9205
▁лев	-9206
▁сит	-9207
▁утв	-9208
▁хит	-9209
газиз	-9210
еенко	-9211
изули	-9212
морск	-9213
обиль	-9214
ракск	-9215
сенко	-9216
▁акра	-9217
▁дела	-9218
▁депи	-9219
▁зинь	-9220
▁курб	-9221
▁нере	-9222
▁урез	-9223
година	-9224
одовой	-9225
рекалю	-9226
улицащ	-9227
улицаэ	-9228
▁дебин	-9229
▁залия	-9230
▁кручи	-9231
▁кунов	-9232
▁марха	-9233
▁ратис	-9234
▁халыг	-9235
▁шипун	-9236
улицаин	-9237
▁абушах	-9238
▁айрата	-9239
▁солтон	-9240
▁станко	-9241
▁физули	-9242
▁хитрук	-9243
▁шалова	-9244
▁ялыныч	-9245
новского	-9246
нцевский	-9247
онерская	-9248
▁арданов	-9249
▁варвара	-9250
▁василия	-9251
▁васиной	-9252
▁депилян	-9253
▁еремину	-9254
▁изобиль	-9255
▁исакова	-9256
▁крайнов	-9257
▁левшина	-9258
▁людмилы	-9259
▁малакан	-9260
▁марселя	-9261
▁масират	-9262
▁матрена	-9263
▁меликли	-9264
▁местона	-9265
▁мехралы	-9266
▁мещанов	-9267
▁минимум	-9268
▁михаилу	-9269
▁молдаба	-9270
▁монахос	-9271
▁морозов	-9272
▁мухамет	-9273
▁надкина	-9274
▁нежинка	-9275
▁нерехта	-9276
▁нижнеин	-9277
▁никонов	-9278
▁новомих	-9279
▁новопос	-9280
▁носачев	-9281
▁обухово	-9282
▁озерная	-9283
▁осенний	-9284
▁осташко	-9285
▁ошуевой	-9286
▁павлова	-9287
▁панахов	-9288
▁перекре	-9289
▁платова	-9290
▁постель	-9291
▁продажи	-9292
▁прямого	-9293
▁пунктме	-9294
▁пунктпе	-9295
▁пятаков	-9296
▁райкова	-9297
▁раменье	-9298
▁региона	-9299
>:<	-9300
ксм	-9301
луг	-9302
меу	-9303
рых	-9304
▁жр	-9305
дорт	-9306
кома	-9307
межд	-9308
сале	-9309
ятся	-9310
▁гут	-9311
▁жар	-9312
▁жун	-9313
▁тис	-9314
гаард	-9315
ислав	-9316
невич	-9317
ортов	-9318
осина	-9319
тоева	-9320
щиков	-9321
▁грин	-9322
▁гряз	-9323
▁давы	-9324
▁змеу	-9325
▁зрых	-9326
▁суль	-9327
▁турп	-9328
ленчук	-9329
лукина	-9330
питаль	-9331
съезда	-9332
▁винни	-9333
▁влксм	-9334
▁казым	-9335
▁несме	-9336
▁члена	-9337
высоких	-9338
луганск	-9339
ортовик	-9340
ревкома	-9341
стополь	-9342
тальный	-9343
тсъезда	-9344
▁мадины	-9345
▁поддер	-9346
▁сульма	-9347
▁терноп	-9348
▁тисуль	-9349
▁чистое	-9350
▁чонгар	-9351
▁юневич	-9352
бревкома	-9353
дортранс	-9354
междуреч	-9355
оспиталь	-9356
промбанк	-9357
ственное	-9358
щеникова	-9359
▁барсуан	-9360
▁валерии	-9361
▁воевода	-9362
▁гринтау	-9363
▁лютоева	-9364
▁отсутст	-9365
▁решению	-9366
▁решетов	-9367
▁росинка	-9368
▁рузский	-9369
▁руясола	-9370
▁савиной	-9371
▁самигул	-9372
▁свитова	-9373
▁селение	-9374
▁сельско	-9375
▁серпова	-9376
▁симонян	-9377
▁системы	-9378
▁смолева	-9379
▁соловец	-9380
▁солонцы	-9381
▁солянка	-9382
▁социаль	-9383
▁спорное	-9384
▁ставроп	-9385
▁степани	-9386
▁стратег	-9387
▁сумской	-9388
▁сурнина	-9389
▁сусанна	-9390
▁табошар	-9391
▁талипов	-9392
▁талпаки	-9393
▁таранай	-9394
▁тбилиси	-9395
▁толстое	-9396
▁трофимо	-9397
▁трунова	-9398
▁туймазы	-9399
бей	-9400
гтя	-9401
лож	-9402
цак	-9403
амбе	-9404
вием	-9405
галы	-9406
кмыш	-9407
лоск	-9408
мжан	-9409
синь	-9410
тиса	-9411
▁жуй	-9412
▁зиз	-9413
анько	-9414
логов	-9415
локов	-9416
отока	-9417
уркан	-9418
ходня	-9419
чилов	-9420
шевел	-9421
шевна	-9422
язань	-9423
январ	-9424
ёжная	-9425
▁куак	-9426
▁мана	-9427
▁рига	-9428
▁руче	-9429
▁томс	-9430
▁томф	-9431
базалы	-9432
баргуз	-9433
вороты	-9434
елебей	-9435
ерзева	-9436
кмышин	-9437
славны	-9438
января	-9439
▁анвар	-9440
▁борки	-9441
▁дегтя	-9442
▁калан	-9443
▁самот	-9444
амбеева	-9445
елизово	-9446
каргалы	-9447
планово	-9448
хонским	-9449
▁куаклы	-9450
▁пенцак	-9451
▁покров	-9452
▁светли	-9453
▁цуркан	-9454
▁шапова	-9455
баргузин	-9456
емипалат	-9457
мжановна	-9458
синьково	-9459
славовна	-9460
шевелёва	-9461
▁абдилож	-9462
▁белебей	-9463
▁валерик	-9464
▁городбе	-9465
▁жуйкова	-9466
▁карачан	-9467
▁манаева	-9468
▁налогов	-9469
▁сучилов	-9470
▁татьяне	-9471
▁таёжная	-9472
▁туризма	-9473
▁улицаар	-9474
▁улицаба	-9475
▁улицаво	-9476
▁улицаге	-9477
▁улицако	-9478
▁улицары	-9479
▁улицаси	-9480
▁фадеева	-9481
▁фатимат	-9482
▁халезин	-9483
▁хаятова	-9484
▁черемуш	-9485
▁чуйская	-9486
▁шабаева	-9487
▁шабышев	-9488
▁шакиров	-9489
▁шаренко	-9490
▁шейхова	-9491
▁шишовка	-9492
▁штанько	-9493
▁шумкова	-9494
▁эскенде	-9495
▁юмабаев	-9496
▁яльчики	-9497
▁яравтод	-9498
▁ярисова	-9499
жир	-9500
сак	-9501
▁цк	-9502
атый	-9503
вилю	-9504
вьев	-9505
голю	-9506
елем	-9507
овый	-9508
роса	-9509
▁оса	-9510
▁плю	-9511
▁цем	-9512
варна	-9513
зеева	-9514
манжи	-9515
морзо	-9516
▁золо	-9517
▁скры	-9518
▁утес	-9519
анкуль	-9520
люкова	-9521
морзох	-9522
нинный	-9523
тивный	-9524
ёненко	-9525
▁алжир	-9526
▁гаяне	-9527
▁кредо	-9528
▁кушвы	-9529
▁минта	-9530
▁новые	-9531
▁олеси	-9532
▁сержи	-9533
▁скрып	-9534
▁халту	-9535
ужского	-9536
ульский	-9537
цовский	-9538
чанская	-9539
▁боголю	-9540
▁котово	-9541
▁лаптев	-9542
▁плюхин	-9543
▁спроса	-9544
портовый	-9545
радченко	-9546
синского	-9547
▁андрусь	-9548
▁городжи	-9549
▁джанкой	-9550
▁калибер	-9551
▁кизеева	-9552
▁кишинёв	-9553
▁курсова	-9554
▁павлово	-9555
▁рождест	-9556
▁садовый	-9557
▁сиренко	-9558
▁ясногор	-9559
аволжская	-9560
алиевский	-9561
аристовой	-9562
ахмедович	-9563
аясеневая	-9564
брусилова	-9565
бурундуки	-9566
ведомляет	-9567
вилюйский	-9568
городвсев	-9569
греческое	-9570
дмитровка	-9571
еленоград	-9572
енделеево	-9573
ерального	-9574
ерешковой	-9575
ерсеневка	-9576
заводской	-9577
зубрилова	-9578
калинский	-9579
кальского	-9580
карманово	-9581
конструкт	-9582
крутицкий	-9583
кузнецова	-9584
кулукский	-9585
лективная	-9586
личенкова	-9587
манжинова	-9588
могоровка	-9589
обородова	-9590
одьинский	-9591
онконсалт	-9592
орловское	-9593
поляковой	-9594
портпласт	-9595
промстрой	-9596
пунктигри	-9597
равченков	-9598
раменское	-9599
зды	-9600
нуш	-9601
уша	-9602
буча	-9603
елёв	-9604
здов	-9605
клин	-9606
малы	-9607
тото	-9608
ушер	-9609
хуга	-9610
▁биз	-9611
▁гук	-9612
▁диз	-9613
▁муш	-9614
▁сиз	-9615
▁это	-9616
довин	-9617
лкина	-9618
нарев	-9619
ревич	-9620
хозяй	-9621
чебар	-9622
чении	-9623
▁абдр	-9624
▁дары	-9625
▁жорж	-9626
▁кады	-9627
▁люкс	-9628
▁мата	-9629
▁роче	-9630
гельса	-9631
гового	-9632
дыевна	-9633
нанова	-9634
▁гнаты	-9635
▁губин	-9636
▁мушак	-9637
▁прохо	-9638
▁сизых	-9639
▁терса	-9640
▁хурши	-9641
жанской	-9642
красина	-9643
оданова	-9644
ракудин	-9645
тотоева	-9646
тоухова	-9647
ушервон	-9648
хугаева	-9649
шиляева	-9650
▁амбула	-9651
▁бизнес	-9652
▁вдовин	-9653
▁звезды	-9654
▁криуша	-9655
▁курбан	-9656
▁панова	-9657
▁чебуча	-9658
▁чернуш	-9659
баранова	-9660
ревского	-9661
энгельса	-9662
▁альмира	-9663
▁гаряева	-9664
▁дилором	-9665
▁дроздов	-9666
▁калинин	-9667
▁лимитед	-9668
▁матафон	-9669
▁рочегда	-9670
▁ссспапк	-9671
▁шевелёв	-9672
дурдыевна	-9673
ребования	-9674
революции	-9675
рекаворон	-9676
ремонтное	-9677
ремонтный	-9678
рикосовая	-9679
роматулло	-9680
роповский	-9681
ротуарная	-9682
роходство	-9683
рятинская	-9684
садулаево	-9685
саковская	-9686
свердлова	-9687
северомор	-9688
синовская	-9689
страницыа	-9690
стрелкова	-9691
тазовский	-9692
талинский	-9693
таркского	-9694
темовская	-9695
удинского	-9696
ужинского	-9697
уковского	-9698
улицапуга	-9699
няк	-9700
олня	-9701
укша	-9702
▁лац	-9703
▁сил	-9704
гунск	-9705
данил	-9706
ергия	-9707
ертов	-9708
каным	-9709
карда	-9710
липец	-9711
пость	-9712
угаев	-9713
▁арте	-9714
▁верт	-9715
▁день	-9716
▁лана	-9717
▁сауз	-9718
▁хады	-9719
лукова	-9720
омукша	-9721
услуги	-9722
▁закон	-9723
▁ильич	-9724
▁ильчи	-9725
▁ингаш	-9726
▁истри	-9727
▁раево	-9728
▁русск	-9729
▁татты	-9730
▁чеков	-9731
аргунск	-9732
бутаева	-9733
городня	-9734
▁брянка	-9735
▁бугаев	-9736
▁бурков	-9737
▁ларина	-9738
▁нижние	-9739
▁рябова	-9740
акционер	-9741
гонского	-9742
крепость	-9743
липецкая	-9744
олняющий	-9745
свещения	-9746
▁артемов	-9747
▁буркова	-9748
▁кузиной	-9749
▁лацужба	-9750
▁павлина	-9751
▁русские	-9752
▁саузово	-9753
▁свистун	-9754
даниловой	-9755
кубанский	-9756
улицаресп	-9757
уманского	-9758
уральский	-9759
урванская	-9760
урванский	-9761
ургалиева	-9762
усинского	-9763
утовинова	-9764
хабльский	-9765
хольского	-9766
хтиярович	-9767
черемхово	-9768
чернышова	-9769
шкентская	-9770
шоубиевич	-9771
ьинжстрой	-9772
юпинского	-9773
▁абинский	-9774
▁аблукова	-9775
▁абушевой	-9776
▁авиапере	-9777
▁алборова	-9778
▁алексеев	-9779
▁аносовой	-9780
▁арсеньев	-9781
▁арсланов	-9782
▁аскерова	-9783
▁ахмерова	-9784
▁безденеж	-9785
▁белянина	-9786
▁беседина	-9787
▁благовещ	-9788
▁бобковой	-9789
▁болотное	-9790
▁бондарук	-9791
▁борковка	-9792
▁боровичи	-9793
▁ботавина	-9794
▁булатова	-9795
▁бурыкина	-9796
▁буянкина	-9797
▁варданян	-9798
▁васильев	-9799
иря	-9800
ёмы	-9801
вкин	-9802
дула	-9803
емой	-9804
налы	-9805
сула	-9806
щики	-9807
ьялы	-9808
▁зуг	-9809
▁пир	-9810
жкина	-9811
инкин	-9812
пкина	-9813
яково	-9814
▁векм	-9815
▁джом	-9816
▁икон	-9817
▁кама	-9818
▁полт	-9819
▁сары	-9820
▁сире	-9821
▁сити	-9822
▁хиля	-9823
▁ширя	-9824
рильев	-9825
родром	-9826
ромное	-9827
рывкин	-9828
угский	-9829
улькин	-9830
▁базар	-9831
▁боров	-9832
▁долом	-9833
▁камен	-9834
▁манюк	-9835
▁рания	-9836
▁сирот	-9837
▁товар	-9838
▁шорст	-9839
▁эстри	-9840
азиевна	-9841
большие	-9842
дулахов	-9843
ильщики	-9844
рекаинн	-9845
сулаева	-9846
унтаево	-9847
▁боково	-9848
▁вязёмы	-9849
▁данным	-9850
▁зубово	-9851
▁марата	-9852
▁сурова	-9853
▁эстрин	-9854
гасанова	-9855
имовский	-9856
ирбекова	-9857
укромное	-9858
урянский	-9859
▁зугдиди	-9860
▁ивачино	-9861
▁игонина	-9862
▁камалет	-9863
▁коновод	-9864
▁мировны	-9865
▁синьялы	-9866
▁срывкин	-9867
▁щепкина	-9868
денисьево	-9869
кумляшова	-9870
рансстрой	-9871
саккулово	-9872
страницыр	-9873
страницыс	-9874
ьилекский	-9875
▁аэродром	-9876
▁боровиха	-9877
▁вахабова	-9878
▁виолетты	-9879
▁витухина	-9880
▁водостро	-9881
▁водочная	-9882
▁волошина	-9883
▁воронова	-9884
▁вороново	-9885
▁вырупаев	-9886
▁галиевич	-9887
▁гамидова	-9888
▁гасанова	-9889
▁гафарова	-9890
▁геннадия	-9891
▁городоре	-9892
▁городсая	-9893
▁городчар	-9894
▁гредасов	-9895
▁григория	-9896
▁гулистан	-9897
▁денисова	-9898
▁деревняа	-9899
сех	-9900
чала	-9901
ышин	-9902
ющих	-9903
▁веп	-9904
▁теп	-9905
▁чиш	-9906
бовны	-9907
джани	-9908
довны	-9909
ецкий	-9910
жидов	-9911
осова	-9912
тыгда	-9913
черня	-9914
▁инга	-9915
▁шеми	-9916
▁юных	-9917
голева	-9918
горьев	-9919
ездная	-9920
качева	-9921
маркса	-9922
ристон	-9923
сенова	-9924
шакова	-9925
▁асрсо	-9926
▁вагар	-9927
▁корми	-9928
▁кромы	-9929
▁магар	-9930
▁натов	-9931
▁савка	-9932
▁спецт	-9933
▁текст	-9934
▁темрю	-9935
▁тучак	-9936
▁тюрин	-9937
▁шубин	-9938
алиново	-9939
динская	-9940
камышин	-9941
рудовой	-9942
▁агадул	-9943
▁коркин	-9944
▁начала	-9945
▁солдес	-9946
▁супсех	-9947
▁тепное	-9948
атинская	-9949
батецкий	-9950
гжитовой	-9951
▁абашкин	-9952
▁арцевой	-9953
▁вепрева	-9954
▁динская	-9955
▁иристон	-9956
▁межидов	-9957
▁прошева	-9958
▁шемивол	-9959
▁шентала	-9960
григорьев	-9961
▁андреево	-9962
▁баранова	-9963
▁городнян	-9964
▁гульмира	-9965
▁деревняю	-9966
▁деревооб	-9967
▁джангиль	-9968
▁джетысай	-9969
▁динского	-9970
▁долженко	-9971
▁донченко	-9972
▁дорофеев	-9973
▁дунямалы	-9974
▁ефименко	-9975
▁заключен	-9976
▁заровнят	-9977
▁звездная	-9978
▁звездова	-9979
▁землячки	-9980
▁зольский	-9981
▁зудилово	-9982
▁иванково	-9983
▁ивановой	-9984
▁идрисова	-9985
▁иннокент	-9986
▁ишкватов	-9987
▁казакова	-9988
▁казахмед	-9989
▁казахтан	-9990
▁кандалак	-9991
▁касьянов	-9992
▁каширина	-9993
▁кизилюрт	-9994
▁кирилова	-9995
▁клюйкова	-9996
▁ковардак	-9997
▁колобово	-9998
▁колосова	-9999
гыш	-10000
щук	-10001
гбал	-10002
ухая	-10003
▁зух	-10004
▁руж	-10005
▁элл	-10006
днева	-10007
мамед	-10008
новол	-10009
▁абан	-10010
▁агры	-10011
▁архи	-10012
▁гасп	-10013
▁держ	-10014
▁деря	-10015
▁колп	-10016
▁мера	-10017
▁мкрн	-10018
▁тонн	-10019
▁упша	-10020
▁шили	-10021
▁шото	-10022
алании	-10023
годное	-10024
гышлак	-10025
елинск	-10026
микаль	-10027
тюмень	-10028
▁автоб	-10029
▁барыш	-10030
▁карты	-10031
▁пресс	-10032
▁рекам	-10033
▁рухая	-10034
▁тихий	-10035
▁федич	-10036
▁христ	-10037
гбалова	-10038
грикова	-10039
деникин	-10040
инников	-10041
мамедли	-10042
рыднева	-10043
▁агаева	-10044
▁бориса	-10045
▁борова	-10046
▁вольно	-10047
▁галекс	-10048
▁гарина	-10049
▁гимова	-10050
▁зухраб	-10051
▁осорги	-10052
▁пунктг	-10053
▁шикина	-10054
▁шилина	-10055
ивановде	-10056
ительное	-10057
кратовна	-10058
▁борново	-10059
▁боровая	-10060
▁залегощ	-10061
▁каримов	-10062
▁климова	-10063
▁кулаков	-10064
▁мальцев	-10065
▁одновол	-10066
▁пичаево	-10067
▁попкова	-10068
▁ружьева	-10069
▁терещук	-10070
▁фирдина	-10071
амбековна	-10072
градстрой	-10073
▁автобаза	-10074
▁гаспарян	-10075
▁городдом	-10076
▁городкам	-10077
▁дерябина	-10078
▁домикаль	-10079
▁казенный	-10080
▁карпович	-10081
▁комарово	-10082
▁комплекс	-10083
▁конаково	-10084
▁кононова	-10085
▁констант	-10086
▁копейкин	-10087
▁коченова	-10088
▁красночи	-10089
▁крестина	-10090
▁кромской	-10091
▁крымгире	-10092
▁крымский	-10093
▁крысевич	-10094
▁крючкова	-10095
▁кудряшов	-10096
▁кузменко	-10097
▁куколкин	-10098
▁куликовы	-10099
факу	-10100
фили	-10101
гатор	-10102
левич	-10103
нытва	-10104
уевка	-10105
▁амир	-10106
▁доку	-10107
▁стех	-10108
амбула	-10109
тритер	-10110
▁бараб	-10111
▁вошла	-10112
▁дебер	-10113
▁калды	-10114
▁костр	-10115
▁любер	-10116
▁магит	-10117
▁нытва	-10118
▁робер	-10119
енников	-10120
сьстрой	-10121
филиппи	-10122
▁долина	-10123
▁каплан	-10124
▁криуши	-10125
▁митино	-10126
▁нашими	-10127
▁ожиган	-10128
▁раздан	-10129
▁сафаку	-10130
▁селина	-10131
▁стехны	-10132
▁шлапак	-10133
данченко	-10134
ищевский	-10135
каевский	-10136
оловьево	-10137
повского	-10138
саламова	-10139
чугуевка	-10140
▁августа	-10141
▁вороник	-10142
▁городбо	-10143
▁максими	-10144
▁моцарта	-10145
▁ревкова	-10146
▁резаева	-10147
▁степана	-10148
▁степное	-10149
▁степной	-10150
▁шиткино	-10151
ильтритер	-10152
▁джамбула	-10153
▁егоровой	-10154
▁кушнарев	-10155
▁лениинск	-10156
▁липовцев	-10157
▁логистик	-10158
▁логишева	-10159
▁лопатина	-10160
▁лосякова	-10161
▁малышева	-10162
▁маркович	-10163
▁марселев	-10164
▁марченко	-10165
▁масютина	-10166
▁микаилов	-10167
▁мирослав	-10168
▁молокова	-10169
▁молочное	-10170
▁муравьев	-10171
▁мусихина	-10172
▁мухамеду	-10173
▁нагорный	-10174
▁нажмудин	-10175
▁назначен	-10176
▁наилевна	-10177
▁налобиха	-10178
▁областьк	-10179
▁общенаци	-10180
▁овражный	-10181
▁одесский	-10182
▁одинцова	-10183
▁окуловка	-10184
▁ореховая	-10185
▁пахомова	-10186
▁песчаная	-10187
▁петровка	-10188
▁петровны	-10189
▁петровск	-10190
▁петросян	-10191
▁петюхова	-10192
▁пластмаш	-10193
▁плеханов	-10194
▁плешаков	-10195
▁плещеево	-10196
▁плишкино	-10197
▁погольша	-10198
▁подворье	-10199
юпа	-10200
паев	-10201
улин	-10202
чень	-10203
юлин	-10204
дейка	-10205
дейщи	-10206
канов	-10207
летин	-10208
линга	-10209
малые	-10210
узбек	-10211
ченцы	-10212
юрюпа	-10213
▁дома	-10214
▁малы	-10215
▁сбер	-10216
▁смол	-10217
▁цфоп	-10218
▁чепа	-10219
дашева	-10220
зареги	-10221
лейная	-10222
летное	-10223
чепецк	-10224
шушары	-10225
▁днест	-10226
▁долет	-10227
▁коган	-10228
▁насиб	-10229
▁ничка	-10230
кенский	-10231
лорадов	-10232
ракелян	-10233
ульянна	-10234
чкалова	-10235
▁дашиев	-10236
▁ильнур	-10237
▁качень	-10238
▁кошман	-10239
▁крымск	-10240
▁мишина	-10241
▁прокон	-10242
▁хапаев	-10243
▁цюрюпа	-10244
гровский	-10245
дружовка	-10246
оковский	-10247
яновское	-10248
▁горелов	-10249
▁индейка	-10250
▁козюлин	-10251
▁коробов	-10252
▁ладейщи	-10253
▁лалетин	-10254
▁майское	-10255
▁малкова	-10256
▁русская	-10257
▁смолмаш	-10258
▁станица	-10259
▁суоярви	-10260
гольчонка	-10261
заводский	-10262
ннамасово	-10263
сайдашева	-10264
узбекской	-10265
▁аллейная	-10266
▁аракелян	-10267
▁асадулин	-10268
▁бежицкий	-10269
▁долететь	-10270
▁капитана	-10271
▁краслава	-10272
▁крымская	-10273
▁малыгина	-10274
▁молькова	-10275
▁назимова	-10276
▁осоргино	-10277
▁полежаев	-10278
▁полетное	-10279
▁полякову	-10280
▁портовик	-10281
▁поспелих	-10282
▁потаенко	-10283
▁предусмо	-10284
▁преображ	-10285
▁привлече	-10286
▁пробизне	-10287
▁проводит	-10288
▁прониной	-10289
▁проценко	-10290
▁прошлого	-10291
▁прусевич	-10292
▁радислав	-10293
▁раевская	-10294
▁развития	-10295
▁рамазана	-10296
▁решетова	-10297
▁рождении	-10298
▁романова	-10299
нент	-10300
▁сдв	-10301
бцева	-10302
галич	-10303
ерово	-10304
ливны	-10305
нусов	-10306
олоки	-10307
фиева	-10308
чевая	-10309
▁алей	-10310
▁кофе	-10311
▁роща	-10312
▁сафи	-10313
▁уруд	-10314
▁хран	-10315
елеймо	-10316
запова	-10317
калина	-10318
конков	-10319
льцева	-10320
рудная	-10321
рчасть	-10322
▁батай	-10323
▁канбе	-10324
▁панин	-10325
▁профи	-10326
▁челно	-10327
▁челов	-10328
▁шебан	-10329
анковая	-10330
донской	-10331
конкино	-10332
королёв	-10333
нинское	-10334
рудовая	-10335
чаренко	-10336
▁альмет	-10337
▁баталь	-10338
▁дилара	-10339
▁железн	-10340
▁никиты	-10341
▁шульга	-10342
▁юнусов	-10343
вильский	-10344
кольский	-10345
конковых	-10346
олнечный	-10347
сосновая	-10348
улицакон	-10349
умрудная	-10350
▁валовая	-10351
▁видеман	-10352
▁евросиб	-10353
▁ильясов	-10354
▁ионкину	-10355
▁каргина	-10356
▁орловка	-10357
▁рябцева	-10358
▁человек	-10359
▁шебанов	-10360
енделеева	-10361
львовское	-10362
солнечный	-10363
▁батайске	-10364
▁ключевая	-10365
▁полевода	-10366
▁ромашова	-10367
▁рубанова	-10368
▁русакова	-10369
▁рязапова	-10370
▁савченко	-10371
▁саидовна	-10372
▁сальский	-10373
▁сапуголи	-10374
▁сафарход	-10375
▁сафиевой	-10376
▁сахарова	-10377
▁сбербанк	-10378
▁серпухов	-10379
▁симагина	-10380
▁ситдиков	-10381
▁сколкова	-10382
▁снеговая	-10383
▁солнечно	-10384
▁соловьев	-10385
▁спасское	-10386
▁ставцева	-10387
▁строение	-10388
▁сулейман	-10389
▁сураково	-10390
▁сусляков	-10391
▁таттыбек	-10392
▁тельмана	-10393
▁терского	-10394
▁тимяшево	-10395
▁томилино	-10396
▁торгашев	-10397
▁торговый	-10398
▁тракторо	-10399
гуны	-10400
знев	-10401
силон	-10402
чанка	-10403
шанка	-10404
ятино	-10405
▁елат	-10406
▁мсср	-10407
▁надо	-10408
▁пиле	-10409
▁побо	-10410
▁рагу	-10411
▁сарг	-10412
▁связ	-10413
▁смет	-10414
▁тупк	-10415
ивский	-10416
ишкина	-10417
кисова	-10418
пунова	-10419
ушкина	-10420
шатура	-10421
ёвский	-10422
▁берна	-10423
▁встре	-10424
▁лутай	-10425
▁новик	-10426
▁олово	-10427
▁себеж	-10428
▁узсср	-10429
▁юшина	-10430
▁ярков	-10431
острома	-10432
пунктмо	-10433
сейская	-10434
▁бершад	-10435
▁губаха	-10436
▁корнев	-10437
▁лукина	-10438
▁лукино	-10439
▁уланов	-10440
▁чащина	-10441
анбекова	-10442
кульская	-10443
лесецкая	-10444
▁встречи	-10445
▁дежевка	-10446
▁елшанка	-10447
▁зеушева	-10448
▁кырыкый	-10449
▁норенко	-10450
▁родился	-10451
▁саргсян	-10452
▁системе	-10453
▁улицадо	-10454
▁эпсилон	-10455
деревняло	-10456
порожский	-10457
султаново	-10458
хрипунова	-10459
▁анивский	-10460
▁городтар	-10461
▁городтур	-10462
▁елатомка	-10463
▁кобесова	-10464
▁копытова	-10465
▁никишина	-10466
▁пилецкий	-10467
▁побочино	-10468
▁полукиря	-10469
▁рагулина	-10470
▁рубежное	-10471
▁селезнев	-10472
▁селятино	-10473
▁стригуны	-10474
▁сухарева	-10475
▁трипадуш	-10476
▁туполева	-10477
▁тюленина	-10478
▁удальное	-10479
▁уинского	-10480
▁украинки	-10481
▁улицабел	-10482
▁улицаего	-10483
▁улицамет	-10484
▁улицаури	-10485
▁умарович	-10486
▁управлен	-10487
▁урицкого	-10488
▁фарносов	-10489
▁фельская	-10490
▁ферсмана	-10491
▁филатова	-10492
▁филиппин	-10493
▁филонова	-10494
▁хачатрян	-10495
▁холдеева	-10496
▁христина	-10497
▁целинная	-10498
▁целинное	-10499
ъезд	-10500
▁бек	-10501
▁ень	-10502
▁сег	-10503
▁чиж	-10504
ермыш	-10505
калач	-10506
редне	-10507
учина	-10508
▁эмин	-10509
айнена	-10510
генева	-10511
проезд	-10512
промин	-10513
▁багин	-10514
▁дасср	-10515
▁козак	-10516
▁назир	-10517
▁озёры	-10518
▁русак	-10519
▁ташта	-10520
▁элчин	-10521
▁янина	-10522
алаевой	-10523
▁балаки	-10524
▁восток	-10525
▁еньков	-10526
▁лунева	-10527
▁мирная	-10528
▁самокр	-10529
▁серова	-10530
▁смирны	-10531
городмин	-10532
кундравы	-10533
ловскому	-10534
петровой	-10535
▁акимова	-10536
▁боровой	-10537
▁буровые	-10538
▁воронин	-10539
▁карелии	-10540
▁онучина	-10541
▁разъезд	-10542
▁серовой	-10543
▁смирнов	-10544
▁сообщал	-10545
▁союзная	-10546
▁якимова	-10547
алтайская	-10548
гуновская	-10549
лектриков	-10550
стрирован	-10551
ушкинское	-10552
хандирова	-10553
▁воронина	-10554
▁ивпромин	-10555
▁кравцова	-10556
▁мотовили	-10557
▁таштагол	-10558
▁улицакол	-10559
▁чаунский	-10560
▁чебышева	-10561
▁чекалина	-10562
▁чертовск	-10563
▁чурилова	-10564
▁шахтерск	-10565
▁шеститко	-10566
▁ширяевой	-10567
▁шокулова	-10568
▁шорсткин	-10569
▁шумакова	-10570
▁шумилова	-10571
▁экельман	-10572
▁эльгаард	-10573
▁якутской	-10574
▁янтарная	-10575
автоматика	-10576
бановского	-10577
белоусовка	-10578
вечниковой	-10579
ворошилова	-10580
геновского	-10581
городканаш	-10582
городнижне	-10583
городпетро	-10584
городханты	-10585
гышлакская	-10586
евастополь	-10587
ендантский	-10588
еревенское	-10589
ероуральск	-10590
керченская	-10591
константин	-10592
коранского	-10593
междуречье	-10594
мерлинский	-10595
модемьянск	-10596
московский	-10597
московской	-10598
мухаметова	-10599
кыр	-10600
хлё	-10601
кшур	-10602
окав	-10603
▁днп	-10604
жанат	-10605
идово	-10606
кайло	-10607
уйлов	-10608
чуров	-10609
▁айза	-10610
▁жигу	-10611
▁кирс	-10612
▁огла	-10613
▁савё	-10614
▁янов	-10615
аночка	-10616
кашкин	-10617
рошаль	-10618
хлёнок	-10619
▁белое	-10620
▁говор	-10621
▁дерид	-10622
▁корощ	-10623
▁норин	-10624
▁темир	-10625
▁хасан	-10626
▁хворо	-10627
▁ширин	-10628
▁якшур	-10629
олоцкая	-10630
угленко	-10631
фанович	-10632
хаджиев	-10633
якского	-10634
▁жилина	-10635
▁лолаев	-10636
▁майдан	-10637
▁мамина	-10638
▁савёлк	-10639
▁садова	-10640
▁силаев	-10641
▁уфалей	-10642
▁эльбан	-10643
андарова	-10644
бритаева	-10645
дашиевой	-10646
еловское	-10647
кырджали	-10648
омедовны	-10649
▁алжанат	-10650
▁будущем	-10651
▁гордина	-10652
▁гуменюк	-10653
▁егорина	-10654
▁калегов	-10655
▁минская	-10656
▁пиленко	-10657
▁украины	-10658
ваевского	-10659
годняшний	-10660
имущества	-10661
нитогорск	-10662
обережный	-10663
▁азербайн	-10664
▁беляевой	-10665
▁ванчуров	-10666
▁говорили	-10667
▁киевская	-10668
▁мануйлов	-10669
▁медведев	-10670
▁оганесян	-10671
▁оглашена	-10672
▁темиртау	-10673
▁хохлёнок	-10674
граевского	-10675
коммунарка	-10676
набутдинов	-10677
нигорожина	-10678
николаевка	-10679
ногорского	-10680
ноградский	-10681
ныхуправля	-10682
окавтомати	-10683
омутинский	-10684
орусановка	-10685
очаковское	-10686
планерское	-10687
реталиевна	-10688
ростовской	-10689
сисианский	-10690
сормовская	-10691
страницысо	-10692
страницыти	-10693
украинской	-10694
улицаместо	-10695
фоминского	-10696
хетагурова	-10697
чебоксарск	-10698
шайговский	-10699
елюк	-10700
нуха	-10701
ятие	-10702
▁бик	-10703
▁двл	-10704
▁лзу	-10705
▁усы	-10706
▁фио	-10707
сбанк	-10708
▁берг	-10709
▁двлд	-10710
▁лапы	-10711
▁рубл	-10712
иповна	-10713
лесово	-10714
рецкий	-10715
улимск	-10716
▁важно	-10717
▁давид	-10718
▁жанны	-10719
адиевич	-10720
вологод	-10721
катовна	-10722
▁байлен	-10723
▁дачный	-10724
▁добров	-10725
▁дрокин	-10726
▁иванюк	-10727
▁моторо	-10728
▁остров	-10729
▁солтан	-10730
▁талгар	-10731
▁усынин	-10732
▁чехова	-10733
▁яковле	-10734
владимир	-10735
▁абалаев	-10736
▁данелюк	-10737
▁жердева	-10738
▁лапузин	-10739
▁романюк	-10740
▁тицкого	-10741
▁улицата	-10742
▁чернуха	-10743
иркутский	-10744
ропродмаш	-10745
сосибирск	-10746
▁абанский	-10747
▁алайский	-10748
▁бикбаева	-10749
▁васькино	-10750
▁волжская	-10751
▁залесово	-10752
▁кибизова	-10753
▁кулькова	-10754
▁лапыгино	-10755
▁макарово	-10756
▁опытного	-10757
▁рублёвой	-10758
▁солтанов	-10759
▁старкова	-10760
▁терновое	-10761
▁улицагал	-10762
▁яковщина	-10763
туринского	-10764
узбекистан	-10765
ярославобл	-10766
▁абдрашева	-10767
▁абхазская	-10768
▁абхазской	-10769
▁авиаторов	-10770
▁агентство	-10771
▁акрамовна	-10772
▁алексанян	-10773
▁алексенко	-10774
▁альменево	-10775
▁амурского	-10776
▁ананченко	-10777
▁андреевой	-10778
▁антонович	-10779
▁артемьева	-10780
▁артурович	-10781
▁ачинского	-10782
▁балаболко	-10783
▁баскунчак	-10784
▁бачатский	-10785
▁белисовой	-10786
▁белоречен	-10787
▁белоусова	-10788
▁березовая	-10789
▁богданова	-10790
▁богишамол	-10791
▁болатжану	-10792
▁большевик	-10793
▁борисовой	-10794
▁бородатый	-10795
▁брянского	-10796
▁бурундуки	-10797
▁бушманова	-10798
▁быковская	-10799
евту	-10800
туим	-10801
зиева	-10802
▁ризу	-10803
▁урал	-10804
денков	-10805
лупина	-10806
отрейд	-10807
спектр	-10808
фонова	-10809
шковка	-10810
▁ганти	-10811
▁занин	-10812
▁калай	-10813
▁левоб	-10814
▁марту	-10815
▁пятни	-10816
▁рабия	-10817
▁радио	-10818
▁раиль	-10819
▁рудак	-10820
▁рудня	-10821
▁сатка	-10822
▁фомин	-10823
▁холуй	-10824
дуллина	-10825
цовские	-10826
▁грузия	-10827
▁рудный	-10828
▁холмск	-10829
▁якутия	-10830
венского	-10831
заветное	-10832
олодовны	-10833
проспект	-10834
▁брянска	-10835
▁думенко	-10836
▁луговой	-10837
▁небаева	-10838
▁пунктту	-10839
▁пяткова	-10840
▁рахимов	-10841
▁свободы	-10842
▁стройка	-10843
▁уральск	-10844
▁хлупина	-10845
▁юрловка	-10846
городсоль	-10847
евтушенко	-10848
казахская	-10849
летарская	-10850
раменский	-10851
четчикова	-10852
▁альбаева	-10853
▁бельская	-10854
▁гантиади	-10855
▁горловка	-10856
▁ерденков	-10857
▁зинькова	-10858
▁павловка	-10859
▁пешковка	-10860
▁пунктлеб	-10861
▁сельская	-10862
▁стройвод	-10863
▁тимохина	-10864
▁улицапар	-10865
▁улицапле	-10866
▁файзиева	-10867
гининского	-10868
грачевский	-10869
▁васильево	-10870
▁вашкевича	-10871
▁ведомства	-10872
▁взаимного	-10873
▁виловский	-10874
▁владимиру	-10875
▁волохович	-10876
▁волчугова	-10877
▁воробьёва	-10878
▁воспиталь	-10879
▁восточная	-10880
▁восточный	-10881
▁востриков	-10882
▁гвардейцы	-10883
▁генератор	-10884
▁герасимов	-10885
▁геттингер	-10886
▁городлени	-10887
▁городской	-10888
▁городулан	-10889
▁гражданки	-10890
▁грибакова	-10891
▁григорьев	-10892
▁давыдовна	-10893
▁даниловна	-10894
▁данисовна	-10895
▁дегтярева	-10896
▁действует	-10897
▁демеупова	-10898
▁денисович	-10899
аярак	-10900
булат	-10901
онову	-10902
щенов	-10903
▁анзо	-10904
▁буле	-10905
▁быка	-10906
▁кови	-10907
▁мехи	-10908
бовали	-10909
енерал	-10910
олотов	-10911
сновка	-10912
▁гусак	-10913
▁илона	-10914
▁нифон	-10915
▁общая	-10916
▁ришат	-10917
▁рябов	-10918
▁софия	-10919
▁шахта	-10920
▁юсово	-10921
алитина	-10922
кубанск	-10923
фонович	-10924
чувашии	-10925
▁акбула	-10926
▁байрак	-10927
▁балова	-10928
▁белоно	-10929
▁брюсов	-10930
▁воткин	-10931
▁других	-10932
▁емелин	-10933
▁инвест	-10934
▁ковров	-10935
▁лохово	-10936
▁мехико	-10937
▁филино	-10938
клинская	-10939
крещенов	-10940
ритонову	-10941
узянский	-10942
▁буленок	-10943
▁бывшего	-10944
▁золотов	-10945
▁пестова	-10946
▁садкова	-10947
▁улицаэн	-10948
▁щелково	-10949
дунайский	-10950
лободская	-10951
▁белоусов	-10952
▁горохова	-10953
▁дженерал	-10954
▁клинская	-10955
▁кокорина	-10956
▁коробова	-10957
▁корсаков	-10958
▁пайзуллы	-10959
▁симанова	-10960
▁терновой	-10961
▁федоткин	-10962
▁яруллина	-10963
кашенского	-10964
ковичского	-10965
▁анзорович	-10966
▁ашинского	-10967
▁белогорск	-10968
▁быковское	-10969
▁денисовна	-10970
▁деревняды	-10971
▁джиликуль	-10972
▁джульянна	-10973
▁динаровна	-10974
▁дмитриева	-10975
▁дуйсенова	-10976
▁еврейская	-10977
▁егоршкина	-10978
▁егорьевск	-10979
▁еланского	-10980
▁жаворонки	-10981
▁жалалабат	-10982
▁жигуленко	-10983
▁заводенко	-10984
▁заворонеж	-10985
▁зарегистр	-10986
▁здвинский	-10987
▁зизевский	-10988
▁зинуровна	-10989
▁зульпукар	-10990
▁зурабовна	-10991
▁зыковский	-10992
▁ибряйкино	-10993
▁игоревича	-10994
▁игоревичу	-10995
▁ильгизара	-10996
▁ильиничны	-10997
▁ильясовна	-10998
▁инверовна	-10999
песч	-11000
суда	-11001
банюк	-11002
мовой	-11003
носян	-11004
росян	-11005
хмаль	-11006
хмана	-11007
▁мияк	-11008
▁сайд	-11009
▁фоки	-11010
▁ханы	-11011
▁хвой	-11012
ветлая	-11013
гульта	-11014
есчано	-11015
кукмор	-11016
роснаб	-11017
росных	-11018
учкент	-11019
ямовка	-11020
▁аброс	-11021
▁дутов	-11022
▁косми	-11023
▁мухен	-11024
▁рамил	-11025
▁фордж	-11026
вагашен	-11027
миносян	-11028
хмалева	-11029
чевское	-11030
чёвский	-11031
▁абинск	-11032
▁алешня	-11033
▁ведена	-11034
▁власов	-11035
▁износк	-11036
▁козлов	-11037
▁лапшин	-11038
▁оксаны	-11039
▁фастов	-11040
▁этника	-11041
весенняя	-11042
калинина	-11043
песчанка	-11044
петросян	-11045
▁армянск	-11046
▁боброво	-11047
▁калачев	-11048
▁каракул	-11049
▁кондрин	-11050
▁лаптова	-11051
▁сулимов	-11052
▁чабанюк	-11053
дурахмана	-11054
оршанский	-11055
▁городище	-11056
▁городрос	-11057
▁григоряк	-11058
▁деревняв	-11059
▁ермакова	-11060
▁красиков	-11061
▁крохмаль	-11062
▁кугульта	-11063
▁мусалова	-11064
▁поросных	-11065
▁синергия	-11066
▁усманова	-11067
▁ханыкова	-11068
▁хвойкина	-11069
нурлатский	-11070
торгайской	-11071
▁абросимов	-11072
▁гришанова	-11073
▁ефремовой	-11074
▁износково	-11075
▁илшатовну	-11076
▁калачинск	-11077
▁камилевич	-11078
▁камилевна	-11079
▁канбеково	-11080
▁каневской	-11081
▁капранова	-11082
▁карабулах	-11083
▁каракулжа	-11084
▁карамзина	-11085
▁карбышева	-11086
▁катханова	-11087
▁квашниной	-11088
▁киквидзен	-11089
▁кириченко	-11090
▁кировград	-11091
▁кондрашин	-11092
▁коноводов	-11093
▁корнецкая	-11094
▁косаренко	-11095
▁костарева	-11096
▁котовский	-11097
▁кравченко	-11098
▁кубанская	-11099
апе	-11100
мыж	-11101
мык	-11102
энд	-11103
апсе	-11104
всес	-11105
энер	-11106
▁снг	-11107
апешт	-11108
зырев	-11109
сунжа	-11110
▁бича	-11111
▁голу	-11112
▁ейск	-11113
▁ибре	-11114
▁назы	-11115
▁тасс	-11116
ившего	-11117
юлишан	-11118
▁аскон	-11119
▁брэнд	-11120
▁гумар	-11121
▁искры	-11122
▁калмы	-11123
▁морош	-11124
▁озеры	-11125
▁сквоз	-11126
▁сухих	-11127
▁фелик	-11128
одедово	-11129
салават	-11130
энерджи	-11131
▁гульча	-11132
▁кобзар	-11133
▁космык	-11134
▁малмыж	-11135
▁мовсес	-11136
▁озноби	-11137
▁туапсе	-11138
▁эльера	-11139
симакова	-11140
▁асланян	-11141
▁гащенко	-11142
▁городмы	-11143
▁гюлишан	-11144
▁кобзарь	-11145
▁козырев	-11146
▁лещенко	-11147
▁мащенко	-11148
▁озерное	-11149
▁шмакова	-11150
▁якутина	-11151
временным	-11152
уденновск	-11153
фоминский	-11154
▁будапешт	-11155
▁воробьев	-11156
▁морохина	-11157
▁морошкин	-11158
▁никитино	-11159
▁отрадное	-11160
▁полосачи	-11161
▁пронович	-11162
▁симакова	-11163
▁тимакова	-11164
▁трудовая	-11165
городкиров	-11166
драхманова	-11167
стальского	-11168
▁аргунская	-11169
▁артемовне	-11170
▁бармакова	-11171
▁городржев	-11172
▁зиминский	-11173
▁казарович	-11174
▁калмыцкой	-11175
▁каминский	-11176
▁киселевск	-11177
▁кручинина	-11178
▁кубанский	-11179
▁кузнецкий	-11180
▁кузнечный	-11181
▁курбанова	-11182
▁куренкова	-11183
▁курьятмас	-11184
▁кухаренко	-11185
▁кучинский	-11186
▁кущевская	-11187
▁лангового	-11188
▁левоновна	-11189
▁линиченко	-11190
▁луганской	-11191
▁луговская	-11192
▁львовская	-11193
▁львовское	-11194
▁ляминский	-11195
▁магомедов	-11196
▁мажидович	-11197
▁майзингер	-11198
▁макаровка	-11199
ашов	-11200
емида	-11201
ещёра	-11202
марий	-11203
циуса	-11204
чарук	-11205
▁бреж	-11206
▁тару	-11207
▁чейн	-11208
ностей	-11209
отранс	-11210
усаков	-11211
▁венир	-11212
▁весье	-11213
▁ершов	-11214
▁кобил	-11215
▁линар	-11216
▁лобня	-11217
▁мауса	-11218
▁махам	-11219
▁резол	-11220
сунская	-11221
▁буянов	-11222
▁варгаш	-11223
▁второе	-11224
▁грабеж	-11225
▁демент	-11226
▁демчик	-11227
▁домнич	-11228
▁коканд	-11229
▁ларино	-11230
▁лобков	-11231
▁лобода	-11232
▁промси	-11233
▁пушкин	-11234
▁симкин	-11235
▁турова	-11236
▁фемида	-11237
▁гаршина	-11238
▁кобелев	-11239
▁кудашов	-11240
▁марсель	-11241
▁павлино	-11242
▁такаева	-11243
▁янгиюль	-11244
тизанская	-11245
▁бабанова	-11246
▁бакулева	-11247
▁бикастан	-11248
▁брежнева	-11249
▁гончарук	-11250
▁городтыр	-11251
▁ербанова	-11252
▁ефремова	-11253
▁киевское	-11254
▁марсович	-11255
▁одинцово	-11256
▁окольная	-11257
▁прусаков	-11258
▁славянск	-11259
▁сурикова	-11260
▁сусорова	-11261
▁трофимов	-11262
▁туркевич	-11263
▁федорова	-11264
▁шамсарат	-11265
корсунская	-11266
реализации	-11267
▁белоярово	-11268
▁бунямедин	-11269
▁вавилкина	-11270
▁грабежова	-11271
▁еремеевна	-11272
▁кобилджон	-11273
▁кокошкино	-11274
▁лазаренко	-11275
▁малаховка	-11276
▁маленкова	-11277
▁мамедовна	-11278
▁манушкино	-11279
▁махаммату	-11280
▁махмутова	-11281
▁мевланова	-11282
▁медведево	-11283
▁мелентьев	-11284
▁мельников	-11285
▁мерзляков	-11286
▁местохали	-11287
▁микулиной	-11288
▁милькевич	-11289
▁мироновой	-11290
▁мичуринск	-11291
▁можайский	-11292
▁мокрецова	-11293
▁монаховой	-11294
▁морозовск	-11295
▁мустафина	-11296
▁назаренко	-11297
▁найданова	-11298
▁налобиной	-11299
рмэ	-11300
абад	-11301
акат	-11302
бяна	-11303
джоу	-11304
тюбе	-11305
эчет	-11306
▁апк	-11307
▁гдр	-11308
гушин	-11309
добск	-11310
мерти	-11311
набад	-11312
помещ	-11313
▁азов	-11314
▁апши	-11315
▁глуб	-11316
▁кожа	-11317
▁мыза	-11318
акатуй	-11319
катное	-11320
лубная	-11321
огрнип	-11322
сулиди	-11323
троицк	-11324
▁абрам	-11325
▁гарум	-11326
▁голуб	-11327
▁загир	-11328
▁кочки	-11329
▁рыбка	-11330
▁сакит	-11331
▁хорез	-11332
▁шумяч	-11333
бадской	-11334
большая	-11335
гузская	-11336
удорвай	-11337
▁ильнар	-11338
▁лачина	-11339
▁отмены	-11340
▁смерти	-11341
кменабад	-11342
ьменская	-11343
▁алабяна	-11344
▁бжикова	-11345
▁бородич	-11346
▁глызина	-11347
▁емелина	-11348
▁карасук	-11349
▁корнияш	-11350
▁лэдженд	-11351
▁регистр	-11352
▁реестра	-11353
▁участка	-11354
газизовну	-11355
улицабеля	-11356
▁анатолия	-11357
▁голубцов	-11358
▁кожаевка	-11359
▁лудорвай	-11360
▁сергушин	-11361
▁сердобск	-11362
▁стройнур	-11363
▁шиханова	-11364
▁щенников	-11365
ивановская	-11366
▁альдермыш	-11367
▁горчикова	-11368
▁жигулевск	-11369
▁жуковский	-11370
▁зольского	-11371
▁карбышево	-11372
▁кольского	-11373
▁ленинская	-11374
▁наралиева	-11375
▁наурского	-11376
▁несмеянов	-11377
▁никишиной	-11378
▁новосерги	-11379
▁новочерно	-11380
▁областной	-11381
▁обращение	-11382
▁объездная	-11383
▁овчаренко	-11384
▁октябрьск	-11385
▁олеговичу	-11386
▁ононского	-11387
▁отстранил	-11388
▁пискунова	-11389
▁поздняков	-11390
▁полянская	-11391
▁приволжск	-11392
▁приходько	-11393
▁продоволь	-11394
▁продукцию	-11395
▁проектная	-11396
▁проспектд	-11397
▁прохорова	-11398
▁пунктбала	-11399
▁козь	-11400
загоев	-11401
калуга	-11402
лазова	-11403
озерки	-11404
омеева	-11405
острой	-11406
▁главы	-11407
▁манта	-11408
▁путём	-11409
▁рамис	-11410
▁семих	-11411
коломна	-11412
монтова	-11413
муратов	-11414
озерное	-11415
пустили	-11416
▁бобары	-11417
▁зинино	-11418
▁кайсин	-11419
▁коното	-11420
▁леонов	-11421
▁линара	-11422
▁малояр	-11423
▁мехдин	-11424
▁правда	-11425
▁правды	-11426
▁речное	-11427
▁средне	-11428
▁сучков	-11429
▁хасаут	-11430
▁чайкин	-11431
▁шестов	-11432
▁юпаева	-11433
калинино	-11434
▁баратов	-11435
▁валитов	-11436
▁волчков	-11437
▁высокий	-11438
▁дзагоев	-11439
▁долгово	-11440
▁ильнара	-11441
▁исупова	-11442
▁махпрат	-11443
▁пашкова	-11444
▁путевой	-11445
▁раупова	-11446
▁савинка	-11447
▁соляное	-11448
▁средние	-11449
▁средний	-11450
▁тимспец	-11451
▁толстов	-11452
▁чапаева	-11453
фоломеева	-11454
▁андронов	-11455
▁гульнара	-11456
▁марианна	-11457
▁морозова	-11458
▁мурашева	-11459
▁ольховка	-11460
▁песчанка	-11461
▁семихват	-11462
▁улицагро	-11463
лермонтова	-11464
▁выпустили	-11465
▁геращенко	-11466
▁данилевна	-11467
▁дьяконова	-11468
▁ишмуратов	-11469
▁кабанский	-11470
▁каневская	-11471
▁косолапов	-11472
▁марисовна	-11473
▁новострой	-11474
▁псковская	-11475
▁пянджский	-11476
▁радиковна	-11477
▁рамиковна	-11478
▁рафиловна	-11479
▁рашитовна	-11480
▁резервный	-11481
▁репчатого	-11482
▁рифатович	-11483
▁романович	-11484
▁романовны	-11485
▁росреестр	-11486
▁россельхо	-11487
▁российско	-11488
▁рощинская	-11489
▁рыбинскмй	-11490
▁рыловский	-11491
▁самарский	-11492
▁саркисова	-11493
▁сасовский	-11494
▁сафоновой	-11495
▁свердлова	-11496
▁семибугры	-11497
▁сергеенко	-11498
▁сергиевск	-11499
▁яшь	-11500
гашун	-11501
косян	-11502
кубня	-11503
новые	-11504
ритет	-11505
скрит	-11506
▁асто	-11507
▁гвоз	-11508
▁эсто	-11509
вичуга	-11510
заканд	-11511
навина	-11512
очкина	-11513
▁некси	-11514
▁рокос	-11515
▁элана	-11516
ертский	-11517
▁венеры	-11518
▁дешевы	-11519
▁касаев	-11520
▁песков	-11521
▁подвал	-11522
▁черноп	-11523
▁яшьлек	-11524
амурская	-11525
гашского	-11526
ниверсал	-11527
▁дешевых	-11528
▁казачий	-11529
▁коммуны	-11530
▁паритет	-11531
▁светлое	-11532
▁чубурки	-11533
▁эстония	-11534
астрахань	-11535
городишим	-11536
нопьянова	-11537
ордынский	-11538
ширинский	-11539
▁гвоздева	-11540
▁гурькова	-11541
▁известен	-11542
▁кидинова	-11543
▁мичурино	-11544
▁нексикан	-11545
▁ониковна	-11546
▁ружицкая	-11547
▁тимофеев	-11548
волховский	-11549
▁калиберды	-11550
▁киракосян	-11551
▁ломоносов	-11552
▁маратович	-11553
▁маратовна	-11554
▁маратовны	-11555
▁мичуринец	-11556
▁опубликов	-11557
▁петушкова	-11558
▁погарский	-11559
▁публичное	-11560
▁рамазанов	-11561
▁сапронова	-11562
▁сибирская	-11563
▁сивашское	-11564
▁симченков	-11565
▁скоромных	-11566
▁славгород	-11567
▁славского	-11568
▁слободина	-11569
▁советский	-11570
▁соколовка	-11571
▁солигалич	-11572
▁соликамск	-11573
▁солнечная	-11574
▁солнечный	-11575
▁соловьева	-11576
▁сосенское	-11577
▁сотницыно	-11578
▁ставицкий	-11579
▁станецкой	-11580
▁статьямар	-11581
▁статьяпер	-11582
▁страницыв	-11583
▁страницыг	-11584
▁страницыт	-11585
▁сузакский	-11586
▁султанова	-11587
▁сухоречка	-11588
▁сясьстрой	-11589
▁таманской	-11590
▁тарасовна	-11591
▁татарский	-11592
▁татарских	-11593
▁терекское	-11594
▁тихомиров	-11595
▁тофигович	-11596
▁трейдторг	-11597
▁тургенева	-11598
▁тюменцева	-11599
▁нпс	-11600
йкину	-11601
убина	-11602
▁ареф	-11603
▁плющ	-11604
кучино	-11605
▁бетон	-11606
▁булка	-11607
▁влада	-11608
▁галка	-11609
▁групп	-11610
▁дудин	-11611
▁кужба	-11612
▁кушва	-11613
▁лукша	-11614
▁наиля	-11615
▁наири	-11616
▁сухие	-11617
▁тимур	-11618
▁тихая	-11619
▁хмель	-11620
▁чайка	-11621
иванова	-11622
степана	-11623
чиновой	-11624
чинцева	-11625
▁аксана	-11626
▁батуми	-11627
▁бойцов	-11628
▁броеву	-11629
▁груздь	-11630
▁гулова	-11631
▁зигора	-11632
▁носков	-11633
▁райчих	-11634
▁сафров	-11635
▁саянск	-11636
▁султре	-11637
▁тюмени	-11638
▁умаров	-11639
вободный	-11640
казакова	-11641
осиновка	-11642
падерина	-11643
▁аксенов	-11644
▁арефьев	-11645
▁аристов	-11646
▁аришина	-11647
▁бетлица	-11648
▁брыкова	-11649
▁галкина	-11650
▁дубинин	-11651
▁законом	-11652
▁капинос	-11653
▁кушхова	-11654
▁освобод	-11655
▁плешков	-11656
▁русских	-11657
▁суслово	-11658
▁шадрина	-11659
▁эксталь	-11660
жуковское	-11661
зациягиль	-11662
ропоткина	-11663
степанова	-11664
чинникова	-11665
▁азовский	-11666
▁венченко	-11667
▁галкиной	-11668
▁демакова	-11669
▁зарубина	-11670
▁мамлютка	-11671
▁томарово	-11672
▁чайкиной	-11673
донбасская	-11674
▁базовская	-11675
▁вичугский	-11676
▁володиной	-11677
▁гурбанова	-11678
▁гурьянова	-11679
▁дамировна	-11680
▁деповская	-11681
▁заблоцкий	-11682
▁лукьянова	-11683
▁нестерово	-11684
▁никитиной	-11685
▁освободил	-11686
▁сибирцево	-11687
▁талицкого	-11688
▁удальцова	-11689
▁улицалуна	-11690
▁улицапере	-11691
▁улицапром	-11692
▁улицаскол	-11693
▁улицасоци	-11694
▁улицастар	-11695
▁улицашеле	-11696
▁ульяновка	-11697
▁ульяновой	-11698
▁унинского	-11699
▁кызыл	-11700
авилова	-11701
платово	-11702
стковой	-11703
▁зодчий	-11704
▁кумора	-11705
▁постол	-11706
▁рината	-11707
▁хасиев	-11708
етрухина	-11709
заречная	-11710
полковой	-11711
полярная	-11712
улицатат	-11713
▁аминево	-11714
▁болотов	-11715
▁валеева	-11716
▁жданова	-11717
▁камышин	-11718
▁клубная	-11719
▁колосов	-11720
▁круглей	-11721
▁малахов	-11722
▁пушкино	-11723
▁ракитин	-11724
▁симонов	-11725
▁федоряк	-11726
▁фидаиля	-11727
▁чаусова	-11728
▁чунский	-11729
▁эльвиры	-11730
авдинский	-11731
морданова	-11732
▁алимовна	-11733
▁анисимов	-11734
▁арифович	-11735
▁батурина	-11736
▁бологова	-11737
▁гольцова	-11738
▁кирьянов	-11739
▁киселева	-11740
▁козловой	-11741
▁колычева	-11742
▁круглова	-11743
▁курцевой	-11744
▁маргарян	-11745
▁мирзабег	-11746
▁переведе	-11747
▁симонова	-11748
▁терехина	-11749
▁удельная	-11750
▁уразаева	-11751
▁хаданова	-11752
▁широкова	-11753
емаяоргани	-11754
▁алферовой	-11755
▁анисимова	-11756
▁касимовна	-11757
▁кругленко	-11758
▁кругловой	-11759
▁льговский	-11760
▁марушкино	-11761
▁мирасович	-11762
▁сальского	-11763
▁семененко	-11764
▁семеновна	-11765
▁урмарский	-11766
▁успенское	-11767
▁уточнения	-11768
▁участники	-11769
▁фабричная	-11770
▁фаленский	-11771
▁фанисович	-11772
▁фанисовны	-11773
▁фаридович	-11774
▁федоркова	-11775
▁федорович	-11776
▁федоровка	-11777
▁федоровны	-11778
▁хабибулах	-11779
▁халитович	-11780
▁халтурина	-11781
▁хардиково	-11782
▁харламова	-11783
▁харовский	-11784
▁хасанович	-11785
▁хибинская	-11786
▁хрисулиди	-11787
▁чепаченко	-11788
▁чернавина	-11789
▁чеховский	-11790
▁шарафиева	-11791
▁шемонаева	-11792
▁шиловский	-11793
▁ширинский	-11794
▁широчанка	-11795
▁шуменская	-11796
▁шумилкина	-11797
▁шумячский	-11798
▁щепеткина	-11799
фарм	-11800
▁ихс	-11801
▁лыт	-11802
▁сдт	-11803
▁тын	-11804
адлер	-11805
амзет	-11806
анову	-11807
арват	-11808
бежта	-11809
библи	-11810
браил	-11811
имчук	-11812
кужба	-11813
хабиб	-11814
▁пжск	-11815
▁рауф	-11816
одухов	-11817
пасная	-11818
ражеву	-11819
старая	-11820
уллоев	-11821
▁арбаш	-11822
▁барон	-11823
▁вормс	-11824
▁воске	-11825
▁дидур	-11826
▁зуева	-11827
▁зуево	-11828
▁мотин	-11829
▁рынок	-11830
▁склад	-11831
зубкова	-11832
уреатов	-11833
хоновка	-11834
▁авейде	-11835
▁баргуз	-11836
▁боглай	-11837
▁прошка	-11838
▁торжок	-11839
▁хамзет	-11840
▁армавир	-11841
▁ахкамут	-11842
▁касаева	-11843
▁лыткина	-11844
▁мусаева	-11845
▁пучкова	-11846
▁резолют	-11847
▁слободо	-11848
адлерский	-11849
▁анжелика	-11850
▁воскеаск	-11851
▁годимчук	-11852
▁джабраил	-11853
▁ихсанову	-11854
▁попасная	-11855
▁стройтех	-11856
улицабибли	-11857
▁афанасьев	-11858
▁богодухов	-11859
▁городусть	-11860
▁давлекаев	-11861
▁исмаилова	-11862
▁краснозве	-11863
▁краснонос	-11864
▁лауреатов	-11865
▁либкнехта	-11866
▁мугражеву	-11867
▁поручения	-11868
▁приволжье	-11869
▁саврукова	-11870
▁самотлора	-11871
▁стрелкова	-11872
▁этажпомещ	-11873
▁эфкатовна	-11874
▁юргинский	-11875
▁яковлевич	-11876
▁яковлевна	-11877
▁янчевская	-11878
алитвинский	-11879
байкальская	-11880
вершинского	-11881
ветствовать	-11882
воронежской	-11883
галабинский	-11884
гвардейская	-11885
городверхне	-11886
городдонецк	-11887
городнижний	-11888
городнижняя	-11889
городнягань	-11890
городростов	-11891
городрязань	-11892
городсургут	-11893
городтюмень	-11894
дияарбитраж	-11895
елеймоновка	-11896
еравнинский	-11897
забайкальск	-11898
зержинского	-11899
▁воды	-11900
▁мама	-11901
▁нурс	-11902
▁трис	-11903
артака	-11904
джанян	-11905
нгулов	-11906
тоцкое	-11907
ямская	-11908
▁актал	-11909
▁алены	-11910
▁афина	-11911
▁зорге	-11912
▁зорин	-11913
▁качур	-11914
▁купли	-11915
▁купри	-11916
▁кущий	-11917
▁сунду	-11918
▁унечи	-11919
▁шолак	-11920
▁эсино	-11921
большое	-11922
большой	-11923
джамбул	-11924
каменск	-11925
михаила	-11926
щивания	-11927
▁буяков	-11928
▁варшав	-11929
▁гамово	-11930
▁десерт	-11931
▁плиева	-11932
▁плитка	-11933
▁родина	-11934
▁тазово	-11935
▁фомкин	-11936
▁фролов	-11937
▁шамаев	-11938
▁шарлай	-11939
▁шумиха	-11940
курагино	-11941
ственный	-11942
суерское	-11943
тульская	-11944
▁аминева	-11945
▁безгина	-11946
▁буланый	-11947
▁володар	-11948
▁заррина	-11949
▁климово	-11950
▁кумская	-11951
▁милиции	-11952
▁нурсият	-11953
▁полтава	-11954
▁стасова	-11955
▁сырцева	-11956
андреевка	-11957
ишимского	-11958
монтажное	-11959
натальина	-11960
чувашская	-11961
▁арамович	-11962
▁вишневая	-11963
▁вишненко	-11964
▁гнатышин	-11965
▁гусенков	-11966
▁пинигина	-11967
▁покровка	-11968
▁порватов	-11969
▁почтовое	-11970
▁савенков	-11971
▁спартака	-11972
▁сундуков	-11973
▁терновка	-11974
▁тихорецк	-11975
▁хамокова	-11976
▁этажофис	-11977
▁агаджанян	-11978
▁зиянгулов	-11979
▁кстовский	-11980
▁соколиной	-11981
▁статьянов	-11982
▁тазовский	-11983
▁темуровна	-11984
▁шульженко	-11985
кемеровская	-11986
конкурсного	-11987
коустюгский	-11988
леваторская	-11989
металлургов	-11990
ниболотская	-11991
нововятский	-11992
новосибирск	-11993
обурлукский	-11994
одательства	-11995
октябрьское	-11996
придорожный	-11997
пристанский	-11998
прокопьевск	-11999
рафшан	-12000
▁дунай	-12001
▁кильп	-12002
▁кулик	-12003
▁тофик	-12004
ышеваха	-12005
▁аврали	-12006
▁гараев	-12007
▁заявил	-12008
▁здание	-12009
▁клинцы	-12010
▁кривко	-12011
▁пресня	-12012
▁рафигу	-12013
▁фаниль	-12014
▁янгиер	-12015
▁яшкино	-12016
засядько	-12017
▁бердник	-12018
▁бычкова	-12019
▁волегов	-12020
▁гараева	-12021
▁ермолов	-12022
▁жетыбай	-12023
▁клинцов	-12024
▁нефёдов	-12025
▁отменен	-12026
▁поповой	-12027
▁пугачев	-12028
▁селеева	-12029
▁сидоров	-12030
▁солидар	-12031
▁суриков	-12032
▁фамилия	-12033
▁шевелев	-12034
алахунова	-12035
природная	-12036
ульяновск	-12037
усманович	-12038
▁батырова	-12039
▁бежанова	-12040
▁бердянск	-12041
▁бочкарев	-12042
▁волжское	-12043
▁волжской	-12044
▁зарафшан	-12045
▁кобышева	-12046
▁ковынева	-12047
▁колпаков	-12048
▁косухина	-12049
▁крупской	-12050
▁кузьмина	-12051
▁куликово	-12052
▁латышева	-12053
▁левинова	-12054
▁монахова	-12055
▁народная	-12056
▁порошина	-12057
▁сидорово	-12058
▁терсский	-12059
▁ульчский	-12060
▁чимирова	-12061
слободский	-12062
черняховск	-12063
▁авраменко	-12064
▁аврамовна	-12065
▁азатовича	-12066
▁ахтубинск	-12067
▁батыровой	-12068
▁глебовича	-12069
▁дубровичи	-12070
▁еголдаево	-12071
▁лесогорск	-12072
▁малашенко	-12073
▁новоульян	-12074
▁рафиковна	-12075
▁ринатовны	-12076
▁сидоренко	-12077
▁терсского	-12078
▁хайруллин	-12079
городецкого	-12080
пунктмирный	-12081
робогатовой	-12082
ротехсервис	-12083
скетбольный	-12084
скритникова	-12085
страницывер	-12086
страницыста	-12087
улицадружба	-12088
улицакирова	-12089
улицакрасно	-12090
ульяновская	-12091
хабибуллина	-12092
шехабльский	-12093
шниковского	-12094
электродный	-12095
▁абрамчиков	-12096
▁адамовский	-12097
▁алданского	-12098
▁алексеевка	-12099
вайна	-12100
▁щорса	-12101
веретен	-12102
▁зауреш	-12103
дзуарика	-12104
ирлесиры	-12105
▁богатых	-12106
▁дманиси	-12107
▁жигалов	-12108
▁заречье	-12109
▁комната	-12110
▁кунерма	-12111
▁мирзаев	-12112
▁пуртова	-12113
▁состоит	-12114
▁тавакул	-12115
▁чавайна	-12116
▁чекмагу	-12117
вашкредит	-12118
дзуарикау	-12119
улицабагр	-12120
хирлесиры	-12121
▁антонины	-12122
▁головков	-12123
▁западный	-12124
▁климовка	-12125
▁мариинск	-12126
▁олеговне	-12127
▁сафоново	-12128
▁черкасов	-12129
▁шестаков	-12130
александра	-12131
▁ангарский	-12132
▁ахметович	-12133
▁ахметшина	-12134
▁бжамбеева	-12135
▁буденного	-12136
▁домострой	-12137
▁илшатович	-12138
▁илшатовна	-12139
▁карымский	-12140
▁коммуналь	-12141
▁отделение	-12142
▁совхозный	-12143
регистрация	-12144
▁аауцфопапк	-12145
▁аверьянова	-12146
▁андреевичу	-12147
▁андросенко	-12148
▁аркадьевна	-12149
▁артемьевна	-12150
▁артемьевны	-12151
▁аскинского	-12152
▁аткарского	-12153
▁ахвахского	-12154
▁ахтынского	-12155
▁ахурянский	-12156
▁барабанова	-12157
▁башкирской	-12158
▁башловская	-12159
▁безугленко	-12160
▁белоярский	-12161
▁берсеневка	-12162
▁биктимиров	-12163
▁богдановой	-12164
▁богородицк	-12165
▁богородкое	-12166
▁борисовича	-12167
▁брасовский	-12168
▁братовщина	-12169
▁буденновск	-12170
▁вавожского	-12171
▁вадимовича	-12172
▁вакильевна	-12173
▁валериевны	-12174
▁валерьевне	-12175
▁варненский	-12176
▁васильевой	-12177
▁великанова	-12178
▁вербовский	-12179
▁верхнеомка	-12180
▁виноградов	-12181
▁возобновят	-12182
▁волгограда	-12183
▁волховская	-12184
▁волховский	-12185
▁волхонским	-12186
▁воробьевой	-12187
▁воровского	-12188
▁ворошилова	-12189
▁выселковая	-12190
▁габбасовна	-12191
▁гатчинская	-12192
▁гатчинский	-12193
▁геническая	-12194
▁георгиевка	-12195
▁георгиевны	-12196
▁георгиевск	-12197
▁голованова	-12198
▁голоданова	-12199
глр	-12200
агро	-12201
глух	-12202
сбыт	-12203
▁влд	-12204
▁лпк	-12205
▁рнк	-12206
▁ушт	-12207
▁эрп	-12208
гресс	-12209
ебель	-12210
ефная	-12211
ккерт	-12212
ктика	-12213
куйга	-12214
нейво	-12215
▁авдю	-12216
▁фаты	-12217
▁флот	-12218
▁шкун	-12219
зянова	-12220
каргап	-12221
львина	-12222
шукова	-12223
шумиха	-12224
юбский	-12225
▁асият	-12226
▁атлас	-12227
▁борзя	-12228
▁кукуй	-12229
▁навои	-12230
▁нейво	-12231
▁нелли	-12232
▁облив	-12233
▁саглр	-12234
▁саида	-12235
▁шибко	-12236
▁шуляк	-12237
▁эстэт	-12238
беглица	-12239
дионная	-12240
лотская	-12241
▁каргап	-12242
▁маркеб	-12243
▁середа	-12244
▁уштобе	-12245
▁эрпели	-12246
джабаева	-12247
ергосбыт	-12248
▁арктика	-12249
▁банокин	-12250
▁вашлаев	-12251
▁елисеев	-12252
▁исломов	-12253
▁казимаг	-12254
▁манукян	-12255
▁мариета	-12256
▁площадь	-12257
▁риккерт	-12258
▁свобода	-12259
▁сибагат	-12260
▁фатыхов	-12261
▁шкундик	-12262
балтачево	-12263
коктебель	-12264
▁авдюхина	-12265
▁грязовец	-12266
▁лагошина	-12267
▁мальвина	-12268
▁прогресс	-12269
▁флотилии	-12270
▁яванский	-12271
глухарская	-12272
каргаполье	-12273
энергосбыт	-12274
▁лапшукова	-12275
▁муаедовна	-12276
▁обливская	-12277
▁ордынское	-12278
▁рельефная	-12279
городшумиха	-12280
▁гомельский	-12281
▁горлевская	-12282
▁городецкая	-12283
▁городкерчь	-12284
▁городнавои	-12285
▁городрасск	-12286
▁городтерек	-12287
▁городчулым	-12288
▁гремячинск	-12289
▁гречишкина	-12290
▁грузинская	-12291
▁даровского	-12292
▁дементьева	-12293
▁деревнякав	-12294
▁деревняоре	-12295
▁добринский	-12296
▁долматовка	-12297
▁дороничева	-12298
▁дощеникова	-12299
ергоф	-12300
меший	-12301
▁бюро	-12302
▁июне	-12303
▁июня	-12304
▁пунд	-12305
▁схпк	-12306
▁яван	-12307
мачево	-12308
мачёва	-12309
цитата	-12310
▁грязи	-12311
▁дыгул	-12312
▁жадан	-12313
▁кашир	-12314
▁кбсср	-12315
▁одной	-12316
▁пехот	-12317
▁повар	-12318
▁ромеш	-12319
▁руфия	-12320
▁умань	-12321
▁ясный	-12322
макушев	-12323
садовая	-12324
светлый	-12325
тойзина	-12326
хотская	-12327
▁базуев	-12328
▁бакаев	-12329
▁вороты	-12330
▁гуляев	-12331
▁диляра	-12332
▁жиляев	-12333
▁зибров	-12334
▁извили	-12335
▁кожина	-12336
▁кокаев	-12337
▁мажиев	-12338
▁мурома	-12339
▁мучной	-12340
▁ребров	-12341
▁рената	-12342
▁токарь	-12343
▁шаваев	-12344
▁шаромы	-12345
беляевой	-12346
макушино	-12347
маньково	-12348
оводское	-12349
переулок	-12350
▁андарак	-12351
▁белевич	-12352
▁гульназ	-12353
▁котляра	-12354
▁леушкин	-12355
▁луканин	-12356
▁опытное	-12357
▁просвет	-12358
▁пундуга	-12359
льтунский	-12360
толмачево	-12361
▁кострома	-12362
▁марианны	-12363
▁местными	-12364
▁петергоф	-12365
▁промбаза	-12366
▁родионов	-12367
▁синицына	-12368
евастополя	-12369
назическая	-12370
▁городцхин	-12371
▁греческий	-12372
▁дыренкова	-12373
▁замирович	-12374
▁каренович	-12375
▁каширское	-12376
▁кормачёва	-12377
▁лоухского	-12378
▁объявляет	-12379
▁поварская	-12380
▁процедуре	-12381
▁сироткина	-12382
аракчинская	-12383
▁дубовского	-12384
▁дубровская	-12385
▁дыгулыбгей	-12386
▁ереванская	-12387
▁жалалиддин	-12388
▁жалковский	-12389
▁жунусалиев	-12390
▁завершения	-12391
▁заволжский	-12392
▁загиргаджи	-12393
▁заполярная	-12394
▁заринского	-12395
▁земельного	-12396
▁ивановское	-12397
▁извилистая	-12398
▁ильгизовна	-12399
пнп	-12400
▁ужак	-12401
▁устя	-12402
алешня	-12403
кевичи	-12404
тендер	-12405
ыгиной	-12406
▁алушт	-12407
▁есиль	-12408
▁мавра	-12409
▁назим	-12410
▁сушко	-12411
▁хотят	-12412
▁чугуй	-12413
гаджиев	-12414
прудный	-12415
▁банный	-12416
▁ведута	-12417
▁громов	-12418
▁гулому	-12419
▁дейлюк	-12420
▁джуман	-12421
▁ерохин	-12422
▁желтые	-12423
▁зиярат	-12424
▁корчуг	-12425
▁кусары	-12426
▁кучкин	-12427
▁ланцев	-12428
▁оленин	-12429
▁тутаев	-12430
▁ускова	-12431
▁шутова	-12432
▁эминов	-12433
▁юлиуса	-12434
▁янушев	-12435
генерала	-12436
данилина	-12437
стуновой	-12438
фсоюзная	-12439
▁брычков	-12440
▁военный	-12441
▁гоженко	-12442
▁голдина	-12443
▁дурнова	-12444
▁дьякова	-12445
▁ерошкин	-12446
▁макарян	-12447
▁петухов	-12448
▁раковка	-12449
▁сакский	-12450
▁сиднева	-12451
▁теткино	-12452
▁токарев	-12453
сулинский	-12454
▁авесовна	-12455
▁базарная	-12456
▁бардиной	-12457
▁баякаева	-12458
▁влазнева	-12459
▁захарова	-12460
▁костарев	-12461
▁малофеев	-12462
▁маркарян	-12463
▁меридиан	-12464
▁михайлюк	-12465
▁нахимова	-12466
▁ольговка	-12467
▁открытые	-12468
▁полетаев	-12469
▁сидорова	-12470
▁ужаковой	-12471
▁шутников	-12472
афанасьева	-12473
городкерчь	-12474
▁витвинова	-12475
▁кусарский	-12476
▁лужнецкая	-12477
▁мадюскина	-12478
▁фарходжон	-12479
▁гулькевичи	-12480
▁есильского	-12481
▁ильфатович	-12482
▁иштеряково	-12483
▁каирбекова	-12484
▁каймановка	-12485
▁калашников	-12486
▁калишников	-12487
▁каменского	-12488
▁каневского	-12489
▁карачаевск	-12490
▁карельская	-12491
▁карцивадзе	-12492
▁каслинская	-12493
▁касьяновой	-12494
▁киргизской	-12495
▁киргизстан	-12496
▁кириллович	-12497
▁кировского	-12498
▁киясовский	-12499
▁ялта	-12500
▁армии	-12501
▁зинат	-12502
белыйяр	-12503
кошехаб	-12504
магитль	-12505
удякова	-12506
▁август	-12507
▁валиев	-12508
▁дрыков	-12509
▁иванте	-12510
▁микаил	-12511
▁нечаев	-12512
▁россию	-12513
▁рябуха	-12514
▁хочуев	-12515
▁яицкая	-12516
добринка	-12517
олоховая	-12518
отрадная	-12519
▁авершин	-12520
▁бальжан	-12521
▁валяева	-12522
▁зарипов	-12523
▁зинаида	-12524
▁ипатово	-12525
▁кишинев	-12526
▁ломакин	-12527
▁мелихов	-12528
▁меньшин	-12529
▁таежное	-12530
▁шарипов	-12531
кошехабль	-12532
реченский	-12533
▁алевтина	-12534
▁алферова	-12535
▁бальбуха	-12536
▁булякова	-12537
▁булярово	-12538
▁бурденко	-12539
▁бурушина	-12540
▁добринка	-12541
▁догузова	-12542
▁донскова	-12543
▁евладова	-12544
▁евлашкин	-12545
▁жирновск	-12546
▁илекский	-12547
▁калугина	-12548
▁кобякова	-12549
▁кончаков	-12550
▁лихачева	-12551
▁ломакина	-12552
▁наурская	-12553
▁нечаевой	-12554
▁остужева	-12555
▁сергачев	-12556
▁сташкова	-12557
▁султаево	-12558
городбийск	-12559
городсаров	-12560
▁асадуллин	-12561
▁волошиной	-12562
▁гумарович	-12563
▁гумаровна	-12564
▁достояние	-12565
▁ефимкиной	-12566
▁илекского	-12567
▁копыловой	-12568
▁кургузова	-12569
▁маликовна	-12570
▁малиновка	-12571
▁мартьянов	-12572
▁мельчаков	-12573
▁мрбелыйяр	-12574
▁немировой	-12575
▁рашидовна	-12576
▁ринатовна	-12577
▁семипалат	-12578
▁шотогорка	-12579
городуштобе	-12580
отрадинский	-12581
саратовская	-12582
▁введенское	-12583
▁городбийск	-12584
▁исмаилович	-12585
▁клочихиной	-12586
▁ковшаровка	-12587
▁кокубаевой	-12588
▁колесников	-12589
▁комсомолец	-12590
▁кондинский	-12591
▁кононыхино	-12592
▁котайкской	-12593
▁кочковский	-12594
▁кошкинский	-12595
▁красникова	-12596
▁красноград	-12597
▁кривянская	-12598
▁кстовского	-12599
▁лсср	-12600
▁пудож	-12601
▁скруп	-12602
▁стрим	-12603
жуковой	-12604
рочкино	-12605
▁бинали	-12606
▁князев	-12607
▁мавлуд	-12608
▁мокрое	-12609
▁моторз	-12610
▁сельга	-12611
ветствии	-12612
ировичив	-12613
нефедова	-12614
рамонова	-12615
▁андриса	-12616
▁давиташ	-12617
▁жуковой	-12618
▁корнеев	-12619
▁мавлуда	-12620
▁родиной	-12621
▁хмелева	-12622
▁шмелева	-12623
▁антрацит	-12624
▁баисовой	-12625
▁буранный	-12626
▁господин	-12627
▁землянов	-12628
▁избербаш	-12629
▁князевой	-12630
▁корнеева	-12631
▁коротких	-12632
▁коротков	-12633
▁кошевого	-12634
▁лопатько	-12635
▁моторная	-12636
▁окружнов	-12637
▁окружной	-12638
▁ряжского	-12639
▁сныткина	-12640
▁тюлюпова	-12641
▁уточкину	-12642
▁федюкова	-12643
▁чапаевск	-12644
▁чикунова	-12645
алексеевич	-12646
артамонова	-12647
питкяранта	-12648
▁арсеновна	-12649
▁ахвахский	-12650
▁ахмедович	-12651
▁ахмедовна	-12652
▁бердышева	-12653
▁гладышева	-12654
▁джафарова	-12655
▁завершена	-12656
▁игнатково	-12657
▁кайбицкой	-12658
▁ковернино	-12659
▁корнецкий	-12660
▁курочкино	-12661
▁мансурова	-12662
▁никитинка	-12663
▁путейская	-12664
▁саккулово	-12665
▁скрупская	-12666
▁тармакуль	-12667
▁томиловой	-12668
▁туринская	-12669
▁холмского	-12670
▁чернецкий	-12671
▁черницыно	-12672
▁шериповна	-12673
▁юрьевский	-12674
городбелово	-12675
страницыуян	-12676
стройсервис	-12677
▁агентского	-12678
▁андрианова	-12679
▁герасимова	-12680
▁ибраимович	-12681
▁игнатьевой	-12682
▁кайбицкого	-12683
▁кузнецовой	-12684
▁купчихиной	-12685
▁курбонович	-12686
▁кущевского	-12687
▁латвийская	-12688
▁латвийской	-12689
▁любинского	-12690
▁ляйляксого	-12691
▁малодубрав	-12692
▁маншатовой	-12693
▁мартыненко	-12694
▁мартыновой	-12695
▁мартьянова	-12696
▁марьинская	-12697
▁масалитина	-12698
▁маслеников	-12699
▁нягань	-12700
▁петухи	-12701
▁прямые	-12702
▁прямых	-12703
▁торгах	-12704
черджиев	-12705
▁алатырь	-12706
▁ромашко	-12707
▁щепетов	-12708
ануфриева	-12709
атывающий	-12710
▁ароновна	-12711
▁булдыгин	-12712
▁махардзе	-12713
▁онищенко	-12714
▁тоншаево	-12715
▁чекмагуш	-12716
▁яминская	-12717
▁янтарный	-12718
алагирский	-12719
чердынский	-12720
▁агнищенко	-12721
▁анненское	-12722
▁ануфриева	-12723
▁арсланова	-12724
▁вздорнова	-12725
▁габбасова	-12726
▁гаврильев	-12727
▁гардабани	-12728
▁журавлёва	-12729
▁заозерный	-12730
▁запорожье	-12731
▁некрасова	-12732
▁новожилов	-12733
▁петуховой	-12734
▁печерская	-12735
▁повторные	-12736
▁повторных	-12737
▁полевской	-12738
▁пономарев	-12739
▁раменское	-12740
▁ромикович	-12741
▁садовника	-12742
▁тамерланд	-12743
▁урванский	-12744
▁филевский	-12745
▁хароновна	-12746
колпнянский	-12747
▁атяшевский	-12748
▁вардановна	-12749
▁вишневский	-12750
▁волченкова	-12751
▁гомельской	-12752
▁журавлёвой	-12753
▁казначеева	-12754
▁махмудович	-12755
▁мелентьева	-12756
▁мельчугова	-12757
▁месторекаг	-12758
▁месторекап	-12759
▁мирошников	-12760
▁михайленко	-12761
▁михайловне	-12762
▁мокроусово	-12763
▁молдавская	-12764
▁молдавской	-12765
▁молодежный	-12766
▁мончегорск	-12767
▁мордвинова	-12768
▁москаленко	-12769
▁мостовский	-12770
▁мурадбегов	-12771
▁невельский	-12772
▁немировича	-12773
▁нерчинский	-12774
▁нескучаева	-12775
▁нефтегорск	-12776
▁николаевне	-12777
▁николаенко	-12778
▁никольский	-12779
▁новоалексе	-12780
▁новодвинск	-12781
▁новожилова	-12782
▁новотроицк	-12783
▁нурдинович	-12784
▁образцовой	-12785
▁объявлению	-12786
▁ольховская	-12787
▁омутинский	-12788
▁освобожден	-12789
▁островская	-12790
▁очаковский	-12791
▁очаковское	-12792
▁палехского	-12793
▁панферовой	-12794
▁партизанск	-12795
▁партсъезда	-12796
▁парфёненко	-12797
▁пашенцевой	-12798
▁перевалово	-12799
▁фаиг	-12800
ысаево	-12801
▁сципио	-12802
тамбасова	-12803
▁городела	-12804
▁головлево	-12805
▁кидалсоло	-12806
▁настоящая	-12807
▁настоящим	-12808
▁онежского	-12809
▁полысаево	-12810
▁свободный	-12811
▁серебряно	-12812
▁субботово	-12813
▁теофиполь	-12814
кожевникова	-12815
невосточная	-12816
улицадружбы	-12817
▁бурмистров	-12818
▁кандалакша	-12819
▁кондратьев	-12820
▁максимовны	-12821
▁менделеево	-12822
▁перевозная	-12823
▁пестрикова	-12824
▁петровская	-12825
▁пинежского	-12826
▁пионерский	-12827
▁пичаевский	-12828
▁победитель	-12829
▁погарского	-12830
▁погорелова	-12831
▁подвинский	-12832
▁подольских	-12833
▁подпорожье	-12834
▁пойковский	-12835
▁поклонская	-12836
▁полтавская	-12837
▁пономарева	-12838
▁посельская	-12839
▁постельняк	-12840
▁прайдгрупп	-12841
▁предгорный	-12842
▁привольная	-12843
▁привольный	-12844
▁пригорское	-12845
▁приозерный	-12846
▁присекайло	-12847
▁проводятся	-12848
▁пролетарск	-12849
▁промпроект	-12850
▁проспектим	-12851
▁профирович	-12852
▁прохладный	-12853
▁прохоревич	-12854
▁пунктбисер	-12855
▁пунктизмай	-12856
▁пунктнижне	-12857
▁пунктслава	-12858
▁путренкова	-12859
▁пушкинский	-12860
▁разведчика	-12861
▁размикович	-12862
▁рамазанова	-12863
▁рафаилович	-12864
▁рафаиловна	-12865
▁рекапунктч	-12866
▁реутовская	-12867
▁ризвановна	-12868
▁ризвановны	-12869
▁ризуанович	-12870
▁ринатовича	-12871
▁родинского	-12872
▁роландович	-12873
▁романовича	-12874
▁российская	-12875
▁руднянский	-12876
▁русланович	-12877
▁сабанчеево	-12878
▁сайрамский	-12879
▁сакальская	-12880
▁салмышская	-12881
▁сальникова	-12882
▁самвеловна	-12883
▁сарматский	-12884
▁саткинский	-12885
▁сверкунова	-12886
▁светличный	-12887
▁северского	-12888
▁селенгинск	-12889
▁семеновича	-12890
▁семенченко	-12891
▁сергеевичу	-12892
▁серебряные	-12893
▁сернурский	-12894
▁славянская	-12895
▁смоленкину	-12896
▁снытникова	-12897
▁сократовна	-12898
▁соловецких	-12899
ршян	-12900
узяг	-12901
▁вэо	-12902
▁екб	-12903
▁ммк	-12904
▁нгч	-12905
▁тнс	-12906
>;;),	-12907
бехер	-12908
вшера	-12909
гелка	-12910
гобек	-12911
давыд	-12912
▁аиды	-12913
▁впск	-12914
▁изюм	-12915
▁лепс	-12916
▁ойха	-12917
▁цунт	-12918
▁шайх	-12919
кянова	-12920
ледний	-12921
ясовой	-12922
▁аллея	-12923
▁артак	-12924
▁дэлок	-12925
▁ишбул	-12926
▁кукош	-12927
▁маныч	-12928
▁марет	-12929
▁минег	-12930
▁мисон	-12931
▁мыски	-12932
▁пруды	-12933
▁рауза	-12934
▁руфет	-12935
▁стайл	-12936
▁сфере	-12937
виженка	-12938
иничный	-12939
уварова	-12940
юсупова	-12941
▁алишер	-12942
▁геранб	-12943
▁гурзуф	-12944
▁митроф	-12945
▁нижнет	-12946
▁первые	-12947
▁сказал	-12948
▁сёмина	-12949
дьяконов	-12950
плещенко	-12951
узягский	-12952
▁камалов	-12953
▁кэпитал	-12954
▁малозем	-12955
▁нившера	-12956
▁уйского	-12957
▁шарашли	-12958
дастакерт	-12959
▁акименко	-12960
▁джавршян	-12961
▁киевских	-12962
▁кунавина	-12963
▁лепсинск	-12964
▁малгобек	-12965
▁улицасдт	-12966
▁улицаялт	-12967
▁уроженцу	-12968
архангелка	-12969
▁верясовой	-12970
▁ишбулдино	-12971
▁крекянова	-12972
▁последний	-12973
▁системами	-12974
▁софийское	-12975
▁технопарк	-12976
давыдовский	-12977
формовщиков	-12978
▁главатских	-12979
▁забастовке	-12980
▁заключении	-12981
▁леонидовне	-12982
▁предыдущие	-12983
▁соловьевой	-12984
▁сосновский	-12985
▁спиридонов	-12986
▁станислава	-12987
▁старчикова	-12988
▁стежинская	-12989
▁степанович	-12990
▁страницыча	-12991
▁стюденикин	-12992
▁субботиной	-12993
▁судакского	-12994
▁султановна	-12995
▁султаншина	-12996
▁султрекову	-12997
▁счетчикова	-12998
▁сысертский	-12999
еднее	-13000
когрн	-13001
тфрид	-13002
▁нияз	-13003
едёвка	-13004
естюба	-13005
ичалки	-13006
кирево	-13007
мизёво	-13008
омонов	-13009
узулук	-13010
ффтрак	-13011
▁анцух	-13012
▁ашага	-13013
▁жевла	-13014
▁иляна	-13015
▁квеси	-13016
▁мотко	-13017
▁ораза	-13018
▁смиян	-13019
▁товуз	-13020
▁фирас	-13021
▁целеб	-13022
▁шарып	-13023
арейная	-13024
васюнин	-13025
ворхлик	-13026
знадзор	-13027
льногих	-13028
сторный	-13029
хвалова	-13030
▁айсель	-13031
▁алехин	-13032
▁асбест	-13033
▁бироби	-13034
▁вагнер	-13035
▁дятлов	-13036
▁илсура	-13037
▁исупов	-13038
▁киешки	-13039
▁куксов	-13040
▁натров	-13041
▁паскал	-13042
▁ралины	-13043
▁студен	-13044
▁чухров	-13045
манинова	-13046
овежская	-13047
панковка	-13048
почтовая	-13049
соболева	-13050
уравский	-13051
чистенка	-13052
▁апкогрн	-13053
▁бестюба	-13054
▁бузулук	-13055
▁веричев	-13056
▁готфрид	-13057
▁кассано	-13058
▁керяшев	-13059
▁немцева	-13060
▁почтамт	-13061
▁санарка	-13062
▁татевик	-13063
▁заявляло	-13064
▁логунова	-13065
▁неделина	-13066
▁ниязовны	-13067
▁новоярки	-13068
▁редников	-13069
▁слобозия	-13070
▁тапалова	-13071
▁тобольск	-13072
▁шарыпово	-13073
боровикова	-13074
▁городинта	-13075
▁жевлакова	-13076
▁забитович	-13077
▁кенармеша	-13078
▁пансионат	-13079
▁публичных	-13080
▁соломонов	-13081
▁стаффтрак	-13082
▁батарейная	-13083
▁биробиджан	-13084
▁квесисская	-13085
▁лаишевский	-13086
▁меглинская	-13087
▁просторный	-13088
▁сунженский	-13089
▁таджикской	-13090
▁тадэумовны	-13091
▁тазовского	-13092
▁талдинский	-13093
▁тамбовский	-13094
▁татаринцев	-13095
▁тейковский	-13096
▁терновский	-13097
▁территорию	-13098
▁территория	-13099
▁энем	-13100
заманк	-13101
объявл	-13102
псебай	-13103
турмуш	-13104
▁елену	-13105
▁тяжко	-13106
▁флота	-13107
бетовка	-13108
дудинка	-13109
кржижан	-13110
рузский	-13111
сскогор	-13112
чекунов	-13113
▁бельцы	-13114
▁блечеп	-13115
▁бустон	-13116
▁зониха	-13117
▁ломать	-13118
▁мозырь	-13119
▁пескот	-13120
▁подачи	-13121
▁тайшет	-13122
▁цессии	-13123
▁щемели	-13124
антоново	-13125
беспьера	-13126
ерезовка	-13127
заманкул	-13128
костенко	-13129
ованцева	-13130
▁аджиева	-13131
▁амвроси	-13132
▁бедного	-13133
▁белеков	-13134
▁веселая	-13135
▁ветеран	-13136
▁договор	-13137
▁зульфии	-13138
▁кааламо	-13139
▁мексика	-13140
▁никулин	-13141
▁силаева	-13142
▁усонбек	-13143
▁харбяты	-13144
▁чурилов	-13145
▁шаврова	-13146
▁шапиева	-13147
▁юннатов	-13148
головнино	-13149
дамбаевны	-13150
дергачева	-13151
сармаково	-13152
сидоркина	-13153
снесарева	-13154
▁варламов	-13155
▁вовняков	-13156
▁геологов	-13157
▁городнеф	-13158
▁гудермес	-13159
▁куркутов	-13160
▁сайгибат	-13161
▁странами	-13162
▁терентий	-13163
▁шепелева	-13164
▁шиканова	-13165
▁эдикович	-13166
▁эренцева	-13167
ромарьевка	-13168
эзерханова	-13169
▁блечепсин	-13170
▁кузмицкая	-13171
▁остапенко	-13172
▁пятилетки	-13173
▁савкатова	-13174
▁щемелинин	-13175
▁юрьянский	-13176
улицапобеды	-13177
▁кетчерская	-13178
▁пересадкой	-13179
▁пескотский	-13180
▁робеспьера	-13181
▁тимофеевич	-13182
▁тимошкиной	-13183
▁тосненский	-13184
▁тракторная	-13185
▁трансволга	-13186
▁трансстрой	-13187
▁трифонович	-13188
▁тротуарная	-13189
▁тужинского	-13190
▁тукаевский	-13191
▁тункинский	-13192
▁тупкелевич	-13193
▁тургайской	-13194
▁турменский	-13195
▁турубарова	-13196
▁тюменского	-13197
▁уваровский	-13198
▁улицабарам	-13199
дизайн	-13200
рявцев	-13201
▁атаян	-13202
▁бевза	-13203
▁бибик	-13204
▁косых	-13205
▁лынга	-13206
▁рагим	-13207
▁ракка	-13208
▁сивко	-13209
▁элиза	-13210
ветисян	-13211
козлова	-13212
ленобор	-13213
ыгонная	-13214
▁балхаш	-13215
▁бугуль	-13216
▁важины	-13217
▁ввезли	-13218
▁запуск	-13219
▁локоть	-13220
▁нерюнг	-13221
▁тимино	-13222
▁эхирит	-13223
листовой	-13224
трольных	-13225
чутчуева	-13226
ызгалово	-13227
ятницкая	-13228
▁акперов	-13229
▁аравина	-13230
▁бабыкин	-13231
▁баукина	-13232
▁блинова	-13233
▁вильдан	-13234
▁входной	-13235
▁гильдия	-13236
▁гречкин	-13237
▁дербент	-13238
▁илюхина	-13239
▁косяков	-13240
▁муницип	-13241
▁наргиза	-13242
▁оруджов	-13243
▁отрожки	-13244
▁причалы	-13245
▁таллинн	-13246
щербакова	-13247
▁аветисян	-13248
▁бадырова	-13249
▁ватолина	-13250
▁вестовой	-13251
▁ворошнин	-13252
▁гагрский	-13253
▁делягина	-13254
▁зарипова	-13255
▁карбовак	-13256
▁клевенка	-13257
▁лукоянов	-13258
▁милешина	-13259
▁минакова	-13260
▁мичурина	-13261
▁младышка	-13262
▁мюлькали	-13263
▁ненахова	-13264
▁пастухов	-13265
▁песочная	-13266
▁расходов	-13267
▁собянина	-13268
▁федькина	-13269
мижбекский	-13270
роводстрой	-13271
хорошилова	-13272
черниговка	-13273
▁анушервон	-13274
▁гибадатов	-13275
▁гурамовна	-13276
▁джовтаева	-13277
▁карагайлы	-13278
▁карамалак	-13279
▁карапетян	-13280
▁кротевича	-13281
▁кудрявцев	-13282
▁курильчик	-13283
▁непиющего	-13284
▁рамизович	-13285
▁ролдугина	-13286
▁савельева	-13287
леноборский	-13288
▁балтийская	-13289
▁брызгалово	-13290
▁городартем	-13291
▁зибаирович	-13292
▁постригань	-13293
▁стройсфера	-13294
▁улицагероя	-13295
▁улицакарат	-13296
▁улицамарии	-13297
▁улицанихол	-13298
▁улицановая	-13299
теурье	-13300
▁зиёев	-13301
тимково	-13302
▁апреля	-13303
▁бакчар	-13304
▁горяев	-13305
▁кактус	-13306
▁каринэ	-13307
▁лаврен	-13308
▁митько	-13309
▁садрет	-13310
▁сириус	-13311
▁удалой	-13312
ансового	-13313
будилова	-13314
илимский	-13315
лопатино	-13316
▁аргудан	-13317
▁желудев	-13318
▁зверево	-13319
▁карапуд	-13320
▁кошевое	-13321
▁купавна	-13322
▁курумоч	-13323
▁рафаэль	-13324
▁рихарда	-13325
▁сапегин	-13326
▁селиван	-13327
▁снежная	-13328
▁составу	-13329
▁телегин	-13330
▁увеличе	-13331
▁умершая	-13332
▁шипилов	-13333
запировна	-13334
промторга	-13335
▁взлетная	-13336
▁гивиевна	-13337
▁замглавы	-13338
▁квартале	-13339
▁килабова	-13340
▁макушино	-13341
▁милютина	-13342
▁охтеурье	-13343
▁сукиасян	-13344
▁удюковна	-13345
▁утвердил	-13346
▁филюшова	-13347
▁фоатовна	-13348
▁шакурова	-13349
▁шахтеров	-13350
анфиловцев	-13351
городпенза	-13352
улицаминус	-13353
▁абакумова	-13354
▁архилиной	-13355
▁болдырева	-13356
▁герменчик	-13357
▁дамбиевич	-13358
▁дроботько	-13359
▁качмазова	-13360
▁ледачкова	-13361
▁ливенский	-13362
▁магдебург	-13363
▁неглинная	-13364
▁петлякова	-13365
▁санталова	-13366
▁сусликова	-13367
▁увинского	-13368
▁углегорск	-13369
▁фартусова	-13370
▁хардзиани	-13371
▁цветочная	-13372
▁четверкин	-13373
▁шарифович	-13374
▁шигонский	-13375
▁шикаренко	-13376
кулахметова	-13377
улицаверхне	-13378
▁бакчарский	-13379
▁городхимки	-13380
▁ибрагимова	-13381
▁крутенькое	-13382
▁оричевский	-13383
▁самсонович	-13384
▁спецгазавт	-13385
▁увеличения	-13386
▁улицачерем	-13387
▁улицаюжный	-13388
▁управления	-13389
▁урванского	-13390
▁урмарского	-13391
▁фабрициуса	-13392
▁фархадович	-13393
▁федичкиной	-13394
▁фенуновича	-13395
▁филимонова	-13396
▁филиппович	-13397
▁филипповка	-13398
▁французова	-13399
▁рэдэр	-13400
▁садек	-13401
▁тацин	-13402
▁цуров	-13403
великий	-13404
кузбасс	-13405
суждали	-13406
▁апаран	-13407
▁льобко	-13408
▁ресурс	-13409
▁рыбака	-13410
▁тальцы	-13411
▁фархат	-13412
▁ярмаро	-13413
общество	-13414
▁ащеулов	-13415
▁гаевого	-13416
▁импульс	-13417
▁лифусай	-13418
▁почепко	-13419
▁сычевки	-13420
▁уренгой	-13421
▁чупрова	-13422
▁шекалов	-13423
▁эверест	-13424
▁эпомкоф	-13425
куломский	-13426
муродович	-13427
юбилейная	-13428
▁абитовой	-13429
▁алфёрова	-13430
▁бирюзова	-13431
▁ватутина	-13432
▁гомбоева	-13433
▁гортепло	-13434
▁дубинчик	-13435
▁еременко	-13436
▁жозефина	-13437
▁институт	-13438
▁калунина	-13439
▁кулышева	-13440
▁лаптиева	-13441
▁лощенова	-13442
▁макридин	-13443
▁могочино	-13444
▁муртазин	-13445
▁обручева	-13446
▁сабакарь	-13447
▁сасыколи	-13448
▁сивелева	-13449
▁солодков	-13450
▁фазлиева	-13451
▁яксатово	-13452
кугоейский	-13453
посадского	-13454
▁бакинская	-13455
▁бордяшова	-13456
▁верблюжья	-13457
▁газовиков	-13458
▁гимазовой	-13459
▁джимиевой	-13460
▁ивашкевич	-13461
▁ирбитский	-13462
▁карантина	-13463
▁конищевой	-13464
▁лошманова	-13465
▁обсуждали	-13466
▁парийский	-13467
▁ржаницина	-13468
▁скляренко	-13469
▁сухоруков	-13470
▁урожайная	-13471
▁чермошное	-13472
▁черпакова	-13473
разитдинова	-13474
▁анкудинова	-13475
▁баймакский	-13476
▁долбешкина	-13477
▁зиннюровна	-13478
▁калсыновна	-13479
▁катавского	-13480
▁киреевский	-13481
▁люберцкого	-13482
▁мойдиновна	-13483
▁москаленки	-13484
▁мустафаева	-13485
▁обогрелова	-13486
▁хайруллаев	-13487
▁хайруллина	-13488
▁хамзатовна	-13489
▁харовского	-13490
▁херсонской	-13491
▁хорезмская	-13492
▁хорольская	-13493
▁чайковский	-13494
▁чегемского	-13495
▁черемновой	-13496
▁черкасская	-13497
▁черкасской	-13498
▁черноморка	-13499
должник	-13500
▁бетьки	-13501
▁глобал	-13502
▁дрезна	-13503
▁зарема	-13504
▁зулета	-13505
▁минину	-13506
▁одинец	-13507
▁отрады	-13508
▁чуркин	-13509
камчатск	-13510
ключевка	-13511
оволково	-13512
спечения	-13513
хмелевец	-13514
▁анюткин	-13515
▁быковец	-13516
▁волгогр	-13517
▁горячев	-13518
▁грозный	-13519
▁козелки	-13520
▁коряжма	-13521
▁марфино	-13522
▁ноглики	-13523
▁семёнов	-13524
▁сибкоул	-13525
▁хвалева	-13526
▁шалушка	-13527
▁шкулёва	-13528
▁ахмадова	-13529
▁ачкасова	-13530
▁веревкин	-13531
▁германия	-13532
▁дандаева	-13533
▁канихова	-13534
▁каспийск	-13535
▁корепина	-13536
▁лазурный	-13537
▁никополь	-13538
▁парусная	-13539
▁пионеров	-13540
▁растений	-13541
▁салиндер	-13542
▁сапрыкин	-13543
▁топтыгин	-13544
[...]
