{
  "version": "1.0",
  "truncation": null,
  "padding": null,
  "added_tokens": [
    {
      "id": 0,
      "content": "<UNK>",
      "single_word": false,
      "lstrip": false,
      "rstrip": false,
      "normalized": false,
      "special": true
    },
    {
      "id": 1,
      "content": "<PAD>",
      "single_word": false,
      "lstrip": false,
      "rstrip": false,
      "normalized": false,
      "special": true
    },
    {
      "id": 2,
      "content": "<BOS>",
      "single_word": false,
      "lstrip": false,
      "rstrip": false,
      "normalized": false,
      "special": true
    },
    {
      "id": 3,
      "content": "<EOS>",
      "single_word": false,
      "lstrip": false,
      "rstrip": false,
      "normalized": false,
      "special": true
    }
  ],
  "normalizer": {
    "type": "Sequence",
    "normalizers": [
      {
        "type": "NFD"
      },
      {
        "type": "Lowercase"
      }
    ]
  },
  "pre_tokenizer": {
    "type": "Whitespace"
  },
  "post_processor": null,
  "decoder": null,
  "model": {
    "type": "WordPiece",
    "unk_token": "[UNK]",
    "continuing_subword_prefix": "##",
    "max_input_chars_per_word": 100,
    "vocab": {
      "<UNK>": 0,
      "<PAD>": 1,
      "<BOS>": 2,
      "<EOS>": 3,
      "(": 4,
      ")": 5,
      ",": 6,
      "-": 7,
      ".": 8,
      ":": 9,
      ";": 10,
      "<": 11,
      ">": 12,
      "_": 13,
      "a": 14,
      "b": 15,
      "c": 16,
      "d": 17,
      "e": 18,
      "f": 19,
      "g": 20,
      "h": 21,
      "i": 22,
      "k": 23,
      "l": 24,
      "m": 25,
      "n": 26,
      "o": 27,
      "p": 28,
      "r": 29,
      "s": 30,
      "t": 31,
      "u": 32,
      "v": 33,
      "x": 34,
      "y": 35,
      "̆": 36,
      "̈": 37,
      "а": 38,
      "б": 39,
      "в": 40,
      "г": 41,
      "д": 42,
      "е": 43,
      "ж": 44,
      "з": 45,
      "и": 46,
      "к": 47,
      "л": 48,
      "м": 49,
      "н": 50,
      "о": 51,
      "п": 52,
      "р": 53,
      "с": 54,
      "т": 55,
      "у": 56,
      "ф": 57,
      "х": 58,
      "ц": 59,
      "ч": 60,
      "ш": 61,
      "щ": 62,
      "ъ": 63,
      "ы": 64,
      "ь": 65,
      "э": 66,
      "ю": 67,
      "я": 68,
      "##а": 69,
      "##б": 70,
      "##р": 71,
      "##о": 72,
      "##в": 73,
      "##с": 74,
      "##к": 75,
      "##и": 76,
      "##̆": 77,
      "##ш": 78,
      "##н": 79,
      "##л": 80,
      "##е": 81,
      "##д": 82,
      "##т": 83,
      "##ь": 84,
      "##г": 85,
      "##ч": 86,
      "##ж": 87,
      "##ы": 88,
      "##у": 89,
      "##х": 90,
      "##п": 91,
      "##з": 92,
      "##ю": 93,
      "##щ": 94,
      "##ц": 95,
      "##я": 96,
      "##м": 97,
      "##ф": 98,
      "##̈": 99,
      "##ъ": 100,
      "##э": 101,
      "##)": 102,
      "##;": 103,
      "##.": 104,
      "##v": 105,
      "##x": 106,
      "##i": 107,
      "##,": 108,
      "##<": 109,
      "##m": 110,
      "##h": 111,
      "##b": 112,
      "##d": 113,
      "##u": 114,
      "##l": 115,
      "##-": 116,
      "##(": 117,
      "##a": 118,
      "##:": 119,
      "##e": 120,
      "##t": 121,
      "##r": 122,
      "##s": 123,
      "##y": 124,
      "##o": 125,
      "##n": 126,
      "##f": 127,
      "##k": 128,
      "##p": 129,
      "##g": 130,
      "##_": 131,
      "##c": 132,
      "nu": 133,
      "num": 134,
      "##ст": 135,
      "##ск": 136,
      "##ро": 137,
      "##ан": 138,
      "##й": 139,
      "##ен": 140,
      "##ер": 141,
      ">,": 142,
      "об": 143,
      ">-": 144,
      "##од": 145,
      "##ми": 146,
      ">-<": 147,
      "##ени": 148,
      "##ерс": 149,
      "##ра": 150,
      "##ва": 151,
      "##ла": 152,
      "##ор": 153,
      "##нн": 154,
      "##ов": 155,
      "ре": 156,
      "##ле": 157,
      "##ом": 158,
      "##ай": 159,
      "##ет": 160,
      "##анк": 161,
      "##ост": 162,
      "##лек": 163,
      "##ства": 164,
      "банк": 165,
      "##рот": 166,
      "##ии": 167,
      "банкрот": 168,
      "##ско": 169,
      "##на": 170,
      "##ения": 171,
      "##им": 172,
      "##ел": 173,
      "##вл": 174,
      "##аз": 175,
      "не": 176,
      "##об": 177,
      ">.": 178,
      "##мит": 179,
      "##па": 180,
      "##ант": 181,
      "##тро": 182,
      "ком": 183,
      "##явл": 184,
      "##пи": 185,
      "оф": 186,
      "##ые": 187,
      "объ": 188,
      "##имо": 189,
      "под": 190,
      "объявл": 191,
      "комм": 192,
      "##ход": 193,
      "элек": 194,
      "электро": 195,
      "##лам": 196,
      "дост": 197,
      "##упа": 198,
      "газ": 199,
      "##ску": 200,
      "##еты": 201,
      "банкротства": 202,
      "фай": 203,
      "электронн": 204,
      "pd": 205,
      "верс": 206,
      "##ерсант": 207,
      "##ормит": 208,
      "##ениями": 209,
      "необ": 210,
      "##писку": 211,
      "оформит": 212,
      "подписку": 213,
      "объявлениями": 214,
      "коммерсант": 215,
      "##ходимо": 216,
      "доступа": 217,
      "газеты": 218,
      "банкротствах": 219,
      "файлам": 220,
      "электронные": 221,
      "pdf": 222,
      "версии": 223,
      "необходимо": 224,
      "оформить": 225,
      "коммерсантъ": 226,
      "##го": 227,
      "##но": 228,
      "##др": 229,
      "##ни": 230,
      "##ем": 231,
      "##ев": 232,
      "##шени": 233,
      "инн": 234,
      "##ли": 235,
      "##оро": 236,
      "##ая": 237,
      "##би": 238,
      "##ской": 239,
      "обл": 240,
      "##лс": 241,
      ".,": 242,
      "##нилс": 243,
      "снилс": 244,
      "##ская": 245,
      "дел": 246,
      "##раж": 247,
      "##ест": 248,
      "решени": 249,
      "решением": 250,
      "ар": 251,
      "##ий": 252,
      "су": 253,
      "горо": 254,
      "##ар": 255,
      "делу": 256,
      "##бит": 257,
      "##битраж": 258,
      "арбитраж": 259,
      "суд": 260,
      "##ес": 261,
      "##ич": 262,
      "##ны": 263,
      "##ласт": 264,
      "област": 265,
      "мест": 266,
      "адр": 267,
      ">.<": 268,
      "адрес": 269,
      "кра": 270,
      "##ль": 271,
      "##ский": 272,
      "no": 273,
      "ас": 274,
      "ул": 275,
      "##ри": 276,
      "##ного": 277,
      "##ед": 278,
      "области": 279,
      "##он": 280,
      "##ия": 281,
      "##ров": 282,
      "суда": 283,
      "арбитражного": 284,
      "##ур": 285,
      "##ат": 286,
      "##ин": 287,
      "##ского": 288,
      "##али": 289,
      ">)": 290,
      ".:": 291,
      "##за": 292,
      "городр": 293,
      "местор": 294,
      "мо": 295,
      "##ко": 296,
      "город": 297,
      "##ка": 298,
      "##ина": 299,
      "##сп": 300,
      "моск": 301,
      "##зац": 302,
      "реали": 303,
      "от": 304,
      "при": 305,
      "##ный": 306,
      "респ": 307,
      "реализац": 308,
      "приз": 309,
      ".<": 310,
      "##ож": 311,
      "##ущ": 312,
      "##ам": 313,
      "##ол": 314,
      "им": 315,
      "##лекс": 316,
      "рай": 317,
      "алекс": 318,
      "на": 319,
      "##ена": 320,
      "##ово": 321,
      "призн": 322,
      "имущ": 323,
      "##ества": 324,
      "кв": 325,
      "##евич": 326,
      "признан": 327,
      "реализация": 328,
      "ст": 329,
      "##уб": 330,
      "имущества": 331,
      "##ова": 332,
      "##гр": 333,
      "район": 334,
      "##ки": 335,
      "##яр": 336,
      "##евна": 337,
      "##ди": 338,
      "крас": 339,
      "##овской": 340,
      "##ожд": 341,
      "про": 342,
      "огр": 343,
      "вв": 344,
      "дер": 345,
      "рожд": 346,
      "края": 347,
      "введ": 348,
      "уп": 349,
      "##убли": 350,
      "гор": 351,
      "##евн": 352,
      "##овская": 353,
      "банкротом": 354,
      "деревн": 355,
      "##ал": 356,
      "республи": 357,
      "введена": 358,
      "##дан": 359,
      "##ги": 360,
      "арбитражный": 361,
      "алексан": 362,
      ">.,": 363,
      "##ель": 364,
      "##ношени": 365,
      "отношени": 366,
      "рождения": 367,
      "отношении": 368,
      "ни": 369,
      "##ная": 370,
      "деревняр": 371,
      "##ас": 372,
      "##оль": 373,
      "##кт": 374,
      "##ург": 375,
      "вла": 376,
      "##гра": 377,
      "влади": 378,
      "ор": 379,
      "##ева": 380,
      "##ге": 381,
      "граж": 382,
      "##ос": 383,
      "##лиц": 384,
      "##ной": 385,
      "сер": 386,
      "дело": 387,
      "улиц": 388,
      "##град": 389,
      "##ани": 390,
      "##стра": 391,
      "граждан": 392,
      "место": 393,
      "##во": 394,
      "##ович": 395,
      "##ура": 396,
      "##нод": 397,
      "##вет": 398,
      "##ющ": 399,
      "владими": 400,
      "##ут": 401,
      "проц": 402,
      "серге": 403,
      "край": 404,
      "фин": 405,
      "##овна": 406,
      "##нодар": 407,
      "##ят": 408,
      "##бин": 409,
      "александ": 410,
      "##бург": 411,
      "##ав": 412,
      "##равл": 413,
      "##ровна": 414,
      "управл": 415,
      "##еля": 416,
      "краснодар": 417,
      "##ств": 418,
      "процед": 419,
      "республики": 420,
      "гражданина": 421,
      "общ": 422,
      "##яющ": 423,
      "процедура": 424,
      "управляющ": 425,
      "пет": 426,
      "##ным": 427,
      "##ец": 428,
      "ан": 429,
      "пр": 430,
      "##ян": 431,
      "##род": 432,
      "са": 433,
      "реги": 434,
      "признана": 435,
      "##елябин": 436,
      "##ков": 437,
      "огрн": 438,
      "##вер": 439,
      "##ции": 440,
      "##ество": 441,
      "челябин": 442,
      "##город": 443,
      ">;": 444,
      "регистра": 445,
      "ал": 446,
      "ви": 447,
      "тат": 448,
      "##еж": 449,
      "общество": 450,
      "##аб": 451,
      "(<": 452,
      "##рович": 453,
      "ново": 454,
      "##енн": 455,
      "пер": 456,
      "##га": 457,
      "##ость": 458,
      "кон": 459,
      "##енной": 460,
      "ку": 461,
      "##ср": 462,
      "##ей": 463,
      "ми": 464,
      "##анич": 465,
      "##ветств": 466,
      "##осто": 467,
      "ответств": 468,
      "огранич": 469,
      "##енность": 470,
      "ответственность": 471,
      "ограниченной": 472,
      "ответственностью": 473,
      "вол": 474,
      "##стан": 475,
      ",<": 476,
      "область": 477,
      "##гор": 478,
      "москва": 479,
      "сам": 480,
      "##кова": 481,
      "регистрации": 482,
      "##си": 483,
      "##ак": 484,
      "##кур": 485,
      "нико": 486,
      "##кут": 487,
      "##аш": 488,
      "никола": 489,
      "дат": 490,
      "лени": 491,
      "московской": 492,
      "оп": 493,
      "##ред": 494,
      "##ван": 495,
      "##гов": 496,
      "ки": 497,
      "##от": 498,
      "##кр": 499,
      "##мен": 500,
      "нес": 501,
      "московская": 502,
      "стр": 503,
      "ир": 504,
      "##ятель": 505,
      "несосто": 506,
      "мар": 507,
      "##нград": 508,
      "несостоятель": 509,
      "##бир": 510,
      "##ит": 511,
      "викт": 512,
      "опред": 513,
      "##рат": 514,
      "##елени": 515,
      "##цы": 516,
      "определени": 517,
      "красно": 518,
      "конкур": 519,
      "определением": 520,
      "конкурс": 521,
      "улица": 522,
      "управляющий": 523,
      "ана": 524,
      "андр": 525,
      "иван": 526,
      "ом": 527,
      "##тай": 528,
      "упр": 529,
      "##аль": 530,
      "##хан": 531,
      "татар": 532,
      "самар": 533,
      "иркут": 534,
      "тор": 535,
      "##енко": 536,
      "##сибир": 537,
      "рост": 538,
      "##вы": 539,
      "##ербург": 540,
      "##анкт": 541,
      "##оров": 542,
      "петербург": 543,
      "##поль": 544,
      "##анс": 545,
      "тю": 546,
      "##ог": 547,
      "алтай": 548,
      "города": 549,
      "новосибир": 550,
      "пос": 551,
      "реализации": 552,
      "##ти": 553,
      "##ым": 554,
      "ниж": 555,
      "##аницы": 556,
      "краснодарского": 557,
      "##аг": 558,
      "##ци": 559,
      "##ент": 560,
      "страницы": 561,
      "несостоятельным": 562,
      "(,": 563,
      "санкт": 564,
      "##ул": 565,
      "##сть": 566,
      "став": 567,
      "орг": 568,
      "##ья": 569,
      "торгов": 570,
      "тюмен": 571,
      "##ма": 572,
      "##рополь": 573,
      "##ское": 574,
      "республика": 575,
      "москвы": 576,
      "##ана": 577,
      "##ное": 578,
      "алексе": 579,
      "дмит": 580,
      "##еров": 581,
      "органи": 582,
      "ев": 583,
      "юр": 584,
      "##ус": 585,
      "ленинград": 586,
      "татарстан": 587,
      "ставрополь": 588,
      "ко": 589,
      "##ьевич": 590,
      "##ун": 591,
      "воро": 592,
      "бел": 593,
      "вал": 594,
      "##со": 595,
      "##иль": 596,
      "##зат": 597,
      "евг": 598,
      "##емеров": 599,
      "викторов": 600,
      "кр": 601,
      "##ах": 602,
      "##дл": 603,
      "##ман": 604,
      "##гоград": 605,
      "##затор": 606,
      "кемеров": 607,
      "##ад": 608,
      "##она": 609,
      "##ис": 610,
      "##рож": 611,
      "александровна": 612,
      "##бр": 613,
      "организатор": 614,
      "кур": 615,
      "по": 616,
      "ча": 617,
      "##вердл": 618,
      "челябинской": 619,
      "##лав": 620,
      "орен": 621,
      "владимировна": 622,
      "александрович": 623,
      "мих": 624,
      "андре": 625,
      "##ыш": 626,
      "##ашк": 627,
      "##есто": 628,
      "датам": 629,
      "гр": 630,
      "свердл": 631,
      "урож": 632,
      "##ьевна": 633,
      "##овский": 634,
      "рез": 635,
      "сарат": 636,
      "волгоград": 637,
      "местож": 638,
      "краснояр": 639,
      "##мо": 640,
      "##ево": 641,
      "##овой": 642,
      "##ара": 643,
      "##ил": 644,
      "##неж": 645,
      "датаместо": 646,
      "со": 647,
      "##рова": 648,
      "краснодарский": 649,
      "##городской": 650,
      "конкурсный": 651,
      "вас": 652,
      "оренбург": 653,
      "),": 654,
      "нов": 655,
      "##та": 656,
      "александр": 657,
      "##осс": 658,
      "финанс": 659,
      "##да": 660,
      "каз": 661,
      "##лен": 662,
      "##еле": 663,
      "##орт": 664,
      "сергеевич": 665,
      "реш": 666,
      "##евны": 667,
      ">).": 668,
      "перм": 669,
      "финансов": 670,
      "чу": 671,
      "##уш": 672,
      "##айл": 673,
      "##ецк": 674,
      "воронеж": 675,
      "часть": 676,
      "##ый": 677,
      "ли": 678,
      "##остан": 679,
      "##яз": 680,
      "асср": 681,
      "челябинская": 682,
      "киров": 683,
      "анат": 684,
      "##ашкорт": 685,
      "урожен": 686,
      "##ашкортостан": 687,
      ".;": 688,
      "росс": 689,
      "##ру": 690,
      "##уль": 691,
      "##имор": 692,
      "сергеевна": 693,
      "василь": 694,
      "ак": 695,
      "##кар": 696,
      "##еп": 697,
      "##нова": 698,
      "примор": 699,
      "ниже": 700,
      "башкортостан": 701,
      "михайл": 702,
      "##ся": 703,
      "##кин": 704,
      "##нов": 705,
      "##аба": 706,
      "валер": 707,
      "за": 708,
      "чер": 709,
      "петербурга": 710,
      ":<": 711,
      "ел": 712,
      "ри": 713,
      "##кат": 714,
      "владимирович": 715,
      "ростовской": 716,
      "финансовым": 717,
      "анатоль": 718,
      "кар": 719,
      "##вод": 720,
      "##то": 721,
      "##мур": 722,
      "##ань": 723,
      "владимир": 724,
      "самарской": 725,
      "том": 726,
      "дата": 727,
      "самарская": 728,
      "ленинградской": 729,
      "елена": 730,
      "##их": 731,
      "##не": 732,
      "##городская": 733,
      "алтайского": 734,
      "астра": 735,
      "бр": 736,
      "нат": 737,
      "арбитражным": 738,
      "судом": 739,
      "призна": 740,
      "сергей": 741,
      "татья": 742,
      "сро": 743,
      "свет": 744,
      "##ви": 745,
      "##овка": 746,
      "##урман": 747,
      "астрахан": 748,
      "оль": 749,
      "##ала": 750,
      "##кра": 751,
      "##стас": 752,
      "##ваш": 753,
      "района": 754,
      "анастас": 755,
      "бор": 756,
      "кам": 757,
      "мурман": 758,
      "сср": 759,
      "##чи": 760,
      "##амб": 761,
      "управляющим": 762,
      "светл": 763,
      "фу": 764,
      "##анская": 765,
      "##льная": 766,
      "##инский": 767,
      "городмо": 768,
      "##тив": 769,
      "городмоск": 770,
      "год": 771,
      "##овск": 772,
      "##овского": 773,
      "##ется": 774,
      "##кры": 775,
      "омской": 776,
      "ставропольского": 777,
      "резол": 778,
      "##катер": 779,
      "кали": 780,
      "мр": 781,
      "рт": 782,
      "##из": 783,
      "##уд": 784,
      "##уз": 785,
      "##ябр": 786,
      "##горск": 787,
      "николаевна": 788,
      "иркутской": 789,
      "тюменской": 790,
      "дмитри": 791,
      "кемеровской": 792,
      "ад": 793,
      "ряз": 794,
      "ут": 795,
      "член": 796,
      "##лю": 797,
      "##анова": 798,
      "##рина": 799,
      "##инского": 800,
      "евген": 801,
      "чуваш": 802,
      "##еб": 803,
      "##онер": 804,
      "николаевич": 805,
      "новосибирской": 806,
      "наталь": 807,
      "##тивная": 808,
      "ая": 809,
      "##кина": 810,
      "##лова": 811,
      "##тон": 812,
      "##ение": 813,
      "##лия": 814,
      "откры": 815,
      "признается": 816,
      "ольга": 817,
      "екатер": 818,
      "лю": 819,
      "оле": 820,
      "##кс": 821,
      "##жи": 822,
      "##анской": 823,
      "иркутская": 824,
      "свердловской": 825,
      "резолю": 826,
      "вер": 827,
      "##нский": 828,
      "##ез": 829,
      "##жд": 830,
      "##лина": 831,
      "калини": 832,
      "ав": 833,
      "ген": 834,
      "ма": 835,
      "##слав": 836,
      "##гель": 837,
      "река": 838,
      "волог": 839,
      "викторович": 840,
      "россия": 841,
      "татьяна": 842,
      "игор": 843,
      "ром": 844,
      "тамб": 845,
      "##ук": 846,
      "городс": 847,
      "алексей": 848,
      "алтайский": 849,
      "##ункт": 850,
      "##абаров": 851,
      "брян": 852,
      "утвер": 853,
      "кт": 854,
      "ра": 855,
      "##бер": 856,
      "##рий": 857,
      "##ня": 858,
      "##ционер": 859,
      "алексеевич": 860,
      "дмитрий": 861,
      "волгоградской": 862,
      "красноярского": 863,
      "акционер": 864,
      "анастасия": 865,
      "городмосква": 866,
      "резолютивная": 867,
      "утвержд": 868,
      "бур": 869,
      "##гт": 870,
      "##зер": 871,
      "##ция": 872,
      "арт": 873,
      "ростовская": 874,
      "викторовна": 875,
      "года": 876,
      "вологод": 877,
      "аб": 878,
      "амур": 879,
      "кург": 880,
      "пом": 881,
      "пункт": 882,
      "пгт": 883,
      "род": 884,
      "хабаров": 885,
      "##ещ": 886,
      "##уж": 887,
      "##ух": 888,
      "##уга": 889,
      "##яч": 890,
      "##ктябр": 891,
      "орл": 892,
      "##акс": 893,
      "##агест": 894,
      "##мао": 895,
      "дол": 896,
      "иль": 897,
      "ирина": 898,
      "кор": 899,
      "мес": 900,
      "##бе": 901,
      "##еч": 902,
      "##ё": 903,
      "##ром": 904,
      "##ания": 905,
      "городв": 906,
      "гражданин": 907,
      "оренбургской": 908,
      "светлана": 909,
      "наталья": 910,
      ":.": 911,
      "стро": 912,
      "##авл": 913,
      "рег": 914,
      "##евский": 915,
      "виктор": 916,
      "си": 917,
      "уд": 918,
      "хмао": 919,
      "##уг": 920,
      ">,<": 921,
      "##овны": 922,
      "##над": 923,
      "архан": 924,
      "##ных": 925,
      "##алин": 926,
      "##кас": 927,
      "ставропольский": 928,
      "лип": 929,
      "уроженец": 930,
      "борис": 931,
      "твер": 932,
      "ха": 933,
      "##ча": 934,
      "сах": 935,
      "нижегородской": 936,
      "архангель": 937,
      "гри": 938,
      "дагест": 939,
      "ин": 940,
      "октябр": 941,
      "сп": 942,
      "##ир": 943,
      "##лан": 944,
      "##ех": 945,
      "##енский": 946,
      "##инск": 947,
      "деревня": 948,
      "##ятия": 949,
      "##ецко": 950,
      "новосибирская": 951,
      "саратовской": 952,
      "олег": 953,
      "геннад": 954,
      "роман": 955,
      "роди": 956,
      "бар": 957,
      "бал": 958,
      "вяч": 959,
      "ос": 960,
      "уль": 961,
      "##ково": 962,
      "##гар": 963,
      "андреевич": 964,
      "вячес": 965,
      ").": 966,
      ":,": 967,
      "анн": 968,
      "мкр": 969,
      "рсо": 970,
      "юлия": 971,
      "##быш": 972,
      "##ровны": 973,
      "##инская": 974,
      "куз": 975,
      "андрей": 976,
      "омская": 977,
      "юрьевич": 978,
      "гущ": 979,
      "зар": 980,
      "ка": 981,
      "ло": 982,
      "мор": 983,
      "окр": 984,
      "##ок": 985,
      "##ег": 986,
      "##ду": 987,
      "##чат": 988,
      "приморский": 989,
      "акционерное": 990,
      "вячеслав": 991,
      "гущина": 992,
      ",,": 993,
      "бо": 994,
      "каб": 995,
      "##йбыш": 996,
      "##ний": 997,
      "над": 998,
      "##итель": 999,
      "##ецкая": 1000,
      "васильевна": 1001,
      "анатольевна": 1002,
      "##извод": 1003,
      "дм": 1004,
      "манс": 1005,
      "павл": 1006,
      "тер": 1007,
      "##оз": 1008,
      "##каз": 1009,
      "##ты": 1010,
      "##ании": 1011,
      "##ений": 1012,
      "##анты": 1013,
      "##евск": 1014,
      "##орож": 1015,
      "производ": 1016,
      "челябинск": 1017,
      "куйбыш": 1018,
      "андреевна": 1019,
      "##евой": 1020,
      "воронежской": 1021,
      "приморского": 1022,
      "дон": 1023,
      "кк": 1024,
      "##ло": 1025,
      "##ект": 1026,
      "##дов": 1027,
      "##ийск": 1028,
      "##кино": 1029,
      "несостоятельной": 1030,
      "евгений": 1031,
      "курской": 1032,
      "кировской": 1033,
      "екатерина": 1034,
      "бер": 1035,
      "дж": 1036,
      "й": 1037,
      "кри": 1038,
      "макс": 1039,
      "ца": 1040,
      "цент": 1041,
      "ши": 1042,
      "##лы": 1043,
      "##дж": 1044,
      "##евка": 1045,
      "местон": 1046,
      "ассо": 1047,
      "##каль": 1048,
      "признано": 1049,
      "##дино": 1050,
      "алания": 1051,
      "омск": 1052,
      "белгородской": 1053,
      "красноярский": 1054,
      "казах": 1055,
      "астраханской": 1056,
      "калининград": 1057,
      "утвержден": 1058,
      "бурятия": 1059,
      "дагестан": 1060,
      "лит": 1061,
      "мер": 1062,
      "усть": 1063,
      "ханты": 1064,
      "эл": 1065,
      "##нского": 1066,
      "##ля": 1067,
      "##лева": 1068,
      ">),": 1069,
      "регистрация": 1070,
      "вит": 1071,
      "##ото": 1072,
      "марий": 1073,
      "марина": 1074,
      "##циа": 1075,
      "тюменская": 1076,
      "евгеньевна": 1077,
      "##тоном": 1078,
      "автоном": 1079,
      "сахалин": 1080,
      "ульян": 1081,
      "анна": 1082,
      "ассоциа": 1083,
      "вар": 1084,
      "ле": 1085,
      "##ека": 1086,
      "##еева": 1087,
      "##дин": 1088,
      "##ыге": 1089,
      "##цев": 1090,
      "##ство": 1091,
      ">,,": 1092,
      "##енис": 1093,
      "##овет": 1094,
      "##емен": 1095,
      "##овая": 1096,
      "##гры": 1097,
      "областьот": 1098,
      "алексеевна": 1099,
      "кемеровская": 1100,
      "пермского": 1101,
      "камчат": 1102,
      "тверская": 1103,
      "кабар": 1104,
      "максим": 1105,
      "да": 1106,
      "дей": 1107,
      "денис": 1108,
      "кост": 1109,
      "кал": 1110,
      "кбр": 1111,
      "мск": 1112,
      "ту": 1113,
      "##ба": 1114,
      "##ченко": 1115,
      "##цк": 1116,
      "##рос": 1117,
      "##айкаль": 1118,
      "##елен": 1119,
      "##елия": 1120,
      "##ник": 1121,
      "городб": 1122,
      "степ": 1123,
      "новосибирск": 1124,
      "верх": 1125,
      "балкар": 1126,
      "мансий": 1127,
      "куйбышев": 1128,
      "центра": 1129,
      "##ыгея": 1130,
      "кабардино": 1131,
      "заб": 1132,
      "маг": 1133,
      "укра": 1134,
      "югры": 1135,
      "##ные": 1136,
      "##еми": 1137,
      "##ыс": 1138,
      "##стант": 1139,
      "##лев": 1140,
      "##ников": 1141,
      "##рин": 1142,
      "##ало": 1143,
      "##ольш": 1144,
      "##овича": 1145,
      "##ству": 1146,
      "ленинградская": 1147,
      "свердловская": 1148,
      "саратов": 1149,
      "##крас": 1150,
      "##береж": 1151,
      "округа": 1152,
      "надеж": 1153,
      "алина": 1154,
      "пар": 1155,
      "рп": 1156,
      "сз": 1157,
      "фед": 1158,
      "##они": 1159,
      "##сс": 1160,
      "##ды": 1161,
      "##ьева": 1162,
      "##ьян": 1163,
      "##ыл": 1164,
      "##рово": 1165,
      "александра": 1166,
      "констант": 1167,
      "юрьевна": 1168,
      "белгородская": 1169,
      "валент": 1170,
      "волгоградская": 1171,
      "оренбургская": 1172,
      "казань": 1173,
      "нижегородская": 1174,
      "валерьевич": 1175,
      "риг": 1176,
      "анатольевич": 1177,
      "мурманской": 1178,
      "дмитриевна": 1179,
      "чувашской": 1180,
      "вологодской": 1181,
      "автономного": 1182,
      "дом": 1183,
      "лет": 1184,
      "##ау": 1185,
      "##са": 1186,
      "##ек": 1187,
      "##ее": 1188,
      "##еги": 1189,
      "##че": 1190,
      "##чер": 1191,
      "##пова": 1192,
      "##фа": 1193,
      "##стро": 1194,
      "##вар": 1195,
      "##лас": 1196,
      "##лат": 1197,
      "##наул": 1198,
      "##никова": 1199,
      "##лин": 1200,
      "сур": 1201,
      "петро": 1202,
      "пред": 1203,
      "##ковский": 1204,
      "##курий": 1205,
      "крым": 1206,
      "курская": 1207,
      "##елез": 1208,
      "уроженка": 1209,
      "васильевич": 1210,
      "виктория": 1211,
      "##касия": 1212,
      "хакасия": 1213,
      "основ": 1214,
      "меркурий": 1215,
      "константин": 1216,
      "-<": 1217,
      "ах": 1218,
      "больш": 1219,
      "ге": 1220,
      "гали": 1221,
      "зав": 1222,
      "кол": 1223,
      "пен": 1224,
      "руб": 1225,
      "рус": 1226,
      "см": 1227,
      "сол": 1228,
      "##ач": 1229,
      "##ик": 1230,
      "##ново": 1231,
      "##цова": 1232,
      "##енская": 1233,
      "##мир": 1234,
      "городт": 1235,
      "ивановна": 1236,
      "саратовская": 1237,
      "заявл": 1238,
      "томской": 1239,
      "срок": 1240,
      "адыгея": 1241,
      "рязанской": 1242,
      "открыто": 1243,
      "помещ": 1244,
      "октябрь": 1245,
      "##ецкой": 1246,
      "##оветская": 1247,
      "действу": 1248,
      "основании": 1249,
      ".)": 1250,
      "кара": 1251,
      "фото": 1252,
      "##бас": 1253,
      "##ино": 1254,
      "##ум": 1255,
      "##лава": 1256,
      "##завод": 1257,
      "городкрас": 1258,
      "наб": 1259,
      "##ольят": 1260,
      "улицак": 1261,
      "ленина": 1262,
      "иванович": 1263,
      "новгород": 1264,
      "воронежская": 1265,
      "открыта": 1266,
      "спб": 1267,
      "крист": 1268,
      "вардан": 1269,
      "действующ": 1270,
      "##ольятти": 1271,
      "аль": 1272,
      "бу": 1273,
      "дар": 1274,
      "зелен": 1275,
      "му": 1276,
      "сев": 1277,
      "##нецк": 1278,
      "##его": 1279,
      "##тов": 1280,
      "##же": 1281,
      "##анск": 1282,
      "##анского": 1283,
      "##енск": 1284,
      "##енской": 1285,
      "##овское": 1286,
      "##арм": 1287,
      "набереж": 1288,
      "##кистан": 1289,
      "ники": 1290,
      "улицас": 1291,
      "антон": 1292,
      ">;<": 1293,
      "конкурсное": 1294,
      "улицап": 1295,
      "миха": 1296,
      "пермский": 1297,
      "кировская": 1298,
      "михайловна": 1299,
      "карелия": 1300,
      "евгеньевич": 1301,
      "тамбовской": 1302,
      "долж": 1303,
      "григор": 1304,
      "производство": 1305,
      "казахстан": 1306,
      "леони": 1307,
      "балкарской": 1308,
      "центральная": 1309,
      "забайкаль": 1310,
      "надежда": 1311,
      "##строй": 1312,
      "смол": 1313,
      "заявление": 1314,
      "вы": 1315,
      "вад": 1316,
      "тольятти": 1317,
      "фи": 1318,
      "чел": 1319,
      "чеб": 1320,
      "юж": 1321,
      "##бов": 1322,
      "##ош": 1323,
      "##лим": 1324,
      "##ьевны": 1325,
      "##цева": 1326,
      "##сто": 1327,
      "##енина": 1328,
      "объявлена": 1329,
      "##евского": 1330,
      "арм": 1331,
      "мол": 1332,
      "иркутск": 1333,
      "коми": 1334,
      "вологодская": 1335,
      "амурская": 1336,
      "хабаровского": 1337,
      "липецкой": 1338,
      "родилас": 1339,
      "мансийского": 1340,
      "варданян": 1341,
      "леонид": 1342,
      "вадим": 1343,
      "родилась": 1344,
      "али": 1345,
      "бат": 1346,
      "ер": 1347,
      "желез": 1348,
      "из": 1349,
      "кс": 1350,
      "он": 1351,
      "окс": 1352,
      "ро": 1353,
      "туль": 1354,
      "уз": 1355,
      "##онн": 1356,
      "##иной": 1357,
      "##лов": 1358,
      "##ьк": 1359,
      "##ща": 1360,
      "##рослав": 1361,
      "##аны": 1362,
      "##раз": 1363,
      "##лее": 1364,
      "##лет": 1365,
      "банкр": 1366,
      "##обод": 1367,
      "##ард": 1368,
      "##ары": 1369,
      "##инбург": 1370,
      "городп": 1371,
      "улицал": 1372,
      "владимировны": 1373,
      "мира": 1374,
      "нижний": 1375,
      "тюмень": 1376,
      "крыл": 1377,
      "владимирской": 1378,
      "томская": 1379,
      "##езд": 1380,
      "амурской": 1381,
      "курганская": 1382,
      "олеговна": 1383,
      "мордов": 1384,
      ",,<": 1385,
      "далее": 1386,
      "галина": 1387,
      "мордовия": 1388,
      "ба": 1389,
      "бог": 1390,
      "ди": 1391,
      "мах": 1392,
      "поб": 1393,
      "пол": 1394,
      "рб": 1395,
      "рам": 1396,
      "тел": 1397,
      "ур": 1398,
      "шко": 1399,
      "югра": 1400,
      "ям": 1401,
      "якут": 1402,
      "##рт": 1403,
      "##ры": 1404,
      "##еш": 1405,
      "##дми": 1406,
      "##ули": 1407,
      "##хов": 1408,
      "##стов": 1409,
      "##ень": 1410,
      "##лё": 1411,
      "##лей": 1412,
      "##анка": 1413,
      "##ника": 1414,
      "##лся": 1415,
      "арбитражных": 1416,
      "##коп": 1417,
      "##кам": 1418,
      "признании": 1419,
      "##ольск": 1420,
      "улицам": 1421,
      "##нодорож": 1422,
      "сергеевны": 1423,
      "общества": 1424,
      "управляющих": 1425,
      "##ковского": 1426,
      "николай": 1427,
      "ивановской": 1428,
      "##альный": 1429,
      "астрахань": 1430,
      "##чик": 1431,
      "любов": 1432,
      "людми": 1433,
      "рекач": 1434,
      "рекап": 1435,
      "игоревич": 1436,
      "тамбовская": 1437,
      "##укци": 1438,
      "орловской": 1439,
      "орловская": 1440,
      "##бек": 1441,
      "архангельской": 1442,
      "виталь": 1443,
      "ассоциации": 1444,
      "оксана": 1445,
      "аукци": 1446,
      "вр": 1447,
      "до": 1448,
      "дог": 1449,
      "еф": 1450,
      "коро": 1451,
      "ла": 1452,
      "мж": 1453,
      "мал": 1454,
      "рд": 1455,
      "ск": 1456,
      "яр": 1457,
      "ярослав": 1458,
      "##бай": 1459,
      "##сом": 1460,
      "##ие": 1461,
      "##нт": 1462,
      "##ури": 1463,
      "##цко": 1464,
      "##er": 1465,
      "##стри": 1466,
      "##одеж": 1467,
      "##мин": 1468,
      "##орги": 1469,
      "##овец": 1470,
      "реал": 1471,
      "##айский": 1472,
      "офис": 1473,
      "##имова": 1474,
      "##евская": 1475,
      "##иче": 1476,
      "улан": 1477,
      "##ровский": 1478,
      "городново": 1479,
      "владислав": 1480,
      "петровна": 1481,
      "мир": 1482,
      "мария": 1483,
      "конкурсным": 1484,
      "поч": 1485,
      "##мурт": 1486,
      "##алаш": 1487,
      "мурманск": 1488,
      "мурманская": 1489,
      "рязанская": 1490,
      "##люд": 1491,
      "##няя": 1492,
      "артем": 1493,
      "илья": 1494,
      "строй": 1495,
      "строитель": 1496,
      "удэ": 1497,
      "удмурт": 1498,
      "геннадьевич": 1499,
      "родился": 1500,
      "барнаул": 1501,
      "зареги": 1502,
      "калининградской": 1503,
      "камчатский": 1504,
      "калуж": 1505,
      "наблюд": 1506,
      "кристина": 1507,
      "михаил": 1508,
      "побед": 1509,
      "людмила": 1510,
      "re": 1511,
      "го": 1512,
      "кас": 1513,
      "нен": 1514,
      "панк": 1515,
      "рф": 1516,
      "сар": 1517,
      "смир": 1518,
      "ша": 1519,
      "##вом": 1520,
      "##сова": 1521,
      "##куль": 1522,
      "##ша": 1523,
      "##нец": 1524,
      "##жский": 1525,
      "##уч": 1526,
      "##пп": 1527,
      "##пол": 1528,
      "##мет": 1529,
      "##фи": 1530,
      "##il": 1531,
      "##ut": 1532,
      "##ено": 1533,
      "##имат": 1534,
      "##нина": 1535,
      "##ровского": 1536,
      "##инской": 1537,
      "нах": 1538,
      "##овора": 1539,
      "александровны": 1540,
      "самара": 1541,
      "александровича": 1542,
      "сооб": 1543,
      "владимировича": 1544,
      "##иха": 1545,
      "городсанкт": 1546,
      "брянской": 1547,
      "утверждена": 1548,
      "курганской": 1549,
      "##ецкого": 1550,
      "берез": 1551,
      "костром": 1552,
      "украина": 1553,
      "георги": 1554,
      "пенз": 1555,
      "##онный": 1556,
      "улицаленина": 1557,
      "ямало": 1558,
      "любовь": 1559,
      "времен": 1560,
      "договора": 1561,
      "##ers": 1562,
      "##стриров": 1563,
      "##одежная": 1564,
      "зарегистриров": 1565,
      "reut": 1566,
      "reuters": 1567,
      ".-": 1568,
      "ma": 1569,
      "ат": 1570,
      "азер": 1571,
      "бла": 1572,
      "др": 1573,
      "доб": 1574,
      "дани": 1575,
      "зак": 1576,
      "кот": 1577,
      "пав": 1578,
      "сл": 1579,
      "советская": 1580,
      "тад": 1581,
      "##ой": 1582,
      "##восто": 1583,
      "##вцова": 1584,
      "##сср": 1585,
      "##кан": 1586,
      "##ид": 1587,
      "##ины": 1588,
      "##шина": 1589,
      "##нева": 1590,
      "##дар": 1591,
      "##ько": 1592,
      "##гу": 1593,
      "##ыр": 1594,
      "##хоз": 1595,
      "##пов": 1596,
      "##яцев": 1597,
      "##фт": 1598,
      "##мира": 1599,
      "##рав": 1600,
      "##лавл": 1601,
      "##ели": 1602,
      "##павл": 1603,
      "##нин": 1604,
      "##рилова": 1605,
      "##кол": 1606,
      "городч": 1607,
      "##зация": 1608,
      "реализ": 1609,
      "##диви": 1610,
      "прода": 1611,
      "гражд": 1612,
      "кир": 1613,
      "##ханов": 1614,
      "юрий": 1615,
      "##ашкент": 1616,
      "сою": 1617,
      "новгородской": 1618,
      "россий": 1619,
      "михайлович": 1620,
      "валерьевна": 1621,
      "владимирская": 1622,
      "дмитриевич": 1623,
      "адам": 1624,
      "рязань": 1625,
      "чувашская": 1626,
      "брянск": 1627,
      "корп": 1628,
      "месяцев": 1629,
      "индиви": 1630,
      "олегович": 1631,
      "##гарск": 1632,
      "кузнец": 1633,
      "вячеславович": 1634,
      "сахалинской": 1635,
      "##рославл": 1636,
      "завод": 1637,
      "действующее": 1638,
      "дарья": 1639,
      "челны": 1640,
      "железнодорож": 1641,
      "ксения": 1642,
      "удмуртской": 1643,
      "победы": 1644,
      "mail": 1645,
      "индивиду": 1646,
      "##рославль": 1647,
      "дем": 1648,
      "дуб": 1649,
      "ели": 1650,
      "егор": 1651,
      "кос": 1652,
      "ль": 1653,
      "лу": 1654,
      "май": 1655,
      "мин": 1656,
      "нор": 1657,
      "ог": 1658,
      "ола": 1659,
      "ры": 1660,
      "ру": 1661,
      "раб": 1662,
      "сав": 1663,
      "тим": 1664,
      "тур": 1665,
      "фо": 1666,
      "хас": 1667,
      "шах": 1668,
      "эн": 1669,
      "эль": 1670,
      "##арова": 1671,
      "##кон": 1672,
      "##еро": 1673,
      "##ье": 1674,
      "##ыз": 1675,
      "##ol": 1676,
      "##роп": 1677,
      "##ано": 1678,
      "##лак": 1679,
      "##омед": 1680,
      "##имов": 1681,
      "##азир": 1682,
      "##орова": 1683,
      "##арина": 1684,
      "##льск": 1685,
      "##рил": 1686,
      ">)-": 1687,
      "городказ": 1688,
      "##кала": 1689,
      "стар": 1690,
      "##ождения": 1691,
      "горьк": 1692,
      "владивосто": 1693,
      "##осов": 1694,
      "улицаб": 1695,
      "##ейская": 1696,
      "ирк": 1697,
      "##ителе": 1698,
      "конкурсного": 1699,
      "ростов": 1700,
      "нижне": 1701,
      "евгения": 1702,
      "валерия": 1703,
      "татьяны": 1704,
      "анастасии": 1705,
      "екатеринбург": 1706,
      "##зерж": 1707,
      "сибир": 1708,
      "гривцова": 1709,
      "октября": 1710,
      "дону": 1711,
      "валентин": 1712,
      "предп": 1713,
      "##заводск": 1714,
      "##щает": 1715,
      "##камск": 1716,
      "сообщает": 1717,
      "азербай": 1718,
      "городказань": 1719,
      "бол": 1720,
      "беля": 1721,
      "вазир": 1722,
      "дзерж": 1723,
      "его": 1724,
      "кл": 1725,
      "лаз": 1726,
      "лес": 1727,
      "мед": 1728,
      "мус": 1729,
      "пи": 1730,
      "публи": 1731,
      "руд": 1732,
      "семен": 1733,
      "тр": 1734,
      "тара": 1735,
      "уфа": 1736,
      "хар": 1737,
      "чр": 1738,
      "чи": 1739,
      "эду": 1740,
      "яна": 1741,
      "##акова": 1742,
      "##оп": 1743,
      "##окс": 1744,
      "##вол": 1745,
      "##ку": 1746,
      "##куз": 1747,
      "##шин": 1748,
      "##дова": 1749,
      "##гут": 1750,
      "##юк": 1751,
      "##фе": 1752,
      "##ерче": 1753,
      "##ении": 1754,
      "##рад": 1755,
      "##орег": 1756,
      "комсом": 1757,
      "коммерче": 1758,
      "##ногорск": 1759,
      ".:<": 1760,
      "месторека": 1761,
      "##кав": 1762,
      "ста": 1763,
      "стани": 1764,
      "##асср": 1765,
      "петрович": 1766,
      "первом": 1767,
      "саморег": 1768,
      "ленин": 1769,
      "кирил": 1770,
      "ивановская": 1771,
      "##ильск": 1772,
      "кемерово": 1773,
      "новоро": 1774,
      "##таж": 1775,
      "пермь": 1776,
      "##еповец": 1777,
      "астраханская": 1778,
      "дмитрия": 1779,
      "калинина": 1780,
      "игорь": 1781,
      "брянская": 1782,
      "хабаровский": 1783,
      "##ём": 1784,
      "липецкая": 1785,
      "борисович": 1786,
      "архангельская": 1787,
      "деревням": 1788,
      "геннадьевна": 1789,
      "вячеславовна": 1790,
      "павлович": 1791,
      "йош": 1792,
      "ульяновской": 1793,
      "ассоциация": 1794,
      "степан": 1795,
      "магомед": 1796,
      "##ринимат": 1797,
      "валентина": 1798,
      "сургут": 1799,
      "петропавл": 1800,
      "руслан": 1801,
      "север": 1802,
      "армения": 1803,
      "крылосов": 1804,
      "школьная": 1805,
      "аукционный": 1806,
      "наблюдения": 1807,
      "нахождения": 1808,
      "российский": 1809,
      "адамович": 1810,
      "индивидуальный": 1811,
      "владивосток": 1812,
      "##ителей": 1813,
      "предпринимат": 1814,
      "азербайдж": 1815,
      "вазирханов": 1816,
      "эдуард": 1817,
      "##кузнецк": 1818,
      "йошкар": 1819,
      "предприниматель": 1820,
      "ni": 1821,
      "to": 1822,
      "аг": 1823,
      "ай": 1824,
      "боро": 1825,
      "бакс": 1826,
      "ва": 1827,
      "во": 1828,
      "гер": 1829,
      "гол": 1830,
      "гаг": 1831,
      "луг": 1832,
      "ман": 1833,
      "мам": 1834,
      "мель": 1835,
      "наз": 1836,
      "ног": 1837,
      "пров": 1838,
      "св": 1839,
      "сим": 1840,
      "сент": 1841,
      "семи": 1842,
      "тал": 1843,
      "усс": 1844,
      "фр": 1845,
      "фар": 1846,
      "хол": 1847,
      "чит": 1848,
      "шосс": 1849,
      "яков": 1850,
      "##ре": 1851,
      "##оч": 1852,
      "##сф": 1853,
      "##ими": 1854,
      "##иков": 1855,
      "##ицк": 1856,
      "##лии": 1857,
      "##ть": 1858,
      "##тер": 1859,
      "##тор": 1860,
      "##ьевск": 1861,
      "##гин": 1862,
      "##чен": 1863,
      "##жевск": 1864,
      "##хо": 1865,
      "##пу": 1866,
      "##фу": 1867,
      "##hol": 1868,
      "##so": 1869,
      "##chol": 1870,
      "##анский": 1871,
      "##енд": 1872,
      "##енского": 1873,
      "##ерм": 1874,
      "##рам": 1875,
      "##лаев": 1876,
      "рест": 1877,
      "##лес": 1878,
      "нефт": 1879,
      "##нито": 1880,
      "##льный": 1881,
      "асмо": 1882,
      "##алий": 1883,
      "стат": 1884,
      "красная": 1885,
      "проезд": 1886,
      "##гиз": 1887,
      "##ельская": 1888,
      "##основ": 1889,
      "улицат": 1890,
      "сергея": 1891,
      "сад": 1892,
      "##горский": 1893,
      "николаевны": 1894,
      "##говещ": 1895,
      "кис": 1896,
      "красноарм": 1897,
      "татарской": 1898,
      "республикаб": 1899,
      "алексея": 1900,
      "кош": 1901,
      "курск": 1902,
      "##руем": 1903,
      "городмосквы": 1904,
      "##ября": 1905,
      "мака": 1906,
      "игоревна": 1907,
      "ради": 1908,
      "хабаровск": 1909,
      "##бекистан": 1910,
      "сахалинская": 1911,
      "магнито": 1912,
      "##ссийск": 1913,
      "сурхо": 1914,
      "##ачкала": 1915,
      "городкраснодар": 1916,
      "набережные": 1917,
      "забайкальского": 1918,
      "тульской": 1919,
      "##улируем": 1920,
      "ефр": 1921,
      "ярославской": 1922,
      "##алашиха": 1923,
      "ненецкого": 1924,
      "панкова": 1925,
      "таджи": 1926,
      "месяцевфу": 1927,
      "норильск": 1928,
      "оглы": 1929,
      "саморегулируем": 1930,
      "новороссийск": 1931,
      "nichol": 1932,
      "tom": 1933,
      "гагарина": 1934,
      "сентября": 1935,
      "уссур": 1936,
      "##son": 1937,
      "nicholson": 1938,
      "ау": 1939,
      "аск": 1940,
      "бет": 1941,
      "бак": 1942,
      "дн": 1943,
      "дан": 1944,
      "елен": 1945,
      "иш": 1946,
      "ири": 1947,
      "ижевск": 1948,
      "кан": 1949,
      "клю": 1950,
      "пят": 1951,
      "пуш": 1952,
      "рм": 1953,
      "раз": 1954,
      "рсф": 1955,
      "сел": 1956,
      "сат": 1957,
      "та": 1958,
      "тимо": 1959,
      "тол": 1960,
      "тих": 1961,
      "ташкент": 1962,
      "ура": 1963,
      "хут": 1964,
      "##ох": 1965,
      "##вест": 1966,
      "##сб": 1967,
      "##су": 1968,
      "##или": 1969,
      "##шева": 1970,
      "##шил": 1971,
      "##шкина": 1972,
      "##ном": 1973,
      "##нес": 1974,
      "##новой": 1975,
      "##лени": 1976,
      "##еровна": 1977,
      "##еевка": 1978,
      "##дина": 1979,
      "##тина": 1980,
      "##там": 1981,
      "##чева": 1982,
      "##ых": 1983,
      "##ха": 1984,
      "##юрт": 1985,
      "##мас": 1986,
      "##стр": 1987,
      "##енка": 1988,
      "##ера": 1989,
      "##пит": 1990,
      "комму": 1991,
      "##гова": 1992,
      "##ники": 1993,
      "##нинского": 1994,
      "##арский": 1995,
      "##завет": 1996,
      "##зальная": 1997,
      "городк": 1998,
      "##спект": 1999,
      "проф": 2000,
      "ввел": 2001,
      "##асс": 2002,
      "серги": 2003,
      "##вой": 2004,
      "алена": 2005,
      "##акан": 2006,
      "ленинский": 2007,
      "иванов": 2008,
      "##аган": 2009,
      "##исин": 2010,
      "попова": 2011,
      "груз": 2012,
      "красноярск": 2013,
      "новгородская": 2014,
      "##елев": 2015,
      "финансовый": 2016,
      "чурилова": 2017,
      "##ушка": 2018,
      "##рукт": 2019,
      "##кинский": 2020,
      "череповец": 2021,
      "##неч": 2022,
      "ртк": 2023,
      "николаевича": 2024,
      "артур": 2025,
      "артём": 2026,
      "городвол": 2027,
      "тверской": 2028,
      "архангельск": 2029,
      "калининградская": 2030,
      "виталий": 2031,
      "ульяновск": 2032,
      "##вард": 2033,
      "сроком": 2034,
      "городкрасно": 2035,
      "должник": 2036,
      "забайкальский": 2037,
      "фили": 2038,
      "узбекистан": 2039,
      "махачкала": 2040,
      "якутия": 2041,
      "##цкого": 2042,
      "смирнова": 2043,
      "костромская": 2044,
      "пензенской": 2045,
      "павел": 2046,
      "слобод": 2047,
      "продаже": 2048,
      "гражданка": 2049,
      "союза": 2050,
      "работ": 2051,
      "нижнекамск": 2052,
      "##кавказ": 2053,
      "старо": 2054,
      "станислав": 2055,
      "шоссе": 2056,
      "##говещенск": 2057,
      "магнитогорск": 2058,
      "таджикистан": 2059,
      "саморегулируемая": 2060,
      "уссурийск": 2061,
      "рсфср": 2062,
      ".(": 2063,
      "аш": 2064,
      "бы": 2065,
      "баш": 2066,
      "брат": 2067,
      "баба": 2068,
      "балашиха": 2069,
      "вор": 2070,
      "воз": 2071,
      "га": 2072,
      "гус": 2073,
      "дав": 2074,
      "дру": 2075,
      "жи": 2076,
      "житель": 2077,
      "зу": 2078,
      "ил": 2079,
      "илим": 2080,
      "ков": 2081,
      "кат": 2082,
      "куб": 2083,
      "кала": 2084,
      "лом": 2085,
      "нар": 2086,
      "ош": 2087,
      "ост": 2088,
      "пест": 2089,
      "рх": 2090,
      "ря": 2091,
      "ран": 2092,
      "рож": 2093,
      "сай": 2094,
      "син": 2095,
      "тра": 2096,
      "там": 2097,
      "тру": 2098,
      "ус": 2099,
      "ува": 2100,
      "эт": 2101,
      "этаж": 2102,
      "юлии": 2103,
      "ян": 2104,
      "##бу": 2105,
      "##бри": 2106,
      "##ое": 2107,
      "##оград": 2108,
      "##вед": 2109,
      "##сов": 2110,
      "##слава": 2111,
      "##ковой": 2112,
      "##шат": 2113,
      "##ну": 2114,
      "##тан": 2115,
      "##ьев": 2116,
      "##год": 2117,
      "##чинский": 2118,
      "##ыт": 2119,
      "##убин": 2120,
      "##хова": 2121,
      "##зе": 2122,
      "##щи": 2123,
      "##яш": 2124,
      "##ярославль": 2125,
      "##фон": 2126,
      "##мина": 2127,
      "##ован": 2128,
      "##леб": 2129,
      "##айская": 2130,
      "##пас": 2131,
      "##пат": 2132,
      "комп": 2133,
      "объект": 2134,
      "##ноград": 2135,
      "##ниж": 2136,
      "##билей": 2137,
      "решение": 2138,
      "##арского": 2139,
      "##арева": 2140,
      "##аркуль": 2141,
      "##есп": 2142,
      "##льчик": 2143,
      "##рид": 2144,
      "##онов": 2145,
      "##ровка": 2146,
      "##алия": 2147,
      ".:,": 2148,
      "городм": 2149,
      "городна": 2150,
      "городчер": 2151,
      "отрад": 2152,
      "##кирова": 2153,
      "пром": 2154,
      "пролет": 2155,
      "проспект": 2156,
      "##алтай": 2157,
      "##ольский": 2158,
      "орск": 2159,
      "##бинский": 2160,
      "##ствен": 2161,
      "управляющего": 2162,
      "ангарск": 2163,
      "##янка": 2164,
      "##ковское": 2165,
      "новос": 2166,
      "пере": 2167,
      "николая": 2168,
      "##откин": 2169,
      "красногорск": 2170,
      "##сибирск": 2171,
      "оренб": 2172,
      "##ышева": 2173,
      "соф": 2174,
      "сокол": 2175,
      "сергеевича": 2176,
      "пермской": 2177,
      "лид": 2178,
      "томск": 2179,
      "брю": 2180,
      "году": 2181,
      "натальи": 2182,
      "мага": 2183,
      "##берцы": 2184,
      "алексеевича": 2185,
      "курган": 2186,
      "долгов": 2187,
      "##част": 2188,
      "саха": 2189,
      "романовна": 2190,
      "павловна": 2191,
      "тула": 2192,
      "##цкая": 2193,
      "верхне": 2194,
      "куйбышевской": 2195,
      "##линская": 2196,
      "петрозаводск": 2197,
      "##нецкий": 2198,
      "никита": 2199,
      "улицасоветская": 2200,
      "чебокс": 2201,
      "чебаркуль": 2202,
      "молодежная": 2203,
      "богдан": 2204,
      "витальевич": 2205,
      "##ическая": 2206,
      "городновосибирск": 2207,
      "калужской": 2208,
      "зарегистрирован": 2209,
      "##хозная": 2210,
      "киргиз": 2211,
      "елизавет": 2212,
      "старый": 2213,
      "беляев": 2214,
      "провед": 2215,
      "реструкт": 2216,
      "статья": 2217,
      "ефрсб": 2218,
      "ирины": 2219,
      "жительства": 2220,
      "ранее": 2221,
      "елизавета": 2222,
      "реструктури": 2223,
      ">(": 2224,
      "ани": 2225,
      "аау": 2226,
      "бай": 2227,
      "бул": 2228,
      "бавл": 2229,
      "вес": 2230,
      "восто": 2231,
      "гуль": 2232,
      "кова": 2233,
      "кбас": 2234,
      "кпп": 2235,
      "лар": 2236,
      "леб": 2237,
      "лисин": 2238,
      "мл": 2239,
      "моро": 2240,
      "мая": 2241,
      "мат": 2242,
      "мас": 2243,
      "мак": 2244,
      "мад": 2245,
      "мух": 2246,
      "мало": 2247,
      "новая": 2248,
      "од": 2249,
      "озер": 2250,
      "пес": 2251,
      "пло": 2252,
      "то": 2253,
      "тыс": 2254,
      "усп": 2255,
      "фор": 2256,
      "чка": 2257,
      "чех": 2258,
      "шев": 2259,
      "шат": 2260,
      "шеб": 2261,
      "юбилей": 2262,
      "##аев": 2263,
      "##алекс": 2264,
      "##кес": 2265,
      "##кович": 2266,
      "##кент": 2267,
      "##ищ": 2268,
      "##нер": 2269,
      "##ела": 2270,
      "##дул": 2271,
      "##гм": 2272,
      "##жан": 2273,
      "##уй": 2274,
      "##зд": 2275,
      "##яв": 2276,
      "##як": 2277,
      "##ям": 2278,
      "##мс": 2279,
      "##ме": 2280,
      "##ским": 2281,
      "##ановский": 2282,
      "##енер": 2283,
      "##енское": 2284,
      "##ерт": 2285,
      "##одск": 2286,
      "##рас": 2287,
      "##рак": 2288,
      "##нном": 2289,
      "##остро": 2290,
      "##скол": 2291,
      "##елина": 2292,
      "##елик": 2293,
      "неви": 2294,
      "##нич": 2295,
      "##нист": 2296,
      "##евское": 2297,
      "арза": 2298,
      "сус": 2299,
      "сул": 2300,
      "сух": 2301,
      "##арнаул": 2302,
      "##льская": 2303,
      "##льский": 2304,
      "асгм": 2305,
      "##онт": 2306,
      "##ровская": 2307,
      "##урятия": 2308,
      "городз": 2309,
      "городярославль": 2310,
      "городниж": 2311,
      "##кир": 2312,
      "##ярск": 2313,
      "красный": 2314,
      "прожи": 2315,
      "##ольская": 2316,
      "##ольского": 2317,
      "владикавказ": 2318,
      "##утов": 2319,
      "виноград": 2320,
      "новоп": 2321,
      "новочер": 2322,
      "новокузнецк": 2323,
      "##гаш": 2324,
      "##ейский": 2325,
      "миро": 2326,
      "волжский": 2327,
      "киз": 2328,
      "##крым": 2329,
      "торги": 2330,
      "республикакрым": 2331,
      "организация": 2332,
      "юрьевны": 2333,
      "коз": 2334,
      "вороб": 2335,
      "бело": 2336,
      "белгород": 2337,
      "##сою": 2338,
      "##манова": 2339,
      "андрея": 2340,
      "##иля": 2341,
      "##елева": 2342,
      "пермская": 2343,
      "##руд": 2344,
      "черем": 2345,
      "черкес": 2346,
      "наталия": 2347,
      "светланы": 2348,
      "##уден": 2349,
      "чувашии": 2350,
      "викторовича": 2351,
      "акционерным": 2352,
      "долго": 2353,
      "##ёв": 2354,
      "строителей": 2355,
      "борисовна": 2356,
      "спор": 2357,
      "кузбас": 2358,
      "донецкая": 2359,
      "городбарнаул": 2360,
      "верхняя": 2361,
      "мансийский": 2362,
      "куйбышевская": 2363,
      "##ысск": 2364,
      "##ровой": 2365,
      "большая": 2366,
      "солнеч": 2367,
      "октябрьская": 2368,
      "##лават": 2369,
      "зеленод": 2370,
      "должника": 2371,
      "смоленской": 2372,
      "высо": 2373,
      "##стополь": 2374,
      "леонидовна": 2375,
      "алиш": 2376,
      "тульская": 2377,
      "городперм": 2378,
      "рамаз": 2379,
      "лап": 2380,
      "мирный": 2381,
      "строительная": 2382,
      "гого": 2383,
      "временным": 2384,
      "благовещенск": 2385,
      "льв": 2386,
      "майкоп": 2387,
      "шахты": 2388,
      "энгель": 2389,
      "горьковской": 2390,
      "петропавловск": 2391,
      "республикабурятия": 2392,
      "городволгоград": 2393,
      "городкрасноярск": 2394,
      "илимск": 2395,
      "##алтайск": 2396,
      "брюхов": 2397,
      "магадан": 2398,
      "кбасср": 2399,
      "лебед": 2400,
      "##нномысск": 2401,
      "невинномысск": 2402,
      "арзамас": 2403,
      "кузбасс": 2404,
      "городпермь": 2405,
      "ага": 2406,
      "ави": 2407,
      "алё": 2408,
      "бован": 2409,
      "вок": 2410,
      "гом": 2411,
      "гар": 2412,
      "дорож": 2413,
      "зи": 2414,
      "зай": 2415,
      "здан": 2416,
      "зас": 2417,
      "ис": 2418,
      "коб": 2419,
      "квар": 2420,
      "кроп": 2421,
      "лен": 2422,
      "лат": 2423,
      "мич": 2424,
      "оскол": 2425,
      "па": 2426,
      "пл": 2427,
      "пог": 2428,
      "прав": 2429,
      "сов": 2430,
      "слав": 2431,
      "свод": 2432,
      "снт": 2433,
      "соснов": 2434,
      "тар": 2435,
      "уч": 2436,
      "участ": 2437,
      "фа": 2438,
      "хай": 2439,
      "ция": 2440,
      "шу": 2441,
      "шест": 2442,
      "шар": 2443,
      "юн": 2444,
      "##банк": 2445,
      "##бат": 2446,
      "##бова": 2447,
      "##ора": 2448,
      "##оли": 2449,
      "##сут": 2450,
      "##кул": 2451,
      "##шкин": 2452,
      "##нян": 2453,
      "##нушка": 2454,
      "##лу": 2455,
      "##лон": 2456,
      "##те": 2457,
      "##тин": 2458,
      "##тыш": 2459,
      "##гина": 2460,
      "##гово": 2461,
      "##гал": 2462,
      "##гвард": 2463,
      "##чу": 2464,
      "##уп": 2465,
      "##хина": 2466,
      "##пк": 2467,
      "##ппи": 2468,
      "##зи": 2469,
      "##юг": 2470,
      "##щенко": 2471,
      "##ца": 2472,
      "##цовск": 2473,
      "##яд": 2474,
      "##мель": 2475,
      "##фан": 2476,
      "##or": 2477,
      "##сталь": 2478,
      "##анд": 2479,
      "##анов": 2480,
      "##ановского": 2481,
      "##йск": 2482,
      "##йский": 2483,
      "##енков": 2484,
      "##минский": 2485,
      "##лад": 2486,
      "##лаз": 2487,
      "##ования": 2488,
      "реест": 2489,
      "##ома": 2490,
      "##етия": 2491,
      "##ости": 2492,
      "##нар": 2493,
      "##нач": 2494,
      ">.)": 2495,
      "##ние": 2496,
      "##оронеж": 2497,
      "сув": 2498,
      "##арев": 2499,
      "##арская": 2500,
      "аслан": 2501,
      "##ондар": 2502,
      "##урус": 2503,
      "мос": 2504,
      "городу": 2505,
      "городсп": 2506,
      "##кад": 2507,
      "##кации": 2508,
      "##инат": 2509,
      "привол": 2510,
      "##олодежная": 2511,
      "##киров": 2512,
      "##киной": 2513,
      "##динова": 2514,
      "огрни": 2515,
      "рождена": 2516,
      "введено": 2517,
      "##асово": 2518,
      "##олье": 2519,
      "владислава": 2520,
      "анто": 2521,
      "салават": 2522,
      "новоалтайск": 2523,
      "куна": 2524,
      "кустан": 2525,
      "##ковая": 2526,
      "##мень": 2527,
      "марс": 2528,
      "маргар": 2529,
      "##ханова": 2530,
      "татарская": 2531,
      "##тиз": 2532,
      "##уллина": 2533,
      "республикакар": 2534,
      "алексеенко": 2535,
      "##уса": 2536,
      "коч": 2537,
      "ворошил": 2538,
      "крест": 2539,
      "##ональ": 2540,
      "полина": 2541,
      "##ышлен": 2542,
      "##илии": 2543,
      "соау": 2544,
      "новый": 2545,
      "##ецкий": 2546,
      "лилия": 2547,
      "михайлов": 2548,
      "анатольевны": 2549,
      "признал": 2550,
      "##чикова": 2551,
      "люберцы": 2552,
      "вера": 2553,
      "марат": 2554,
      "тамбов": 2555,
      "абакан": 2556,
      "##ухов": 2557,
      "##ёл": 2558,
      "сид": 2559,
      "##угурус": 2560,
      "##касск": 2561,
      "спец": 2562,
      "андреевича": 2563,
      "кузнецкий": 2564,
      "лолаев": 2565,
      "морд": 2566,
      "камчатского": 2567,
      "степанова": 2568,
      "балкарская": 2569,
      "федор": 2570,
      "федоров": 2571,
      "##ьянская": 2572,
      "константиновна": 2573,
      "геро": 2574,
      "пенза": 2575,
      "октябрьский": 2576,
      "зеленая": 2577,
      "южно": 2578,
      "южный": 2579,
      "леонидович": 2580,
      "батраз": 2581,
      "узбек": 2582,
      "##ловодск": 2583,
      "##ртовск": 2584,
      "улицамолодежная": 2585,
      "витальевна": 2586,
      "королева": 2587,
      "почт": 2588,
      "##полова": 2589,
      "георгиевна": 2590,
      "закры": 2591,
      "##невартовск": 2592,
      "кузнецова": 2593,
      "рыб": 2594,
      "турк": 2595,
      "сибирское": 2596,
      "медвед": 2597,
      "публикации": 2598,
      "коммерческим": 2599,
      "северная": 2600,
      "азербайджан": 2601,
      "баксанского": 2602,
      "мамед": 2603,
      "садовая": 2604,
      "кисловодск": 2605,
      "макарова": 2606,
      "баку": 2607,
      "пяти": 2608,
      "село": 2609,
      "##ленинград": 2610,
      "филиппи": 2611,
      "тракт": 2612,
      "труда": 2613,
      "переул": 2614,
      "восточ": 2615,
      "млн": 2616,
      "песч": 2617,
      "шебе": 2618,
      "новочеркасск": 2619,
      "долгополова": 2620,
      "алишеровна": 2621,
      "брюховецкая": 2622,
      "бованенко": 2623,
      "вокзальная": 2624,
      "кропоткин": 2625,
      "сводном": 2626,
      "городспб": 2627,
      "республикакарелия": 2628,
      "##ышленная": 2629,
      "##угуруслан": 2630,
      "ki": 2631,
      "аз": 2632,
      "ам": 2633,
      "ала": 2634,
      "би": 2635,
      "баз": 2636,
      "боб": 2637,
      "бала": 2638,
      "буд": 2639,
      "бийск": 2640,
      "бондар": 2641,
      "вед": 2642,
      "век": 2643,
      "велик": 2644,
      "гал": 2645,
      "гас": 2646,
      "гос": 2647,
      "габ": 2648,
      "дв": 2649,
      "де": 2650,
      "даль": 2651,
      "дун": 2652,
      "деп": 2653,
      "деми": 2654,
      "жу": 2655,
      "жан": 2656,
      "зем": 2657,
      "зин": 2658,
      "зуб": 2659,
      "ио": 2660,
      "истра": 2661,
      "кай": 2662,
      "лоб": 2663,
      "лев": 2664,
      "мы": 2665,
      "мет": 2666,
      "мант": 2667,
      "мура": 2668,
      "мала": 2669,
      "нина": 2670,
      "пск": 2671,
      "пор": 2672,
      "прот": 2673,
      "пут": 2674,
      "пыш": 2675,
      "рос": 2676,
      "руз": 2677,
      "сы": 2678,
      "сал": 2679,
      "сред": 2680,
      "совет": 2681,
      "ти": 2682,
      "тка": 2683,
      "так": 2684,
      "тул": 2685,
      "фил": 2686,
      "хан": 2687,
      "хоро": 2688,
      "чим": 2689,
      "чеч": 2690,
      "шаб": 2691,
      "шеле": 2692,
      "эк": 2693,
      "эст": 2694,
      "ярославль": 2695,
      "##аева": 2696,
      "##бы": 2697,
      "##баш": 2698,
      "##реч": 2699,
      "##респ": 2700,
      "##оу": 2701,
      "##оно": 2702,
      "##озер": 2703,
      "##октябр": 2704,
      "##винский": 2705,
      "##сун": 2706,
      "##ив": 2707,
      "##иш": 2708,
      "##ила": 2709,
      "##нг": 2710,
      "##нев": 2711,
      "##ненко": 2712,
      "##ненский": 2713,
      "##лово": 2714,
      "##лург": 2715,
      "##лян": 2716,
      "##ловский": 2717,
      "##екатер": 2718,
      "##дная": 2719,
      "##динский": 2720,
      "##дагест": 2721,
      "##това": 2722,
      "##ьи": 2723,
      "##ьская": 2724,
      "##гуль": 2725,
      "##гинский": 2726,
      "##чев": 2727,
      "##чков": 2728,
      "##жный": 2729,
      "##ыд": 2730,
      "##упи": 2731,
      "##уровна": 2732,
      "##хин": 2733,
      "##про": 2734,
      "##плы": 2735,
      "##зная": 2736,
      "##ют": 2737,
      "##яна": 2738,
      "##мед": 2739,
      "##мат": 2740,
      "##ur": 2741,
      "##ста": 2742,
      "##анц": 2743,
      "##ангарск": 2744,
      "##йская": 2745,
      "##енов": 2746,
      "##енкова": 2747,
      "##ерв": 2748,
      "##раб": 2749,
      "##ральная": 2750,
      "##омна": 2751,
      "##айской": 2752,
      "банком": 2753,
      "нев": 2754,
      "##пар": 2755,
      "##паева": 2756,
      "##тросова": 2757,
      "подольск": 2758,
      "##нос": 2759,
      "##нино": 2760,
      "##никово": 2761,
      "ари": 2762,
      "арх": 2763,
      "##арбитраж": 2764,
      "##арстан": 2765,
      "##аренко": 2766,
      "##ича": 2767,
      "##ринский": 2768,
      "##онд": 2769,
      "##уры": 2770,
      "##атарстан": 2771,
      "##инка": 2772,
      "##алинский": 2773,
      "##алиля": 2774,
      "городх": 2775,
      "городекатер": 2776,
      "московский": 2777,
      "##зации": 2778,
      "##амет": 2779,
      "##амара": 2780,
      "##оло": 2781,
      "##олот": 2782,
      "##убликов": 2783,
      "##алы": 2784,
      "##аллург": 2785,
      "республикат": 2786,
      "##гир": 2787,
      "##ургут": 2788,
      "орш": 2789,
      "орех": 2790,
      "улицаз": 2791,
      "улицав": 2792,
      "улицаш": 2793,
      "##уральск": 2794,
      "##бинск": 2795,
      "александров": 2796,
      "управление": 2797,
      "процедур": 2798,
      "общест": 2799,
      "петрова": 2800,
      "петуш": 2801,
      "петровский": 2802,
      "ант": 2803,
      "##янск": 2804,
      "##янская": 2805,
      "саф": 2806,
      "саид": 2807,
      "сальск": 2808,
      "##елябинск": 2809,
      "вид": 2810,
      "##ежный": 2811,
      "##ейд": 2812,
      "мил": 2813,
      "##кута": 2814,
      "опубликов": 2815,
      "кирова": 2816,
      "##менский": 2817,
      "##менко": 2818,
      "маркс": 2819,
      "##ита": 2820,
      "##иты": 2821,
      "##ратов": 2822,
      "красногвард": 2823,
      "улицаэ": 2824,
      "иваново": 2825,
      "иванова": 2826,
      "нижневартовск": 2827,
      "##ентьева": 2828,
      "страницыб": 2829,
      "страницып": 2830,
      "##ьянова": 2831,
      "республикадагест": 2832,
      "алексеева": 2833,
      "юрга": 2834,
      "коп": 2835,
      "коно": 2836,
      "##ахт": 2837,
      "##иса": 2838,
      "поле": 2839,
      "поли": 2840,
      "полева": 2841,
      "попов": 2842,
      "чаплы": 2843,
      "андреевны": 2844,
      "##илов": 2845,
      "соко": 2846,
      "сочи": 2847,
      "казач": 2848,
      "решения": 2849,
      "##уши": 2850,
      "анатоли": 2851,
      "россии": 2852,
      "васильевны": 2853,
      "##карев": 2854,
      "нижегород": 2855,
      "михайловны": 2856,
      "черкас": 2857,
      "##люм": 2858,
      "##ебования": 2859,
      "##онерская": 2860,
      "олеся": 2861,
      "авто": 2862,
      "матросова": 2863,
      "городсамара": 2864,
      "рами": 2865,
      "##нях": 2866,
      "ильи": 2867,
      "городворонеж": 2868,
      "##алинского": 2869,
      "липецк": 2870,
      "геннадий": 2871,
      "юрьевича": 2872,
      "зарег": 2873,
      "капит": 2874,
      "бой": 2875,
      "##тых": 2876,
      "марийской": 2877,
      "ульяновская": 2878,
      "городбел": 2879,
      "верхний": 2880,
      "украинская": 2881,
      "##бережные": 2882,
      "партиз": 2883,
      "анатольевича": 2884,
      "##егион": 2885,
      "##ческая": 2886,
      "ахт": 2887,
      "рубцовск": 2888,
      "караг": 2889,
      "##заводская": 2890,
      "кристины": 2891,
      "действующий": 2892,
      "букр": 2893,
      "муром": 2894,
      "##товый": 2895,
      "набережная": 2896,
      "григорий": 2897,
      "григорьевна": 2898,
      "##ьковская": 2899,
      "##ический": 2900,
      "почтовый": 2901,
      "ильяс": 2902,
      "калужская": 2903,
      "##метьевск": 2904,
      "костромской": 2905,
      "пензенская": 2906,
      "временный": 2907,
      "зарегистрирована": 2908,
      "данилова": 2909,
      "городчелябинск": 2910,
      "кузнецов": 2911,
      "железнодорожный": 2912,
      "руза": 2913,
      "тимаш": 2914,
      "валентинович": 2915,
      "валентиновна": 2916,
      "дзержинского": 2917,
      "егорова": 2918,
      "клуб": 2919,
      "муслюм": 2920,
      "публич": 2921,
      "тарас": 2922,
      "месторекагород": 2923,
      "первомайский": 2924,
      "первомайская": 2925,
      "кирилл": 2926,
      "##пуст": 2927,
      "нефте": 2928,
      "красноармейская": 2929,
      "аскк": 2930,
      "бетон": 2931,
      "днеп": 2932,
      "елены": 2933,
      "сатина": 2934,
      "толсто": 2935,
      "уральская": 2936,
      "##вестен": 2937,
      "профсою": 2938,
      "башкир": 2939,
      "братск": 2940,
      "ломоно": 2941,
      "объекта": 2942,
      "городнабережные": 2943,
      "чебоксары": 2944,
      "проведении": 2945,
      "реструктуризация": 2946,
      "ковалева": 2947,
      "чехов": 2948,
      "юбилейная": 2949,
      "прожива": 2950,
      "спортивная": 2951,
      "гоголя": 2952,
      "##фанас": 2953,
      "реестре": 2954,
      "огрнип": 2955,
      "пятигорск": 2956,
      "переулок": 2957,
      "протест": 2958,
      "чимкент": 2959,
      "шелехов": 2960,
      "##октябрьская": 2961,
      "городекатеринбург": 2962,
      "республикататарстан": 2963,
      "маркса": 2964,
      "республикадагестан": 2965,
      "полевая": 2966,
      "анатолий": 2967,
      "(;": 2968,
      "(.": 2969,
      "ab": 2970,
      "ge": 2971,
      "im": 2972,
      "ri": 2973,
      "sa": 2974,
      "акт": 2975,
      "афанас": 2976,
      "баб": 2977,
      "боров": 2978,
      "баг": 2979,
      "бугуруслан": 2980,
      "вн": 2981,
      "вл": 2982,
      "ван": 2983,
      "вен": 2984,
      "вод": 2985,
      "века": 2986,
      "выс": 2987,
      "ги": 2988,
      "гу": 2989,
      "гур": 2990,
      "ду": 2991,
      "душ": 2992,
      "джи": 2993,
      "ет": 2994,
      "жел": 2995,
      "зд": 2996,
      "звер": 2997,
      "золот": 2998,
      "ив": 2999,
      "иск": 3000,
      "исп": 3001,
      "иса": 3002,
      "км": 3003,
      "ким": 3004,
      "кож": 3005,
      "клин": 3006,
      "клим": 3007,
      "кыз": 3008,
      "лук": 3009,
      "лото": 3010,
      "мц": 3011,
      "меж": 3012,
      "мех": 3013,
      "нп": 3014,
      "нур": 3015,
      "нсо": 3016,
      "ов": 3017,
      "оз": 3018,
      "оси": 3019,
      "олим": 3020,
      "пе": 3021,
      "пан": 3022,
      "пле": 3023,
      "пост": 3024,
      "роб": 3025,
      "рав": 3026,
      "роз": 3027,
      "соб": 3028,
      "симо": 3029,
      "сая": 3030,
      "сева": 3031,
      "сот": 3032,
      "сви": 3033,
      "ссср": 3034,
      "спас": 3035,
      "те": 3036,
      "тро": 3037,
      "таз": 3038,
      "тля": 3039,
      "тасср": 3040,
      "таган": 3041,
      "ук": 3042,
      "ума": 3043,
      "уто": 3044,
      "херс": 3045,
      "хмель": 3046,
      "чай": 3047,
      "чир": 3048,
      "чег": 3049,
      "чек": 3050,
      "шара": 3051,
      "шуль": 3052,
      "##арово": 3053,
      "##банова": 3054,
      "##рянка": 3055,
      "##оф": 3056,
      "##оск": 3057,
      "##ояр": 3058,
      "##онова": 3059,
      "##вкар": 3060,
      "##винск": 3061,
      "##веева": 3062,
      "##сы": 3063,
      "##сай": 3064,
      "##км": 3065,
      "##кро": 3066,
      "##кор": 3067,
      "##кая": 3068,
      "##кского": 3069,
      "##куб": 3070,
      "##ковская": 3071,
      "##ковна": 3072,
      "##иа": 3073,
      "##ию": 3074,
      "##иан": 3075,
      "##ши": 3076,
      "##шь": 3077,
      "##шак": 3078,
      "##шала": 3079,
      "##шанск": 3080,
      "##шими": 3081,
      "##шахт": 3082,
      "##нур": 3083,
      "##лож": 3084,
      "##луб": 3085,
      "##ловой": 3086,
      "##еф": 3087,
      "##дра": 3088,
      "##дом": 3089,
      "##дный": 3090,
      "##дав": 3091,
      "##дение": 3092,
      "##джи": 3093,
      "##тур": 3094,
      "##ью": 3095,
      "##ген": 3096,
      "##гет": 3097,
      "##гат": 3098,
      "##гул": 3099,
      "##гуш": 3100,
      "##чет": 3101,
      "##чак": 3102,
      "##чинского": 3103,
      "##чевский": 3104,
      "##жев": 3105,
      "##ывкар": 3106,
      "##уф": 3107,
      "##упп": 3108,
      "##хма": 3109,
      "##пр": 3110,
      "##по": 3111,
      "##пром": 3112,
      "##порож": 3113,
      "##знес": 3114,
      "##юль": 3115,
      "##юмень": 3116,
      "##щад": 3117,
      "##щение": 3118,
      "##щик": 3119,
      "##цент": 3120,
      "##цево": 3121,
      "##цевой": 3122,
      "##яя": 3123,
      "##яков": 3124,
      "##якова": 3125,
      "##маз": 3126,
      "##мана": 3127,
      "##фр": 3128,
      "##фович": 3129,
      "##bo": 3130,
      "##du": 3131,
      "##dl": 3132,
      "##an": 3133,
      "##ag": 3134,
      "##es": 3135,
      "##ey": 3136,
      "##tt": 3137,
      "##ran": 3138,
      "##сти": 3139,
      "##ских": 3140,
      "##рог": 3141,
      "##роау": 3142,
      "##анный": 3143,
      "##ановна": 3144,
      "##анбе": 3145,
      "##енова": 3146,
      "##енции": 3147,
      "##ерш": 3148,
      "##ерли": 3149,
      "##ерат": 3150,
      "образ": 3151,
      "##минского": 3152,
      "##ению": 3153,
      "##рай": 3154,
      "##вая": 3155,
      "##лади": 3156,
      "##лавы": 3157,
      "##ореч": 3158,
      "##нни": 3159,
      "рес": 3160,
      "ребри": 3161,
      "##омсом": 3162,
      "##наб": 3163,
      "##нара": 3164,
      "неиз": 3165,
      "##митров": 3166,
      "##палова": 3167,
      "##троицк": 3168,
      "##ходка": 3169,
      "досто": 3170,
      "##нинский": 3171,
      "##еван": 3172,
      "##биб": 3173,
      "##бина": 3174,
      ".,<": 3175,
      "решениемарбитраж": 3176,
      "арс": 3177,
      "арно": 3178,
      "арина": 3179,
      "##ийская": 3180,
      "##ийского": 3181,
      "##арск": 3182,
      "адресу": 3183,
      "##льд": 3184,
      "##ровской": 3185,
      "##атов": 3186,
      ">)<": 3187,
      "##заева": 3188,
      "##кое": 3189,
      "городо": 3190,
      "городир": 3191,
      "городкиров": 3192,
      "городангарск": 3193,
      "отсут": 3194,
      "##амед": 3195,
      "наро": 3196,
      "нальчик": 3197,
      "находка": 3198,
      "студен": 3199,
      "ступи": 3200,
      "##овали": 3201,
      "##кит": 3202,
      "прох": 3203,
      "проект": 3204,
      "прокоп": 3205,
      "##алова": 3206,
      "##алковский": 3207,
      "##данова": 3208,
      "##гил": 3209,
      "##гит": 3210,
      "##ельная": 3211,
      "##ктывкар": 3212,
      "орел": 3213,
      "##евая": 3214,
      "##вок": 3215,
      "владимиров": 3216,
      "##утат": 3217,
      "##утдин": 3218,
      "##авюрт": 3219,
      "анд": 3220,
      "анти": 3221,
      "пре": 3222,
      "прес": 3223,
      "алла": 3224,
      "алма": 3225,
      "##ровича": 3226,
      "##енняя": 3227,
      "##гале": 3228,
      "куш": 3229,
      "куж": 3230,
      "##ейск": 3231,
      "миасс": 3232,
      "##горная": 3233,
      "##кутск": 3234,
      "##говский": 3235,
      "##отр": 3236,
      "##отова": 3237,
      "стрел": 3238,
      "марк": 3239,
      "маркова": 3240,
      "марьян": 3241,
      "##ить": 3242,
      "красногорский": 3243,
      "краснотур": 3244,
      "улицага": 3245,
      "улицачер": 3246,
      "улицакирова": 3247,
      "ивановны": 3248,
      "##оглеб": 3249,
      "алтайск": 3250,
      "посад": 3251,
      "##тищи": 3252,
      "##ымский": 3253,
      "нижняя": 3254,
      "страницыр": 3255,
      "страницыс": 3256,
      "страницык": 3257,
      "тюменский": 3258,
      "##макова": 3259,
      "##усова": 3260,
      "колес": 3261,
      "##унский": 3262,
      "##унзе": 3263,
      "викторовны": 3264,
      "круг": 3265,
      "##адыгея": 3266,
      "##рождение": 3267,
      "части": 3268,
      "андреева": 3269,
      "свердловск": 3270,
      "##илова": 3271,
      "васили": 3272,
      "##тау": 3273,
      "##язино": 3274,
      "##кину": 3275,
      "##кинского": 3276,
      "валерий": 3277,
      "зала": 3278,
      "риз": 3279,
      "карла": 3280,
      "##тое": 3281,
      "томский": 3282,
      "##вили": 3283,
      "ольги": 3284,
      "камыш": 3285,
      "камень": 3286,
      "камено": 3287,
      "каменка": 3288,
      "##чино": 3289,
      "##удин": 3290,
      "екатерины": 3291,
      "игоревны": 3292,
      "романа": 3293,
      "##берт": 3294,
      "амуре": 3295,
      "пунктт": 3296,
      "##ужба": 3297,
      "корресп": 3298,
      "##ечный": 3299,
      "##ечная": 3300,
      "##ечье": 3301,
      "городвлади": 3302,
      "виктории": 3303,
      "борисова": 3304,
      "борисовны": 3305,
      "борисоглеб": 3306,
      "дагестанской": 3307,
      "баран": 3308,
      "анны": 3309,
      "моршанск": 3310,
      "окруж": 3311,
      "округ": 3312,
      "##тыр": 3313,
      "производства": 3314,
      "берд": 3315,
      "джамб": 3316,
      "крив": 3317,
      "широ": 3318,
      "казахская": 3319,
      "автономный": 3320,
      "сахалинск": 3321,
      "##екабри": 3322,
      "камчатская": 3323,
      "максима": 3324,
      "калуга": 3325,
      "##баева": 3326,
      "##цкий": 3327,
      "##никовой": 3328,
      "степная": 3329,
      "##левна": 3330,
      "надежды": 3331,
      "парф": 3332,
      "##ьянов": 3333,
      "##латово": 3334,
      "константинович": 3335,
      "ахмед": 3336,
      "большой": 3337,
      "колп": 3338,
      "колос": 3339,
      "колхозная": 3340,
      "коломна": 3341,
      "солов": 3342,
      "городтюмень": 3343,
      "помещение": 3344,
      "октябрьского": 3345,
      ".),": 3346,
      "карача": 3347,
      "улицакрас": 3348,
      "улицакомсом": 3349,
      "альберт": 3350,
      "булат": 3351,
      "зеленоград": 3352,
      "севе": 3353,
      "северо": 3354,
      "набережной": 3355,
      "улицапро": 3356,
      "михаила": 3357,
      "григорьева": 3358,
      "казахстанская": 3359,
      "смоленская": 3360,
      "смоленск": 3361,
      "молдова": 3362,
      "вадимовна": 3363,
      "ксении": 3364,
      "городпо": 3365,
      "диана": 3366,
      "раменский": 3367,
      "урм": 3368,
      "##лёв": 3369,
      "##бековна": 3370,
      "аукциона": 3371,
      "ярославская": 3372,
      "##цкой": 3373,
      "городновокузнецк": 3374,
      "владиславовна": 3375,
      "строительное": 3376,
      "наблюдение": 3377,
      "касли": 3378,
      "ненецкий": 3379,
      "шадр": 3380,
      "березники": 3381,
      "георгиевич": 3382,
      "##ького": 3383,
      "##мирала": 3384,
      "железнодорожная": 3385,
      "демон": 3386,
      "косм": 3387,
      "фомина": 3388,
      "хасавюрт": 3389,
      "энер": 3390,
      "эльви": 3391,
      "горький": 3392,
      "боло": 3393,
      "лазо": 3394,
      "пионерская": 3395,
      "требования": 3396,
      "харьковская": 3397,
      "комсомольск": 3398,
      "ленинск": 3399,
      "ассоциациямс": 3400,
      "эдуардович": 3401,
      "агро": 3402,
      "айгуль": 3403,
      "бородина": 3404,
      "баксан": 3405,
      "луганская": 3406,
      "мельникова": 3407,
      "свобод": 3408,
      "семиб": 3409,
      "франц": 3410,
      "холдин": 3411,
      "читинская": 3412,
      "рмэ": 3413,
      "разина": 3414,
      "хутор": 3415,
      "коммунист": 3416,
      "##говая": 3417,
      "сергиев": 3418,
      "работу": 3419,
      "станиславовна": 3420,
      "бабаюрт": 3421,
      "воркута": 3422,
      "возрождение": 3423,
      "давлек": 3424,
      "зуево": 3425,
      "ошская": 3426,
      "усолье": 3427,
      "городчернушка": 3428,
      "промышленная": 3429,
      "##ственная": 3430,
      "софья": 3431,
      "лидия": 3432,
      ">(<": 3433,
      "анис": 3434,
      "весенняя": 3435,
      "мороз": 3436,
      "маяковского": 3437,
      "матвеева": 3438,
      "площад": 3439,
      "форме": 3440,
      "султан": 3441,
      "городзар": 3442,
      "воробь": 3443,
      "черкесск": 3444,
      "зеленодольск": 3445,
      "энгельс": 3446,
      "магаданской": 3447,
      "лебедева": 3448,
      "алёна": 3449,
      "здания": 3450,
      "хайр": 3451,
      "суворов": 3452,
      "приволжский": 3453,
      "кунашак": 3454,
      "крестьянская": 3455,
      "героев": 3456,
      "закрытое": 3457,
      "туркмен": 3458,
      "восточно": 3459,
      "kiran": 3460,
      "бондаренко": 3461,
      "двух": 3462,
      "депутат": 3463,
      "манту": 3464,
      "поруч": 3465,
      "пышма": 3466,
      "сыктывкар": 3467,
      "##онденции": 3468,
      "орехово": 3469,
      "опубликовано": 3470,
      "чаплыгин": 3471,
      "соколова": 3472,
      "казачья": 3473,
      "бойко": 3474,
      "нефтеюг": 3475,
      "толстого": 3476,
      "башкирская": 3477,
      "ломоносова": 3478,
      "проживает": 3479,
      "abdu": 3480,
      "gett": 3481,
      "imag": 3482,
      "ridl": 3483,
      "sabo": 3484,
      "высел": 3485,
      "душанбе": 3486,
      "еткуль": 3487,
      "лотош": 3488,
      "мценский": 3489,
      "олимпи": 3490,
      "таганрог": 3491,
      "уточ": 3492,
      "херсон": 3493,
      "чегем": 3494,
      "##шахтинск": 3495,
      "неизвестен": 3496,
      "решениемарбитражного": 3497,
      "городиркутск": 3498,
      "ступино": 3499,
      "прокопьевск": 3500,
      "каменогорск": 3501,
      "корреспонденции": 3502,
      "борисоглебск": 3503,
      "##екабристов": 3504,
      "улицакомсомольская": 3505,
      "ассоциациямсроау": 3506,
      "француз": 3507,
      "abdul": 3508,
      "getty": 3509,
      "images": 3510,
      "ridley": 3511,
      "saboor": 3512,
      ")-": 3513,
      "-.": 3514,
      "але": 3515,
      "аван": 3516,
      "аул": 3517,
      "адл": 3518,
      "алия": 3519,
      "апат": 3520,
      "акад": 3521,
      "беж": 3522,
      "биз": 3523,
      "байкаль": 3524,
      "бела": 3525,
      "ве": 3526,
      "вени": 3527,
      "вич": 3528,
      "ваг": 3529,
      "вах": 3530,
      "веро": 3531,
      "гим": 3532,
      "гат": 3533,
      "губ": 3534,
      "гав": 3535,
      "гул": 3536,
      "гара": 3537,
      "гук": 3538,
      "гвард": 3539,
      "глеб": 3540,
      "дро": 3541,
      "доро": 3542,
      "дес": 3543,
      "дья": 3544,
      "дании": 3545,
      "жк": 3546,
      "жд": 3547,
      "жит": 3548,
      "зв": 3549,
      "зы": 3550,
      "зор": 3551,
      "зая": 3552,
      "зам": 3553,
      "зад": 3554,
      "заба": 3555,
      "иваш": 3556,
      "кч": 3557,
      "кущ": 3558,
      "кура": 3559,
      "кут": 3560,
      "кав": 3561,
      "каш": 3562,
      "ког": 3563,
      "кня": 3564,
      "калаш": 3565,
      "кыр": 3566,
      "кольский": 3567,
      "ля": 3568,
      "лос": 3569,
      "лилии": 3570,
      "мел": 3571,
      "маш": 3572,
      "мегион": 3573,
      "нер": 3574,
      "ном": 3575,
      "норова": 3576,
      "оа": 3577,
      "око": 3578,
      "олен": 3579,
      "оча": 3580,
      "один": 3581,
      "окон": 3582,
      "пли": 3583,
      "пуга": 3584,
      "раш": 3585,
      "рах": 3586,
      "рад": 3587,
      "ринат": 3588,
      "сд": 3589,
      "сод": 3590,
      "соро": 3591,
      "состо": 3592,
      "сыр": 3593,
      "тб": 3594,
      "ты": 3595,
      "терс": 3596,
      "тем": 3597,
      "три": 3598,
      "таб": 3599,
      "тог": 3600,
      "топ": 3601,
      "уст": 3602,
      "ури": 3603,
      "уне": 3604,
      "усср": 3605,
      "фро": 3606,
      "фом": 3607,
      "фани": 3608,
      "фир": 3609,
      "хри": 3610,
      "хам": 3611,
      "хал": 3612,
      "хара": 3613,
      "хру": 3614,
      "хими": 3615,
      "че": 3616,
      "чул": 3617,
      "шер": 3618,
      "шам": 3619,
      "шент": 3620,
      "шесто": 3621,
      "шум": 3622,
      "щер": 3623,
      "щеп": 3624,
      "щёл": 3625,
      "эко": 3626,
      "юри": 3627,
      "юрид": 3628,
      "ягод": 3629,
      "##ап": 3630,
      "##ает": 3631,
      "##афон": 3632,
      "##бо": 3633,
      "##бан": 3634,
      "##бали": 3635,
      "##бот": 3636,
      "##бад": 3637,
      "##рус": 3638,
      "##ряд": 3639,
      "##руши": 3640,
      "##оми": 3641,
      "##ооб": 3642,
      "##вш": 3643,
      "##вел": 3644,
      "##вин": 3645,
      "##вина": 3646,
      "##венной": 3647,
      "##вещ": 3648,
      "##втов": 3649,
      "##веровна": 3650,
      "##се": 3651,
      "##сь": 3652,
      "##сев": 3653,
      "##син": 3654,
      "##сал": 3655,
      "##ком": 3656,
      "##кский": 3657,
      "##кевич": 3658,
      "##кум": 3659,
      "##ива": 3660,
      "##илек": 3661,
      "##ием": 3662,
      "##иали": 3663,
      "##ика": 3664,
      "##иевна": 3665,
      "##ирович": 3666,
      "##иже": 3667,
      "##шова": 3668,
      "##шков": 3669,
      "##шкино": 3670,
      "##нск": 3671,
      "##нения": 3672,
      "##нед": 3673,
      "##новна": 3674,
      "##ность": 3675,
      "##новский": 3676,
      "##лоб": 3677,
      "##лот": 3678,
      "##лана": 3679,
      "##ловка": 3680,
      "##ерова": 3681,
      "##егорск": 3682,
      "##де": 3683,
      "##дер": 3684,
      "##доб": 3685,
      "##дур": 3686,
      "##дат": 3687,
      "##драт": 3688,
      "##деева": 3689,
      "##дзе": 3690,
      "##тр": 3691,
      "##том": 3692,
      "##тоб": 3693,
      "##тия": 3694,
      "##тович": 3695,
      "##тех": 3696,
      "##ьков": 3697,
      "##гер": 3698,
      "##газ": 3699,
      "##гли": 3700,
      "##гун": 3701,
      "##гань": 3702,
      "##гуз": 3703,
      "##гелина": 3704,
      "##чский": 3705,
      "##чин": 3706,
      "##чный": 3707,
      "##чная": 3708,
      "##чих": 3709,
      "##чук": 3710,
      "##чинск": 3711,
      "##чково": 3712,
      "##чинская": 3713,
      "##жа": 3714,
      "##жу": 3715,
      "##жество": 3716,
      "##жовка": 3717,
      "##жок": 3718,
      "##желез": 3719,
      "##женск": 3720,
      "##жели": 3721,
      "##уст": 3722,
      "##ула": 3723,
      "##уев": 3724,
      "##укт": 3725,
      "##ующ": 3726,
      "##урова": 3727,
      "##унова": 3728,
      "##укра": 3729,
      "##урина": 3730,
      "##урин": 3731,
      "##упова": 3732,
      "##хаз": 3733,
      "##хово": 3734,
      "##ховская": 3735,
      "##хад": 3736,
      "##ховский": 3737,
      "##хмао": 3738,
      "##пом": 3739,
      "##пет": 3740,
      "##правл": 3741,
      "##пси": 3742,
      "##повой": 3743,
      "##пухов": 3744,
      "##зии": 3745,
      "##зина": 3746,
      "##зиной": 3747,
      "##юции": 3748,
      "##ютина": 3749,
      "##щина": 3750,
      "##щева": 3751,
      "##цов": 3752,
      "##цена": 3753,
      "##цовка": 3754,
      "##яет": 3755,
      "##ямо": 3756,
      "##яников": 3757,
      "##му": 3758,
      "##мск": 3759,
      "##мар": 3760,
      "##маш": 3761,
      "##мух": 3762,
      "##монт": 3763,
      "##фор": 3764,
      "##фед": 3765,
      "##феева": 3766,
      "##стем": 3767,
      "##сков": 3768,
      "##роди": 3769,
      "##анным": 3770,
      "##анское": 3771,
      "##анда": 3772,
      "##йсы": 3773,
      "##ймаз": 3774,
      "##ене": 3775,
      "##енович": 3776,
      "##енных": 3777,
      "##ерч": 3778,
      "##ераль": 3779,
      "обоснов": 3780,
      "##одос": 3781,
      "##мих": 3782,
      "##миха": 3783,
      "##рали": 3784,
      "##ват": 3785,
      "##лая": 3786,
      "##лай": 3787,
      "##лакова": 3788,
      "##орта": 3789,
      "##орецк": 3790,
      "##нная": 3791,
      "##овград": 3792,
      "ремонт": 3793,
      "рейсы": 3794,
      "##лец": 3795,
      "##ому": 3796,
      "##етро": 3797,
      "##ротом": 3798,
      "##нах": 3799,
      "##наци": 3800,
      "##наменский": 3801,
      "##имб": 3802,
      "##имки": 3803,
      "##имость": 3804,
      "##ело": 3805,
      "##елов": 3806,
      "##елково": 3807,
      "##елок": 3808,
      "нест": 3809,
      "непо": 3810,
      "##обл": 3811,
      "##ображ": 3812,
      "##обнов": 3813,
      "##пау": 3814,
      "##падная": 3815,
      "комарова": 3816,
      "##пина": 3817,
      "подос": 3818,
      "электросталь": 3819,
      "##ламова": 3820,
      "##гора": 3821,
      "##номи": 3822,
      "##ницы": 3823,
      "##ембург": 3824,
      "##емей": 3825,
      "##еву": 3826,
      "##евской": 3827,
      "##лино": 3828,
      "##линского": 3829,
      "##ором": 3830,
      "##оровой": 3831,
      "##биевич": 3832,
      "дель": 3833,
      "решениемас": 3834,
      "аркад": 3835,
      "аргун": 3836,
      "сун": 3837,
      "суход": 3838,
      "суза": 3839,
      "сулей": 3840,
      "##арь": 3841,
      "##арный": 3842,
      "##арная": 3843,
      "##арств": 3844,
      "##арян": 3845,
      "##есси": 3846,
      "##лькова": 3847,
      "##риз": 3848,
      "##риков": 3849,
      "##рикова": 3850,
      "##ринского": 3851,
      "##оном": 3852,
      "##онович": 3853,
      "##онче": 3854,
      "##ият": 3855,
      "##ата": 3856,
      "##атимат": 3857,
      "##инки": 3858,
      "##инцев": 3859,
      "##алина": 3860,
      "мот": 3861,
      "##кос": 3862,
      "городор": 3863,
      "городаб": 3864,
      "городсо": 3865,
      "городкас": 3866,
      "городищ": 3867,
      "городленинград": 3868,
      "##каш": 3869,
      "##кал": 3870,
      "##камен": 3871,
      "москал": 3872,
      "московское": 3873,
      "прив": 3874,
      "прибр": 3875,
      "##олов": 3876,
      "имени": 3877,
      "наи": 3878,
      "нач": 3879,
      "наур": 3880,
      "направл": 3881,
      "##овое": 3882,
      "##евича": 3883,
      "признаны": 3884,
      "признанного": 3885,
      "стан": 3886,
      "##овар": 3887,
      "##гранич": 3888,
      "##ких": 3889,
      "##ярная": 3890,
      "горького": 3891,
      "##гино": 3892,
      "##гиза": 3893,
      "##ельской": 3894,
      "##ельский": 3895,
      "нины": 3896,
      "##асова": 3897,
      "##асооб": 3898,
      "##ольная": 3899,
      "орлова": 3900,
      "##ось": 3901,
      "##лиции": 3902,
      "улицаба": 3903,
      "улицанова": 3904,
      "##урав": 3905,
      "владимира": 3906,
      "##утова": 3907,
      "##аван": 3908,
      "##авир": 3909,
      "##ствовали": 3910,
      "общая": 3911,
      "петр": 3912,
      "петров": 3913,
      "ангар": 3914,
      "анже": 3915,
      "ангелина": 3916,
      "анжели": 3917,
      "преж": 3918,
      "прямо": 3919,
      "##янов": 3920,
      "##янский": 3921,
      "##родная": 3922,
      "сау": 3923,
      "сафон": 3924,
      "сапро": 3925,
      "региона": 3926,
      "##ковка": 3927,
      "##верь": 3928,
      "##верх": 3929,
      "регистраци": 3930,
      "виш": 3931,
      "новоалекс": 3932,
      "новотроицк": 3933,
      "новошахтинск": 3934,
      "перев": 3935,
      "перес": 3936,
      "конк": 3937,
      "кул": 3938,
      "куп": 3939,
      "кули": 3940,
      "кукм": 3941,
      "##ейн": 3942,
      "##ейная": 3943,
      "миль": 3944,
      "волж": 3945,
      "волков": 3946,
      "##горный": 3947,
      "##ванский": 3948,
      "##вания": 3949,
      "киль": 3950,
      "##отович": 3951,
      "##менская": 3952,
      "структ": 3953,
      "иртыш": 3954,
      "март": 3955,
      "марии": 3956,
      "марты": 3957,
      "маршала": 3958,
      "##итовна": 3959,
      "##ратова": 3960,
      "улицад": 3961,
      "улицаю": 3962,
      "улицапи": 3963,
      "улицаоктябрьская": 3964,
      "улицацент": 3965,
      "ивана": 3966,
      "омут": 3967,
      "татарск": 3968,
      "иркутский": 3969,
      "тюм": 3970,
      "поселок": 3971,
      "##тира": 3972,
      "##тино": 3973,
      "страницыа": 3974,
      "##улов": 3975,
      "##улло": 3976,
      "##уллин": 3977,
      "##маск": 3978,
      "##анах": 3979,
      "##еровой": 3980,
      "##усман": 3981,
      "##усинск": 3982,
      "ленинградский": 3983,
      "конова": 3984,
      "кооп": 3985,
      "кохма": 3986,
      "##унд": 3987,
      "воронов": 3988,
      "белово": 3989,
      "##сошь": 3990,
      "##ильский": 3991,
      "крут": 3992,
      "##аха": 3993,
      "##маново": 3994,
      "##ады": 3995,
      "##онал": 3996,
      "##онавтов": 3997,
      "куртам": 3998,
      "пок": 3999,
      "полаз": 4000,
      "погранич": 4001,
      "греч": 4002,
      "##евого": 4003,
      "##арая": 4004,
      "##илович": 4005,
      "соли": 4006,
      "сопау": 4007,
      "новом": 4008,
      "##далак": 4009,
      "##ленникова": 4010,
      "решет": 4011,
      "чух": 4012,
      "##ушкино": 4013,
      "##язан": 4014,
      "кировский": 4015,
      "кировоград": 4016,
      "уроженки": 4017,
      "уроженца": 4018,
      "##руч": 4019,
      "##руп": 4020,
      "##ружество": 4021,
      "##ульский": 4022,
      "васильева": 4023,
      "акмо": 4024,
      "михайлова": 4025,
      "михайловка": 4026,
      "михайловск": 4027,
      "михайловича": 4028,
      "валерьевны": 4029,
      "заур": 4030,
      "застрой": 4031,
      "запол": 4032,
      "черно": 4033,
      "черлак": 4034,
      "черном": 4035,
      "чернях": 4036,
      "карт": 4037,
      "кармаск": 4038,
      "признать": 4039,
      "##визии": 4040,
      "борского": 4041,
      "светлояр": 4042,
      "##тивной": 4043,
      "##крытых": 4044,
      "##ударств": 4045,
      "##узиа": 4046,
      "адхмао": 4047,
      "евгеньевны": 4048,
      "чувашия": 4049,
      "##ебокс": 4050,
      "люкс": 4051,
      "олегов": 4052,
      "резолютивной": 4053,
      "калинин": 4054,
      "авгу": 4055,
      "генер": 4056,
      "магит": 4057,
      "вологда": 4058,
      "городсургут": 4059,
      "##абаровск": 4060,
      "раф": 4061,
      "рафа": 4062,
      "ракит": 4063,
      "акционерного": 4064,
      "##зерский": 4065,
      "абз": 4066,
      "абду": 4067,
      "абрам": 4068,
      "абдул": 4069,
      "абхаз": 4070,
      "пунктс": 4071,
      "пунктз": 4072,
      "##уха": 4073,
      "##ухина": 4074,
      "орловский": 4075,
      "ильина": 4076,
      "коркино": 4077,
      "##ёва": 4078,
      "систем": 4079,
      "##угул": 4080,
      "хабиб": 4081,
      "дагестанская": 4082,
      "инз": 4083,
      "интер": 4084,
      "инвест": 4085,
      "ингуш": 4086,
      "деревняб": 4087,
      "геннадьевны": 4088,
      "осетия": 4089,
      "ульбинский": 4090,
      "##гарина": 4091,
      "кузь": 4092,
      "заречная": 4093,
      "кач": 4094,
      "ками": 4095,
      "карат": 4096,
      "боч": 4097,
      "боград": 4098,
      "мансийск": 4099,
      "##казах": 4100,
      "куйбышевский": 4101,
      "джалиля": 4102,
      "центр": 4103,
      "##джан": 4104,
      "казахской": 4105,
      "литера": 4106,
      "##динович": 4107,
      "##динское": 4108,
      "действ": 4109,
      "тучково": 4110,
      "туймаз": 4111,
      "центральный": 4112,
      "забло": 4113,
      "украинской": 4114,
      "##емика": 4115,
      "парт": 4116,
      "париже": 4117,
      "федоровой": 4118,
      "##ьянск": 4119,
      "летия": 4120,
      "##сакова": 4121,
      "##строителей": 4122,
      "предлож": 4123,
      "крымской": 4124,
      "ахмет": 4125,
      "большер": 4126,
      "большие": 4127,
      "заверш": 4128,
      "городтверь": 4129,
      "октябрьское": 4130,
      "##басская": 4131,
      "альмен": 4132,
      "альметьевск": 4133,
      "дарьи": 4134,
      "муп": 4135,
      "муни": 4136,
      "выруч": 4137,
      "южная": 4138,
      "алиев": 4139,
      "алиевич": 4140,
      "ереван": 4141,
      "железногорск": 4142,
      "##щади": 4143,
      "городпетро": 4144,
      "##ездная": 4145,
      "богат": 4146,
      "димитров": 4147,
      "дивизии": 4148,
      "школьный": 4149,
      "якутск": 4150,
      "рекапункт": 4151,
      "ефим": 4152,
      "королёв": 4153,
      "яранск": 4154,
      "##нтузиа": 4155,
      "мирза": 4156,
      "гора": 4157,
      "саранск": 4158,
      "шами": 4159,
      "##учин": 4160,
      "аткар": 4161,
      "благод": 4162,
      "добрянка": 4163,
      "данил": 4164,
      "павла": 4165,
      "##нинская": 4166,
      "союз": 4167,
      "заводоу": 4168,
      "льгов": 4169,
      "луговая": 4170,
      "рабоч": 4171,
      "фомин": 4172,
      "хасанова": 4173,
      "##ызяк": 4174,
      "##анокоп": 4175,
      "дзержинский": 4176,
      "дзержинск": 4177,
      "егоров": 4178,
      "клявл": 4179,
      "лазарева": 4180,
      "лесо": 4181,
      "лесная": 4182,
      "мусы": 4183,
      "семенов": 4184,
      "семенова": 4185,
      "транс": 4186,
      "тарасов": 4187,
      "янао": 4188,
      "##феев": 4189,
      "##ферополь": 4190,
      "комсомольская": 4191,
      "кириленко": 4192,
      "степановна": 4193,
      "степанаван": 4194,
      "магомедова": 4195,
      "руслановна": 4196,
      "северск": 4197,
      "азербайджанской": 4198,
      "эдуардовна": 4199,
      "воск": 4200,
      "герцена": 4201,
      "голов": 4202,
      "луганск": 4203,
      "назарова": 4204,
      "ногинск": 4205,
      "талды": 4206,
      "фрязино": 4207,
      "чита": 4208,
      "читинской": 4209,
      "яковлева": 4210,
      "яковлев": 4211,
      "##очная": 4212,
      "##ицкий": 4213,
      "##енделе": 4214,
      "улицатат": 4215,
      "киселев": 4216,
      "красноармейский": 4217,
      "республикабашкортостан": 4218,
      "данным": 4219,
      "данные": 4220,
      "елене": 4221,
      "ишим": 4222,
      "ключи": 4223,
      "пушкина": 4224,
      "тагил": 4225,
      "тимош": 4226,
      "тимофеева": 4227,
      "тихоми": 4228,
      "##тамак": 4229,
      "професси": 4230,
      "грузд": 4231,
      "грузинской": 4232,
      "ашт": 4233,
      "ашотович": 4234,
      "бабаева": 4235,
      "возобнов": 4236,
      "жигал": 4237,
      "илшат": 4238,
      "катав": 4239,
      "нарим": 4240,
      "ошской": 4241,
      "островского": 4242,
      "пестово": 4243,
      "пестреч": 4244,
      "сайте": 4245,
      "янги": 4246,
      "##булак": 4247,
      "компания": 4248,
      "компании": 4249,
      "пролетарский": 4250,
      "пролетарская": 4251,
      "новосемей": 4252,
      "соколово": 4253,
      "киргизская": 4254,
      "киргизия": 4255,
      "реструктуризации": 4256,
      "бавлы": 4257,
      "лариса": 4258,
      "масленникова": 4259,
      "мадина": 4260,
      "одес": 4261,
      "площади": 4262,
      "чкал": 4263,
      "чкалова": 4264,
      "шатура": 4265,
      "##ищева": 4266,
      "##явшими": 4267,
      "##остроитель": 4268,
      "городнижний": 4269,
      "виноградная": 4270,
      "новопок": 4271,
      "миронова": 4272,
      "черкесской": 4273,
      "##уденного": 4274,
      "зеленодольский": 4275,
      "##стопольский": 4276,
      "львов": 4277,
      "авиасооб": 4278,
      "дорожная": 4279,
      "зайцева": 4280,
      "засяд": 4281,
      "квартира": 4282,
      "мичури": 4283,
      "плани": 4284,
      "погар": 4285,
      "совхоз": 4286,
      "совхозная": 4287,
      "сосновый": 4288,
      "участников": 4289,
      "фами": 4290,
      "##банкротом": 4291,
      "##лонская": 4292,
      "##начарского": 4293,
      "асланович": 4294,
      "городусть": 4295,
      "городуфа": 4296,
      "антонова": 4297,
      "кустанайской": 4298,
      "маргарита": 4299,
      "ворошиловград": 4300,
      "##ональной": 4301,
      "специали": 4302,
      "мордовская": 4303,
      "узбекской": 4304,
      "узбекская": 4305,
      "рыбно": 4306,
      "медведева": 4307,
      "филиппины": 4308,
      "песчанокоп": 4309,
      "шебекино": 4310,
      "шебекинский": 4311,
      "балах": 4312,
      "буденн": 4313,
      "великий": 4314,
      "государств": 4315,
      "дунайский": 4316,
      "демина": 4317,
      "жанна": 4318,
      "мытищи": 4319,
      "металлург": 4320,
      "псковской": 4321,
      "салда": 4322,
      "советского": 4323,
      "ткач": 4324,
      "также": 4325,
      "филимо": 4326,
      "чеченской": 4327,
      "эксп": 4328,
      "##ивная": 4329,
      "городхабаровск": 4330,
      "процедуру": 4331,
      "обществом": 4332,
      "антона": 4333,
      "видное": 4334,
      "милле": 4335,
      "красногвардей": 4336,
      "полины": 4337,
      "ильинич": 4338,
      "капитал": 4339,
      "партизанская": 4340,
      "ахтубин": 4341,
      "букреева": 4342,
      "тимашевск": 4343,
      "публичного": 4344,
      "профсоюза": 4345,
      "протестующ": 4346,
      "чимкентской": 4347,
      "афанасьева": 4348,
      "зверева": 4349,
      "испол": 4350,
      "кызы": 4351,
      "межр": 4352,
      "роберт": 4353,
      "розы": 4354,
      "саяногорск": 4355,
      "сотруд": 4356,
      "спасский": 4357,
      "хмельни": 4358,
      "чиркова": 4359,
      "##гетиков": 4360,
      "##ерлитамак": 4361,
      "##еративная": 4362,
      "достоевского": 4363,
      "отсутству": 4364,
      "студенец": 4365,
      "##вокзальная": 4366,
      "антик": 4367,
      "куженер": 4368,
      "улицагагарина": 4369,
      "колесникова": 4370,
      "василий": 4371,
      "ризван": 4372,
      "джамбул": 4373,
      "парфенов": 4374,
      "карачаево": 4375,
      "шадринск": 4376,
      "космонавтов": 4377,
      "энергетиков": 4378,
      "эльвира": 4379,
      "семибратов": 4380,
      "холдинг": 4381,
      "коммунистическая": 4382,
      "туркменской": 4383,
      "депутатская": 4384,
      "поручению": 4385,
      "олимпийская": 4386,
      "авангар": 4387,
      "апатиты": 4388,
      "академика": 4389,
      "бизнес": 4390,
      "веки": 4391,
      "вероника": 4392,
      "даниил": 4393,
      "забастов": 4394,
      "кчр": 4395,
      "номер": 4396,
      "оаоф": 4397,
      "оленегорск": 4398,
      "оконеш": 4399,
      "содружество": 4400,
      "сорокина": 4401,
      "тбс": 4402,
      "харабали": 4403,
      "хруст": 4404,
      "химиков": 4405,
      "шестопалова": 4406,
      "экономи": 4407,
      "юрия": 4408,
      "юридический": 4409,
      "##рядчик": 4410,
      "##севол": 4411,
      "##железнодорож": 4412,
      "##мухамет": 4413,
      "обоснованным": 4414,
      "##одосия": 4415,
      "непокрытых": 4416,
      "подосин": 4417,
      "##ончегорск": 4418,
      "городабакан": 4419,
      "городсочи": 4420,
      "городкасимов": 4421,
      "прибрежный": 4422,
      "улицановая": 4423,
      "регистрационный": 4424,
      "кукмор": 4425,
      "улицацентральная": 4426,
      "кооперативная": 4427,
      "куртамыш": 4428,
      "полазна": 4429,
      "застройщик": 4430,
      "черномор": 4431,
      "интернаци": 4432,
      "ингушетия": 4433,
      "предложения": 4434,
      "димитровград": 4435,
      "##нтузиастов": 4436,
      "рабочая": 4437,
      "пестречинский": 4438,
      "новосемейкино": 4439,
      "##явшимися": 4440,
      "засядько": 4441,
      "протестующие": 4442,
      "(-": 4443,
      "):": 4444,
      ">:": 4445,
      "ap": 4446,
      "aur": 4447,
      "cf": 4448,
      "eur": 4449,
      "lv": 4450,
      "mor": 4451,
      "xx": 4452,
      "ап": 4453,
      "ара": 4454,
      "аско": 4455,
      "аза": 4456,
      "авер": 4457,
      "алев": 4458,
      "амин": 4459,
      "афи": 4460,
      "амира": 4461,
      "арак": 4462,
      "бю": 4463,
      "бро": 4464,
      "бан": 4465,
      "бая": 4466,
      "бес": 4467,
      "бри": 4468,
      "бут": 4469,
      "баль": 4470,
      "без": 4471,
      "бех": 4472,
      "басср": 4473,
      "баган": 4474,
      "бийского": 4475,
      "вост": 4476,
      "вход": 4477,
      "ват": 4478,
      "вали": 4479,
      "вко": 4480,
      "воль": 4481,
      "вав": 4482,
      "ваш": 4483,
      "вяз": 4484,
      "вект": 4485,
      "вольск": 4486,
      "ваган": 4487,
      "вну": 4488,
      "всевол": 4489,
      "гс": 4490,
      "гм": 4491,
      "гай": 4492,
      "гож": 4493,
      "гам": 4494,
      "гург": 4495,
      "гот": 4496,
      "гуд": 4497,
      "глан": 4498,
      "гард": 4499,
      "глад": 4500,
      "дз": 4501,
      "дур": 4502,
      "дина": 4503,
      "деж": 4504,
      "дара": 4505,
      "диз": 4506,
      "дуд": 4507,
      "днт": 4508,
      "декабристов": 4509,
      "ес": 4510,
      "ем": 4511,
      "еро": 4512,
      "ени": 4513,
      "еси": 4514,
      "ерав": 4515,
      "емель": 4516,
      "ейск": 4517,
      "ежовка": 4518,
      "елец": 4519,
      "жала": 4520,
      "жук": 4521,
      "журав": 4522,
      "зла": 4523,
      "зим": 4524,
      "зия": 4525,
      "зара": 4526,
      "зуль": 4527,
      "знаменский": 4528,
      "залина": 4529,
      "иб": 4530,
      "иг": 4531,
      "ию": 4532,
      "иле": 4533,
      "илек": 4534,
      "ибр": 4535,
      "ису": 4536,
      "ипат": 4537,
      "кб": 4538,
      "кн": 4539,
      "кф": 4540,
      "кст": 4541,
      "кен": 4542,
      "кин": 4543,
      "кашк": 4544,
      "кром": 4545,
      "клинская": 4546,
      "лан": 4547,
      "лина": 4548,
      "лаш": 4549,
      "лус": 4550,
      "лун": 4551,
      "лад": 4552,
      "луж": 4553,
      "лыс": 4554,
      "мост": 4555,
      "маз": 4556,
      "мали": 4557,
      "мина": 4558,
      "маль": 4559,
      "морт": 4560,
      "минск": 4561,
      "мень": 4562,
      "мелик": 4563,
      "мгли": 4564,
      "оно": 4565,
      "пк": 4566,
      "пш": 4567,
      "пы": 4568,
      "пов": 4569,
      "поро": 4570,
      "пласт": 4571,
      "паш": 4572,
      "плю": 4573,
      "печ": 4574,
      "план": 4575,
      "порож": 4576,
      "плат": 4577,
      "пича": 4578,
      "поном": 4579,
      "патимат": 4580,
      "рат": 4581,
      "рол": 4582,
      "рас": 4583,
      "раг": 4584,
      "расс": 4585,
      "сх": 4586,
      "сле": 4587,
      "сем": 4588,
      "сны": 4589,
      "сель": 4590,
      "сас": 4591,
      "сос": 4592,
      "сит": 4593,
      "селе": 4594,
      "слан": 4595,
      "сег": 4596,
      "селез": 4597,
      "сарм": 4598,
      "сыз": 4599,
      "счаст": 4600,
      "сасово": 4601,
      "славы": 4602,
      "тон": 4603,
      "тали": 4604,
      "тель": 4605,
      "тург": 4606,
      "тав": 4607,
      "тун": 4608,
      "тах": 4609,
      "тала": 4610,
      "тех": 4611,
      "тег": 4612,
      "теми": 4613,
      "тень": 4614,
      "товар": 4615,
      "тугул": 4616,
      "ум": 4617,
      "ураз": 4618,
      "уйский": 4619,
      "фест": 4620,
      "фаб": 4621,
      "фурман": 4622,
      "флот": 4623,
      "хаз": 4624,
      "хат": 4625,
      "хак": 4626,
      "хот": 4627,
      "хлев": 4628,
      "хох": 4629,
      "химки": 4630,
      "ци": 4631,
      "цвет": 4632,
      "цели": 4633,
      "цене": 4634,
      "чет": 4635,
      "чам": 4636,
      "час": 4637,
      "челя": 4638,
      "чаны": 4639,
      "чановского": 4640,
      "шо": 4641,
      "шов": 4642,
      "шпа": 4643,
      "шур": 4644,
      "шутов": 4645,
      "эр": 4646,
      "эми": 4647,
      "юли": 4648,
      "юрина": 4649,
      "яб": 4650,
      "яс": 4651,
      "як": 4652,
      "ял": 4653,
      "ях": 4654,
      "янт": 4655,
      "яшкин": 4656,
      "##аст": 4657,
      "##ами": 4658,
      "##аров": 4659,
      "##аков": 4660,
      "##ачи": 4661,
      "##аевка": 4662,
      "##амин": 4663,
      "##бров": 4664,
      "##бко": 4665,
      "##байкаль": 4666,
      "##быт": 4667,
      "##ббот": 4668,
      "##буха": 4669,
      "##рд": 4670,
      "##рес": 4671,
      "##рева": 4672,
      "##рань": 4673,
      "##рект": 4674,
      "##огр": 4675,
      "##окова": 4676,
      "##олина": 4677,
      "##офи": 4678,
      "##озаводская": 4679,
      "##оимость": 4680,
      "##вени": 4681,
      "##вор": 4682,
      "##вна": 4683,
      "##воро": 4684,
      "##веж": 4685,
      "##вис": 4686,
      "##вил": 4687,
      "##вобод": 4688,
      "##сро": 4689,
      "##сер": 4690,
      "##сович": 4691,
      "##сана": 4692,
      "##сеева": 4693,
      "##сули": 4694,
      "##серв": 4695,
      "##снаб": 4696,
      "##саха": 4697,
      "##ке": 4698,
      "##кской": 4699,
      "##кяр": 4700,
      "##канская": 4701,
      "##куж": 4702,
      "##ккул": 4703,
      "##кчет": 4704,
      "##иг": 4705,
      "##иж": 4706,
      "##иев": 4707,
      "##иван": 4708,
      "##ида": 4709,
      "##инова": 4710,
      "##ипов": 4711,
      "##шу": 4712,
      "##шан": 4713,
      "##шав": 4714,
      "##шад": 4715,
      "##шук": 4716,
      "##шня": 4717,
      "##шников": 4718,
      "##шеро": 4719,
      "##шуй": 4720,
      "##нц": 4721,
      "##ноб": 4722,
      "##нена": 4723,
      "##нецкая": 4724,
      "##ненская": 4725,
      "##ненского": 4726,
      "##ности": 4727,
      "##нуллина": 4728,
      "##нореч": 4729,
      "##лла": 4730,
      "##лена": 4731,
      "##ленко": 4732,
      "##ление": 4733,
      "##лок": 4734,
      "##ленина": 4735,
      "##лома": 4736,
      "##ебр": 4737,
      "##еевский": 4738,
      "##еевская": 4739,
      "##егорский": 4740,
      "##дор": 4741,
      "##дет": 4742,
      "##дович": 4743,
      "##даш": 4744,
      "##дви": 4745,
      "##динского": 4746,
      "##дымский": 4747,
      "##дольная": 4748,
      "##тва": 4749,
      "##тые": 4750,
      "##тем": 4751,
      "##тев": 4752,
      "##тка": 4753,
      "##тинский": 4754,
      "##туд": 4755,
      "##тинская": 4756,
      "##тникова": 4757,
      "##ткала": 4758,
      "##ьер": 4759,
      "##ькова": 4760,
      "##ьево": 4761,
      "##ьевский": 4762,
      "##ьково": 4763,
      "##ьинская": 4764,
      "##ьевой": 4765,
      "##гри": 4766,
      "##гани": 4767,
      "##гыз": 4768,
      "##генер": 4769,
      "##гасово": 4770,
      "##чка": 4771,
      "##чкова": 4772,
      "##чное": 4773,
      "##чево": 4774,
      "##чуг": 4775,
      "##чникова": 4776,
      "##жск": 4777,
      "##жки": 4778,
      "##жак": 4779,
      "##жанова": 4780,
      "##жаны": 4781,
      "##жбы": 4782,
      "##жалиля": 4783,
      "##женова": 4784,
      "##ып": 4785,
      "##ыва": 4786,
      "##ыково": 4787,
      "##ыпов": 4788,
      "##ывания": 4789,
      "##уна": 4790,
      "##уром": 4791,
      "##уча": 4792,
      "##хм": 4793,
      "##хар": 4794,
      "##хон": 4795,
      "##хского": 4796,
      "##хали": 4797,
      "##хаб": 4798,
      "##хви": 4799,
      "##ховка": 4800,
      "##хинский": 4801,
      "##хач": 4802,
      "##хело": 4803,
      "##пан": 4804,
      "##перс": 4805,
      "##пург": 4806,
      "##повна": 4807,
      "##пенко": 4808,
      "##порт": 4809,
      "##пез": 4810,
      "##план": 4811,
      "##пцова": 4812,
      "##зя": 4813,
      "##зор": 4814,
      "##зем": 4815,
      "##зин": 4816,
      "##зово": 4817,
      "##зова": 4818,
      "##зева": 4819,
      "##зинский": 4820,
      "##зановна": 4821,
      "##юск": 4822,
      "##юшкина": 4823,
      "##ще": 4824,
      "##щевский": 4825,
      "##щено": 4826,
      "##щелково": 4827,
      "##це": 4828,
      "##цф": 4829,
      "##ций": 4830,
      "##цит": 4831,
      "##яж": 4832,
      "##ящ": 4833,
      "##яй": 4834,
      "##янн": 4835,
      "##яев": 4836,
      "##яная": 4837,
      "##яева": 4838,
      "##ясо": 4839,
      "##ярово": 4840,
      "##явили": 4841,
      "##мы": 4842,
      "##мод": 4843,
      "##мская": 4844,
      "##мон": 4845,
      "##мак": 4846,
      "##маг": 4847,
      "##майл": 4848,
      "##мелева": 4849,
      "##мотр": 4850,
      "##фим": 4851,
      "##фия": 4852,
      "##фат": 4853,
      "##фина": 4854,
      "##фут": 4855,
      "##форов": 4856,
      "##фё": 4857,
      "##фсою": 4858,
      "##феровой": 4859,
      "##элек": 4860,
      "##ie": 4861,
      "##is": 4862,
      "##in": 4863,
      "##mh": 4864,
      "##dt": 4865,
      "##lie": 4866,
      "##(<": 4867,
      "##ar": 4868,
      "##elie": 4869,
      "##sar": 4870,
      "##ks": 4871,
      "##_ст": 4872,
      "##стн": 4873,
      "##стон": 4874,
      "##стам": 4875,
      "##став": 4876,
      "##стун": 4877,
      "##стовой": 4878,
      "##степ": 4879,
      "##стическая": 4880,
      "##стилии": 4881,
      "##сках": 4882,
      "##сковка": 4883,
      "##роб": 4884,
      "##роси": 4885,
      "##рома": 4886,
      "##ронова": 4887,
      "##ролю": 4888,
      "##роновна": 4889,
      "##анин": 4890,
      "##анович": 4891,
      "##аныш": 4892,
      "##ановка": 4893,
      "##йво": 4894,
      "##енный": 4895,
      "##енбург": 4896,
      "##еновский": 4897,
      "##еновка": 4898,
      "##еневая": 4899,
      "##ере": 4900,
      "##ерства": 4901,
      "##ерина": 4902,
      "##еренко": 4903,
      "##ерское": 4904,
      "##ерлан": 4905,
      "##ережный": 4906,
      "##ертау": 4907,
      "##ерпухов": 4908,
      "##ерзиной": 4909,
      "##ержаны": 4910,
      ">,)": 4911,
      "оби": 4912,
      "обсков": 4913,
      "обязан": 4914,
      "##ода": 4915,
      "##одар": 4916,
      "##один": 4917,
      "##оджалиля": 4918,
      "##мист": 4919,
      "##мишева": 4920,
      "##микович": 4921,
      "##ением": 4922,
      "##енинград": 4923,
      "##раг": 4924,
      "##рава": 4925,
      "##рацит": 4926,
      "##вал": 4927,
      "##вай": 4928,
      "##вала": 4929,
      "##ваев": 4930,
      "##ватов": 4931,
      "##лах": 4932,
      "##лаева": 4933,
      "##лага": 4934,
      "##лаговещенск": 4935,
      "##орск": 4936,
      "##орный": 4937,
      "##орус": 4938,
      "##орый": 4939,
      "##оруд": 4940,
      "##оруж": 4941,
      "##орса": 4942,
      "##оржок": 4943,
      "##органи": 4944,
      "##нный": 4945,
      "##овод": 4946,
      "##овый": 4947,
      "##овну": 4948,
      "реа": 4949,
      "револ": 4950,
      "реутов": 4951,
      "##леи": 4952,
      "##леева": 4953,
      "##легов": 4954,
      "##омск": 4955,
      "##омов": 4956,
      "##омка": 4957,
      "##айского": 4958,
      "##айковский": 4959,
      "##етово": 4960,
      "##етчинский": 4961,
      "##етровка": 4962,
      "##анки": 4963,
      "##роты": 4964,
      "банкротств": 4965,
      "##скова": 4966,
      "##сколь": 4967,
      "##наз": 4968,
      "##наза": 4969,
      "##нако": 4970,
      "##нада": 4971,
      "##имово": 4972,
      "##имович": 4973,
      "##имовна": 4974,
      "##еления": 4975,
      "##елова": 4976,
      "##елил": 4977,
      "##елый": 4978,
      "##аза": 4979,
      "нек": 4980,
      "неми": 4981,
      "неча": 4982,
      "некрас": 4983,
      "нейво": 4984,
      "несколь": 4985,
      "##обыково": 4986,
      "##обережный": 4987,
      ">.(": 4988,
      "##паевск": 4989,
      "##палат": 4990,
      "##папк": 4991,
      "##анта": 4992,
      "##антский": 4993,
      "##тросталь": 4994,
      "объявили": 4995,
      "подгор": 4996,
      "подпорож": 4997,
      "подрядчик": 4998,
      "электрогорск": 4999,
      "электродный": 5000,
      "##ламей": 5001,
      "##голи": 5002,
      "##голь": 5003,
      "##говар": 5004,
      "##нок": 5005,
      "##ногор": 5006,
      "##дрин": 5007,
      "##дряш": 5008,
      "##них": 5009,
      "##нико": 5010,
      "##ниной": 5011,
      "##нирин": 5012,
      "##нищенко": 5013,
      "##ническая": 5014,
      "##ема": 5015,
      "##емского": 5016,
      "##емяч": 5017,
      "##евникова": 5018,
      "##евик": 5019,
      "инна": 5020,
      "##лив": 5021,
      "##линой": 5022,
      "##ликуль": 5023,
      "##ливая": 5024,
      "##ороны": 5025,
      "##орожд": 5026,
      "##оролев": 5027,
      "##орочинск": 5028,
      "##оростроителей": 5029,
      "##аяковского": 5030,
      "##бино": 5031,
      "##бины": 5032,
      "##бикова": 5033,
      "##бицкая": 5034,
      "##бийск": 5035,
      "##бизнес": 5036,
      "арб": 5037,
      "арми": 5038,
      "суббот": 5039,
      "сущевский": 5040,
      "##арла": 5041,
      "##артем": 5042,
      "судженск": 5043,
      "##есс": 5044,
      "##ичо": 5045,
      "##ичи": 5046,
      "##ныш": 5047,
      "##ными": 5048,
      "месту": 5049,
      "местов": 5050,
      "местоджалиля": 5051,
      "месторожд": 5052,
      "##льного": 5053,
      "##льского": 5054,
      "##льское": 5055,
      "асад": 5056,
      "##риева": 5057,
      "##ридов": 5058,
      "##ритор": 5059,
      "##еда": 5060,
      "##едне": 5061,
      "##едании": 5062,
      "##онский": 5063,
      "##ончак": 5064,
      "##рованный": 5065,
      "##урн": 5066,
      "##атральная": 5067,
      "##ине": 5068,
      "##иностроитель": 5069,
      "##алиль": 5070,
      "##алиевна": 5071,
      "##алистическая": 5072,
      ">))": 5073,
      ".:.": 5074,
      ".:(<": 5075,
      "##заги": 5076,
      "месторег": 5077,
      "мож": 5078,
      "моло": 5079,
      "мотор": 5080,
      "мокро": 5081,
      "монах": 5082,
      "##кош": 5083,
      "##кой": 5084,
      "##кого": 5085,
      "##кольная": 5086,
      "городд": 5087,
      "городро": 5088,
      "городов": 5089,
      "городской": 5090,
      "городаль": 5091,
      "городус": 5092,
      "городбр": 5093,
      "городмур": 5094,
      "городлю": 5095,
      "городок": 5096,
      "городарм": 5097,
      "городкам": 5098,
      "городфе": 5099,
      "городрад": 5100,
      "городстр": 5101,
      "городщелково": 5102,
      "городэлек": 5103,
      "городбийск": 5104,
      "##каев": 5105,
      "##каева": 5106,
      "##кашин": 5107,
      "##сподин": 5108,
      "отн": 5109,
      "отд": 5110,
      "отмен": 5111,
      "пристан": 5112,
      "присут": 5113,
      "приозер": 5114,
      "привокзальная": 5115,
      "реализацию": 5116,
      "##ущем": 5117,
      "##олж": 5118,
      "наиль": 5119,
      "насто": 5120,
      "нагорная": 5121,
      "налоб": 5122,
      "##ового": 5123,
      "сталь": 5124,
      "старая": 5125,
      "стерлитамак": 5126,
      "стоимость": 5127,
      "стороны": 5128,
      "##групп": 5129,
      "##киль": 5130,
      "##киевский": 5131,
      "##кидзе": 5132,
      "##ярный": 5133,
      "##дил": 5134,
      "##диной": 5135,
      "##директ": 5136,
      "красной": 5137,
      "прос": 5138,
      "прош": 5139,
      "прод": 5140,
      "пронина": 5141,
      "продав": 5142,
      "дерга": 5143,
      "рожден": 5144,
      "горно": 5145,
      "горка": 5146,
      "горшков": 5147,
      "##евне": 5148,
      "##алым": 5149,
      "##гик": 5150,
      "##гих": 5151,
      "##гиной": 5152,
      "##гильд": 5153,
      "##ельск": 5154,
      "##ельцова": 5155,
      "деревнярм": 5156,
      "##асар": 5157,
      "##ольный": 5158,
      "##ольфович": 5159,
      "орды": 5160,
      "орёл": 5161,
      "##гепас": 5162,
      "##осач": 5163,
      "##лица": 5164,
      "сернур": 5165,
      "серафон": 5166,
      "сервис": 5167,
      "серебр": 5168,
      "улице": 5169,
      "улицан": 5170,
      "улицая": 5171,
      "улицар": 5172,
      "улицана": 5173,
      "##градская": 5174,
      "##страция": 5175,
      "##вои": 5176,
      "##возд": 5177,
      "##вознес": 5178,
      "##утина": 5179,
      "##утовская": 5180,
      "сергеев": 5181,
      "сергеева": 5182,
      "##ятской": 5183,
      "##ятков": 5184,
      "##ятинская": 5185,
      "##бинка": 5186,
      "##авр": 5187,
      "##авская": 5188,
      "##авина": 5189,
      "##ством": 5190,
      "петух": 5191,
      "петрос": 5192,
      "ануф": 5193,
      "анверовна": 5194,
      "прич": 5195,
      "пруд": 5196,
      "преб": 5197,
      "прям": 5198,
      "##янс": 5199,
      "##янской": 5200,
      "##яндж": 5201,
      "##родвинск": 5202,
      "сап": 5203,
      "садов": 5204,
      "саккул": 5205,
      "##ковск": 5206,
      "##ковый": 5207,
      ">;.": 5208,
      "алдар": 5209,
      "алтыш": 5210,
      "алтуд": 5211,
      "##ежского": 5212,
      "##ежной": 5213,
      "##ежное": 5214,
      "##ежевой": 5215,
      "##абльский": 5216,
      "новое": 5217,
      "новоусман": 5218,
      "новокиевский": 5219,
      "перел": 5220,
      "##гау": 5221,
      "##гаева": 5222,
      "##гаполь": 5223,
      "##гачев": 5224,
      "##гаджи": 5225,
      "кондрат": 5226,
      "конфед": 5227,
      "кус": 5228,
      "куч": 5229,
      "кукс": 5230,
      "куса": 5231,
      "кунг": 5232,
      "кулакова": 5233,
      "##ейт": 5234,
      "##ейнов": 5235,
      "мик": 5236,
      "мика": 5237,
      "минист": 5238,
      "микро": 5239,
      "мишеро": 5240,
      "волод": 5241,
      "волкова": 5242,
      "волош": 5243,
      "самвел": 5244,
      "##аку": 5245,
      "##акина": 5246,
      "##акович": 5247,
      "никольское": 5248,
      "##ашко": 5249,
      "николаев": 5250,
      "николаевка": 5251,
      "ленинского": 5252,
      "опыт": 5253,
      "##редством": 5254,
      "##говка": 5255,
      "киевский": 5256,
      "киевск": 5257,
      "кишин": 5258,
      "##отека": 5259,
      "стрельцова": 5260,
      "марков": 5261,
      "марта": 5262,
      "марины": 5263,
      "мариан": 5264,
      "##итим": 5265,
      "##итова": 5266,
      "##ителя": 5267,
      "##итект": 5268,
      "виктора": 5269,
      "определения": 5270,
      "##рата": 5271,
      "##ратинского": 5272,
      "##ратиче": 5273,
      "##еление": 5274,
      "определение": 5275,
      "краснокамен": 5276,
      "краснозерский": 5277,
      "улицах": 5278,
      "улицаост": 5279,
      "улицаим": 5280,
      "улицадр": 5281,
      "улицаад": 5282,
      "улицараз": 5283,
      "улицамира": 5284,
      "улицафр": 5285,
      "улицароди": 5286,
      "улицажелезнодорож": 5287,
      "омарова": 5288,
      "##альский": 5289,
      "##альное": 5290,
      "##альянс": 5291,
      "##ханы": 5292,
      "торгово": 5293,
      "тюлю": 5294,
      "посредством": 5295,
      "##тиец": 5296,
      "##ымсакова": 5297,
      "##агина": 5298,
      "##циалистическая": 5299,
      "страницыт": 5300,
      "страницыка": 5301,
      "страницыакс": 5302,
      "страницыса": 5303,
      "страницыново": 5304,
      "страницыбай": 5305,
      "страницыисин": 5306,
      "страницыалекс": 5307,
      "страницыиш": 5308,
      "страницыилек": 5309,
      "страницыдат": 5310,
      "страницымих": 5311,
      "страницыверх": 5312,
      "страницывознес": 5313,
      "несостоятельнымбанкротом": 5314,
      "санктпет": 5315,
      "ставка": 5316,
      "торговый": 5317,
      "##мах": 5318,
      "##маат": 5319,
      "##маровна": 5320,
      "##маков": 5321,
      "##мацев": 5322,
      "республикаот": 5323,
      "республикаадыгея": 5324,
      "республикаукра": 5325,
      "республикаказах": 5326,
      "республикасаха": 5327,
      "алексеевны": 5328,
      "алексеевское": 5329,
      "дмитров": 5330,
      "организации": 5331,
      "евла": 5332,
      "юрченко": 5333,
      "##усов": 5334,
      "##усмотр": 5335,
      "ставропольская": 5336,
      "корот": 5337,
      "кона": 5338,
      "кочен": 5339,
      "кораб": 5340,
      "копаева": 5341,
      "кокчет": 5342,
      "##унди": 5343,
      "##унду": 5344,
      "белг": 5345,
      "белова": 5346,
      "белог": 5347,
      "белый": 5348,
      "белинского": 5349,
      "##ильевич": 5350,
      "##емерово": 5351,
      "##ахма": 5352,
      "##манж": 5353,
      "##манск": 5354,
      "##мановского": 5355,
      "##адеева": 5356,
      "##ональный": 5357,
      "##исы": 5358,
      "##исовой": 5359,
      "курского": 5360,
      "курчат": 5361,
      "курум": 5362,
      "куранах": 5363,
      "куркуж": 5364,
      "поп": 5365,
      "погор": 5366,
      "показ": 5367,
      "позд": 5368,
      "полиции": 5369,
      "похви": 5370,
      "##вердловск": 5371,
      "александровичу": 5372,
      "##ышин": 5373,
      "##ышаст": 5374,
      "датамес": 5375,
      "гряз": 5376,
      "групп": 5377,
      "гремяч": 5378,
      "##мой": 5379,
      "##молино": 5380,
      "##арак": 5381,
      "##иловна": 5382,
      "соасср": 5383,
      "васин": 5384,
      "оренбургский": 5385,
      "новод": 5386,
      "новов": 5387,
      "новож": 5388,
      "новиков": 5389,
      "##тале": 5390,
      "##таева": 5391,
      "##таево": 5392,
      "александры": 5393,
      "александру": 5394,
      "александрийская": 5395,
      "##даровна": 5396,
      "казакова": 5397,
      "казанское": 5398,
      "казарян": 5399,
      "##елеб": 5400,
      "##елё": 5401,
      "решил": 5402,
      "чугу": 5403,
      "##ушина": 5404,
      "##ушкин": 5405,
      "##ушкина": 5406,
      "##ушино": 5407,
      "##айловское": 5408,
      "частью": 5409,
      "лив": 5410,
      "лини": 5411,
      "лиханова": 5412,
      "лихач": 5413,
      "российск": 5414,
      "##рук": 5415,
      "##руется": 5416,
      "##ульян": 5417,
      "##ульдет": 5418,
      "аксай": 5419,
      "акбулак": 5420,
      "акций": 5421,
      "##карева": 5422,
      "##епанова": 5423,
      "##новая": 5424,
      "приморско": 5425,
      "михайловская": 5426,
      "михайловой": 5427,
      "михайловское": 5428,
      "##новка": 5429,
      "##новоруд": 5430,
      "##абаева": 5431,
      "валериевна": 5432,
      "заи": 5433,
      "зале": 5434,
      "залес": 5435,
      "запуст": 5436,
      "запорож": 5437,
      "западная": 5438,
      "черн": 5439,
      "чернушка": 5440,
      "черныш": 5441,
      "черкашин": 5442,
      "черепанова": 5443,
      "карбыш": 5444,
      "карпова": 5445,
      "кариан": 5446,
      "карельской": 5447,
      "карьер": 5448,
      "каргаполь": 5449,
      "##тоуст": 5450,
      "##мурзаева": 5451,
      "томв": 5452,
      "##ихинского": 5453,
      "##некамск": 5454,
      "бры": 5455,
      "##виш": 5456,
      "##вид": 5457,
      "##винова": 5458,
      "##кращено": 5459,
      "борский": 5460,
      "борское": 5461,
      "каменский": 5462,
      "камызяк": 5463,
      "##чика": 5464,
      "##чиков": 5465,
      "##амбов": 5466,
      "светлый": 5467,
      "калитва": 5468,
      "##узова": 5469,
      "дмитрию": 5470,
      "адмирала": 5471,
      "члены": 5472,
      "##люч": 5473,
      "открыти": 5474,
      "открытых": 5475,
      "любинский": 5476,
      "олега": 5477,
      "##жиев": 5478,
      "##жидович": 5479,
      "##жинирин": 5480,
      "верб": 5481,
      "вермишева": 5482,
      "вербицкая": 5483,
      "калиниченко": 5484,
      "гендирект": 5485,
      "масках": 5486,
      "рекаш": 5487,
      "рекаю": 5488,
      "рекагород": 5489,
      "рекаадыгея": 5490,
      "игоря": 5491,
      "##укский": 5492,
      "##укайский": 5493,
      "городсева": 5494,
      "городсорта": 5495,
      "городсерпухов": 5496,
      "городсорочинск": 5497,
      "городсвердловск": 5498,
      "брянский": 5499,
      "рафи": 5500,
      "##бербаш": 5501,
      "##няков": 5502,
      "бурмист": 5503,
      "бурятской": 5504,
      "артура": 5505,
      "артуровна": 5506,
      "абуш": 5507,
      "абсал": 5508,
      "пунктб": 5509,
      "пунктв": 5510,
      "пунктп": 5511,
      "пунктлян": 5512,
      "пунктноворуд": 5513,
      "##ужный": 5514,
      "##ужева": 5515,
      "##ухова": 5516,
      "##ухинского": 5517,
      "орловского": 5518,
      "ильгиз": 5519,
      "ильмень": 5520,
      "ильгиза": 5521,
      "корне": 5522,
      "корса": 5523,
      "##бег": 5524,
      "##бекова": 5525,
      "##еченского": 5526,
      "##ромышленная": 5527,
      "сир": 5528,
      "сив": 5529,
      "##угина": 5530,
      "##чаков": 5531,
      "##часть": 5532,
      "инхело": 5533,
      "октябре": 5534,
      "деревняс": 5535,
      "деревнягар": 5536,
      "деревняфи": 5537,
      "романов": 5538,
      "барыш": 5539,
      "баранова": 5540,
      "баргуз": 5541,
      "бардымский": 5542,
      "балтиец": 5543,
      "ульяна": 5544,
      "вячеслава": 5545,
      "капуст": 5546,
      "капр": 5547,
      "лопа": 5548,
      "логи": 5549,
      "морская": 5550,
      "##ократиче": 5551,
      "##чато": 5552,
      "вячеславовны": 5553,
      "бого": 5554,
      "богород": 5555,
      "надым": 5556,
      "надтер": 5557,
      "дмани": 5558,
      "дмсо": 5559,
      "павленко": 5560,
      "павлодар": 5561,
      "терентьева": 5562,
      "территор": 5563,
      "производит": 5564,
      "производственная": 5565,
      "куйбышева": 5566,
      "донецк": 5567,
      "донецкой": 5568,
      "##лора": 5569,
      "берего": 5570,
      "бернара": 5571,
      "бережной": 5572,
      "джеты": 5573,
      "джам": 5574,
      "джалиль": 5575,
      "максимова": 5576,
      "цаау": 5577,
      "шиш": 5578,
      "шишкина": 5579,
      "ширинский": 5580,
      "шигале": 5581,
      "ширинского": 5582,
      "##джанова": 5583,
      "##джони": 5584,
      "##ляков": 5585,
      "марийская": 5586,
      "леонт": 5587,
      "лешук": 5588,
      "##екамск": 5589,
      "##диновна": 5590,
      "максиму": 5591,
      "максимовна": 5592,
      "даровской": 5593,
      "дачная": 5594,
      "денисов": 5595,
      "костина": 5596,
      "костек": 5597,
      "##баевна": 5598,
      "##бакова": 5599,
      "##еленая": 5600,
      "городбалашиха": 5601,
      "городбугуруслан": 5602,
      "городблаговещенск": 5603,
      "верхош": 5604,
      "центрального": 5605,
      "##левск": 5606,
      "##левской": 5607,
      "##левский": 5608,
      "##ринская": 5609,
      "##ринка": 5610,
      "парковая": 5611,
      "парковый": 5612,
      "федю": 5613,
      "##ьянский": 5614,
      "валерьевича": 5615,
      "летняя": 5616,
      "##фарова": 5617,
      "##латовна": 5618,
      "##линской": 5619,
      "предыд": 5620,
      "предлага": 5621,
      "предусмотр": 5622,
      "васильевича": 5623,
      "ахва": 5624,
      "большое": 5625,
      "галины": 5626,
      "русский": 5627,
      "руслана": 5628,
      "##иковна": 5629,
      "городтольятти": 5630,
      "городташкент": 5631,
      "городторжок": 5632,
      "городтомск": 5633,
      "городтамбов": 5634,
      "открытое": 5635,
      "открытой": 5636,
      "открытого": 5637,
      "помещения": 5638,
      "карач": 5639,
      "##умова": 5640,
      "##умана": 5641,
      "улицакруп": 5642,
      "улицакарла": 5643,
      "действующего": 5644,
      "альбины": 5645,
      "букаш": 5646,
      "дария": 5647,
      "муста": 5648,
      "никитина": 5649,
      "никифоров": 5650,
      "антоновка": 5651,
      "евгеньевича": 5652,
      "казахстанской": 5653,
      "смоленский": 5654,
      "выпол": 5655,
      "филат": 5656,
      "челбасская": 5657,
      "южное": 5658,
      "##стопол": 5659,
      "армянская": 5660,
      "армянской": 5661,
      "молдав": 5662,
      "вадимович": 5663,
      "вадимовны": 5664,
      "баты": 5665,
      "батыр": 5666,
      "ерем": 5667,
      "ермаков": 5668,
      "ермолино": 5669,
      "изотова": 5670,
      "извещ": 5671,
      "изображ": 5672,
      "роза": 5673,
      "##онная": 5674,
      "улицаленинград": 5675,
      "крыловская": 5676,
      "крыловский": 5677,
      "бакал": 5678,
      "баженова": 5679,
      "бастилии": 5680,
      "махм": 5681,
      "махард": 5682,
      "поляна": 5683,
      "поляков": 5684,
      "рамзановна": 5685,
      "урванский": 5686,
      "школ": 5687,
      "якутская": 5688,
      "##ешетово": 5689,
      "##улиной": 5690,
      "##лёва": 5691,
      "##лёвой": 5692,
      "улицамар": 5693,
      "улицамаяковского": 5694,
      "любови": 5695,
      "витальевны": 5696,
      "лабинск": 5697,
      "малка": 5698,
      "малютина": 5699,
      "малобыково": 5700,
      "скором": 5701,
      "ярмухамет": 5702,
      "##цкое": 5703,
      "##минская": 5704,
      "мирнинский": 5705,
      "починки": 5706,
      "артема": 5707,
      "строительство": 5708,
      "удмуртская": 5709,
      "геннадьевичу": 5710,
      "господин": 5711,
      "панклуб": 5712,
      "панкратова": 5713,
      "сарымсакова": 5714,
      "смирновой": 5715,
      "##метова": 5716,
      "##фиг": 5717,
      "березка": 5718,
      "березово": 5719,
      "березовский": 5720,
      "березовка": 5721,
      "временного": 5722,
      "атинской": 5723,
      "атяш": 5724,
      "благовар": 5725,
      "добролю": 5726,
      "добринка": 5727,
      "котов": 5728,
      "котова": 5729,
      "котовск": 5730,
      "который": 5731,
      "слончак": 5732,
      "##канд": 5733,
      "##гулевск": 5734,
      "##еликс": 5735,
      "##павловск": 5736,
      "городчита": 5737,
      "городчебокс": 5738,
      "городчайковский": 5739,
      "продажи": 5740,
      "дмитриевича": 5741,
      "завода": 5742,
      "заводская": 5743,
      "железнодорожной": 5744,
      "железнодорожники": 5745,
      "демократиче": 5746,
      "дубна": 5747,
      "дубовский": 5748,
      "дубовка": 5749,
      "дубрава": 5750,
      "елисеева": 5751,
      "егорлы": 5752,
      "лука": 5753,
      "лукина": 5754,
      "луначарского": 5755,
      "минераль": 5756,
      "минусинск": 5757,
      "рустам": 5758,
      "савин": 5759,
      "шахтер": 5760,
      "эльдар": 5761,
      "эльмира": 5762,
      "##конов": 5763,
      "##olin": 5764,
      "##ропет": 5765,
      "улицабуденного": 5766,
      "сибирь": 5767,
      "сибирский": 5768,
      "болот": 5769,
      "болгар": 5770,
      "болотова": 5771,
      "климова": 5772,
      "лазарев": 5773,
      "медвеж": 5774,
      "медперс": 5775,
      "руденко": 5776,
      "рудянка": 5777,
      "руднян": 5778,
      "рудольфович": 5779,
      "трейд": 5780,
      "харьков": 5781,
      "чиш": 5782,
      "чиасср": 5783,
      "чистопольский": 5784,
      "комсомольского": 5785,
      "коммерческого": 5786,
      "петровича": 5787,
      "ленингр": 5788,
      "ленинское": 5789,
      "кириллова": 5790,
      "##тажное": 5791,
      "степанов": 5792,
      "магомедович": 5793,
      "магомедовна": 5794,
      "сургутский": 5795,
      "русланович": 5796,
      "азербайджанская": 5797,
      "агент": 5798,
      "бородино": 5799,
      "вооруж": 5800,
      "вороты": 5801,
      "герас": 5802,
      "голыш": 5803,
      "манг": 5804,
      "мельник": 5805,
      "назнач": 5806,
      "ногина": 5807,
      "ногинский": 5808,
      "ногайский": 5809,
      "провод": 5810,
      "связ": 5811,
      "симакова": 5812,
      "симферополь": 5813,
      "семиреч": 5814,
      "фрунзе": 5815,
      "фарид": 5816,
      "фархад": 5817,
      "фармацев": 5818,
      "холм": 5819,
      "##гинка": 5820,
      "##ченков": 5821,
      "##пуголи": 5822,
      "##ендер": 5823,
      "##рамовна": 5824,
      "рестор": 5825,
      "##лесная": 5826,
      "нефтяников": 5827,
      "нефтекамск": 5828,
      "улицатруд": 5829,
      "садовое": 5830,
      "красноармейск": 5831,
      "кошки": 5832,
      "кошех": 5833,
      "макаров": 5834,
      "радио": 5835,
      "радик": 5836,
      "радикович": 5837,
      "радищева": 5838,
      "ефрем": 5839,
      "аскарово": 5840,
      "днр": 5841,
      "ишеевка": 5842,
      "кандалак": 5843,
      "ключевский": 5844,
      "ключникова": 5845,
      "пушкин": 5846,
      "сатурн": 5847,
      "тихонов": 5848,
      "ташкентской": 5849,
      "##охина": 5850,
      "##шилова": 5851,
      "##тамукайский": 5852,
      "##страницы": 5853,
      "##странты": 5854,
      "##ерации": 5855,
      "##питал": 5856,
      "коммунар": 5857,
      "городкерч": 5858,
      "городкоролев": 5859,
      "городкемерово": 5860,
      "сергиенко": 5861,
      "##елевич": 5862,
      "##нечный": 5863,
      "городволжский": 5864,
      "городкраснозаводск": 5865,
      "филипп": 5866,
      "слобода": 5867,
      "слободского": 5868,
      "слободское": 5869,
      "работы": 5870,
      "работники": 5871,
      "староминский": 5872,
      ".(<": 5873,
      "бычков": 5874,
      "гагик": 5875,
      "гусь": 5876,
      "гусева": 5877,
      "гусейнов": 5878,
      "давыд": 5879,
      "дружный": 5880,
      "дружбы": 5881,
      "илдаровна": 5882,
      "ковер": 5883,
      "ковыл": 5884,
      "куба": 5885,
      "калачинского": 5886,
      "нартан": 5887,
      "нарткала": 5888,
      "рябикова": 5889,
      "сайрам": 5890,
      "трапез": 5891,
      "тамара": 5892,
      "тамары": 5893,
      "тамерлан": 5894,
      "уваров": 5895,
      "уварово": 5896,
      "##булат": 5897,
      "##булах": 5898,
      "городмончегорск": 5899,
      "городмуром": 5900,
      "городнальчик": 5901,
      "городчереповец": 5902,
      "отрадный": 5903,
      "отрадная": 5904,
      "отрадненский": 5905,
      "##кировали": 5906,
      "новоселов": 5907,
      "софьи": 5908,
      "лидер": 5909,
      "долговка": 5910,
      "верхнек": 5911,
      "верхнеуральск": 5912,
      "чебоксарский": 5913,
      "зарегистрированной": 5914,
      "проведения": 5915,
      "статьяоктябрьская": 5916,
      "аникина": 5917,
      "аауцф": 5918,
      "байсу": 5919,
      "баймак": 5920,
      "бавлинский": 5921,
      "бавлинского": 5922,
      "гульшат": 5923,
      "ларисы": 5924,
      "макеевка": 5925,
      "мадинат": 5926,
      "мухина": 5927,
      "мухамед": 5928,
      "малошуй": 5929,
      "малопург": 5930,
      "однако": 5931,
      "озерск": 5932,
      "озерный": 5933,
      "томи": 5934,
      "тофиг": 5935,
      "успенский": 5936,
      "успенская": 5937,
      "успенка": 5938,
      "формой": 5939,
      "шевченко": 5940,
      "шевелева": 5941,
      "шевелё": 5942,
      "шатохина": 5943,
      "юбилейный": 5944,
      "##ямова": 5945,
      "##острой": 5946,
      "##ничество": 5947,
      "суслов": 5948,
      "султ": 5949,
      "городзвени": 5950,
      "городнижнекамск": 5951,
      "прожив": 5952,
      "виноградовский": 5953,
      "новопетровка": 5954,
      "мироненко": 5955,
      "кизел": 5956,
      "кизил": 5957,
      "кизильский": 5958,
      "воробьева": 5959,
      "солнечное": 5960,
      "солнечногорск": 5961,
      "высокая": 5962,
      "высокое": 5963,
      "рамазан": 5964,
      "рамазановна": 5965,
      "львович": 5966,
      "энгельса": 5967,
      "магаданская": 5968,
      "лебедев": 5969,
      "арзамасского": 5970,
      "агачский": 5971,
      "алёны": 5972,
      "гомельская": 5973,
      "гари": 5974,
      "дорожно": 5975,
      "зайнуллина": 5976,
      "здание": 5977,
      "заседании": 5978,
      "исма": 5979,
      "исламей": 5980,
      "квартале": 5981,
      "ленстрой": 5982,
      "латв": 5983,
      "латыпов": 5984,
      "мичурин": 5985,
      "пале": 5986,
      "славск": 5987,
      "сосновка": 5988,
      "таран": 5989,
      "тарханы": 5990,
      "учитель": 5991,
      "учителя": 5992,
      "шуми": 5993,
      "шестакова": 5994,
      "шарья": 5995,
      "юности": 5996,
      "##лоновский": 5997,
      "##чугова": 5998,
      "##зированный": 5999,
      "##андинская": 6000,
      "суворова": 6001,
      "антонина": 6002,
      "салаватович": 6003,
      "кустанайская": 6004,
      "марселе": 6005,
      "маргариты": 6006,
      "кочкарев": 6007,
      "##ональных": 6008,
      "тамбове": 6009,
      "сидор": 6010,
      "мордовской": 6011,
      "федоренко": 6012,
      "федоровна": 6013,
      "героя": 6014,
      "закрытия": 6015,
      "мамедов": 6016,
      "мамедова": 6017,
      "бакунинская": 6018,
      "филиппин": 6019,
      "песчанка": 6020,
      "азовская": 6021,
      "аммаат": 6022,
      "алатыр": 6023,
      "векв": 6024,
      "векн": 6025,
      "гасан": 6026,
      "гасанова": 6027,
      "габбас": 6028,
      "габдул": 6029,
      "деятель": 6030,
      "демидова": 6031,
      "жукова": 6032,
      "жуковского": 6033,
      "земетчинский": 6034,
      "зинченко": 6035,
      "кайби": 6036,
      "левон": 6037,
      "мурав": 6038,
      "малая": 6039,
      "россошь": 6040,
      "рузский": 6041,
      "рузского": 6042,
      "средних": 6043,
      "ткаченко": 6044,
      "тулома": 6045,
      "хорошева": 6046,
      "чеченская": 6047,
      "шабанова": 6048,
      "эстейт": 6049,
      "невельск": 6050,
      "архитект": 6051,
      "##аллургов": 6052,
      "##гирский": 6053,
      "оршанского": 6054,
      "оршанка": 6055,
      "улицазеленая": 6056,
      "улицашкольная": 6057,
      "общественной": 6058,
      "петушки": 6059,
      "антрацит": 6060,
      "сафронова": 6061,
      "саидович": 6062,
      "красногвардейский": 6063,
      "улицаэнтузиастов": 6064,
      "копейск": 6065,
      "коноково": 6066,
      "политех": 6067,
      "черкасова": 6068,
      "##няховского": 6069,
      "городбелгород": 6070,
      "городбелорецк": 6071,
      "ахтарск": 6072,
      "караганда": 6073,
      "карагандинская": 6074,
      "букреевка": 6075,
      "муромцев": 6076,
      "муромцево": 6077,
      "ильясович": 6078,
      "рузаевка": 6079,
      "клубный": 6080,
      "муслюмово": 6081,
      "муслюмовского": 6082,
      "тарасовский": 6083,
      "днепровская": 6084,
      "днепропет": 6085,
      "профсоюзная": 6086,
      "протестных": 6087,
      "боровский": 6088,
      "баганского": 6089,
      "ванюшкина": 6090,
      "венге": 6091,
      "джиликуль": 6092,
      "золотухинского": 6093,
      "искитим": 6094,
      "исаева": 6095,
      "кожевникова": 6096,
      "озеро": 6097,
      "осинни": 6098,
      "осипенко": 6099,
      "песковка": 6100,
      "равильевич": 6101,
      "собствен": 6102,
      "севастополь": 6103,
      "свиридов": 6104,
      "теофи": 6105,
      "театральная": 6106,
      "тазовский": 6107,
      "тлянада": 6108,
      "тляратинского": 6109,
      "умарова": 6110,
      "чекмаг": 6111,
      "шульгинка": 6112,
      "##осковск": 6113,
      "образцовка": 6114,
      "##район": 6115,
      "ребриха": 6116,
      "арнольд": 6117,
      "прохлад": 6118,
      "владимировне": 6119,
      "владимировну": 6120,
      "##утдинов": 6121,
      "##утдиновой": 6122,
      "прекращено": 6123,
      "##галеевна": 6124,
      "стрелкова": 6125,
      "стрелковой": 6126,
      "марьяновский": 6127,
      "марьяновка": 6128,
      "краснотуранск": 6129,
      "улицачерняховского": 6130,
      "страницырешетово": 6131,
      "заларинский": 6132,
      "пункттульский": 6133,
      "городвладикавказ": 6134,
      "бараново": 6135,
      "баранчинский": 6136,
      "окружная": 6137,
      "широкая": 6138,
      "ахмедович": 6139,
      "колпна": 6140,
      "колпнян": 6141,
      "колосовка": 6142,
      "улицакрасно": 6143,
      "альбертовна": 6144,
      "севером": 6145,
      "северодвинск": 6146,
      "улицапрофсою": 6147,
      "урмары": 6148,
      "демонстрация": 6149,
      "демонстранты": 6150,
      "хасавюртовский": 6151,
      "бологовский": 6152,
      "анисимово": 6153,
      "площадь": 6154,
      "площадью": 6155,
      "городзаринск": 6156,
      "городзаречный": 6157,
      "воробьевка": 6158,
      "кунашакского": 6159,
      "мантурово": 6160,
      "мантуровский": 6161,
      "нефтеюганск": 6162,
      "выселки": 6163,
      "еткульский": 6164,
      "лотошино": 6165,
      "херсонская": 6166,
      "чегемский": 6167,
      "французской": 6168,
      "алешня": 6169,
      "адлан": 6170,
      "байкальская": 6171,
      "беларус": 6172,
      "вениамин": 6173,
      "вичуга": 6174,
      "вахруши": 6175,
      "гаврилова": 6176,
      "гуково": 6177,
      "десятков": 6178,
      "жкх": 6179,
      "жд_ст": 6180,
      "зыкова": 6181,
      "задержаны": 6182,
      "ивашкин": 6183,
      "курагинский": 6184,
      "кутлу": 6185,
      "каверзиной": 6186,
      "когалым": 6187,
      "княжев": 6188,
      "калашник": 6189,
      "кыргыз": 6190,
      "лосино": 6191,
      "машиностроитель": 6192,
      "около": 6193,
      "очаковское": 6194,
      "пугач": 6195,
      "рашид": 6196,
      "состоявшимися": 6197,
      "сырдар": 6198,
      "табасар": 6199,
      "тогучин": 6200,
      "урицкий": 6201,
      "унеча": 6202,
      "фролова": 6203,
      "фоменко": 6204,
      "фирма": 6205,
      "чулкова": 6206,
      "щепет": 6207,
      "щёлково": 6208,
      "ягодное": 6209,
      "##болатовна": 6210,
      "##вшего": 6211,
      "##кумертау": 6212,
      "##томат": 6213,
      "##тобе": 6214,
      "##чихиной": 6215,
      "##псип": 6216,
      "##марий": 6217,
      "нестеренко": 6218,
      "##ницыно": 6219,
      "дельта": 6220,
      "аркадьевич": 6221,
      "суходол": 6222,
      "##ризис": 6223,
      "направления": 6224,
      "улицабаумана": 6225,
      "ангарская": 6226,
      "анжеро": 6227,
      "анжелики": 6228,
      "прежние": 6229,
      "прямое": 6230,
      "сапроново": 6231,
      "региональная": 6232,
      "новоалександ": 6233,
      "пересып": 6234,
      "мильковский": 6235,
      "структуры": 6236,
      "иртышская": 6237,
      "омутинский": 6238,
      "коновалова": 6239,
      "грече": 6240,
      "сопауальянс": 6241,
      "новомосковск": 6242,
      "чухлома": 6243,
      "акмолинской": 6244,
      "заполярный": 6245,
      "чернозем": 6246,
      "черлакского": 6247,
      "черняховск": 6248,
      "картотека": 6249,
      "кармаскалинского": 6250,
      "светлоярский": 6251,
      "люксембург": 6252,
      "олеговны": 6253,
      "август": 6254,
      "генерала": 6255,
      "ракитное": 6256,
      "абзелил": 6257,
      "абрамов": 6258,
      "абдулзаги": 6259,
      "абхазская": 6260,
      "инзенский": 6261,
      "кузьменко": 6262,
      "бочкарева": 6263,
      "заблокировали": 6264,
      "партнер": 6265,
      "большеречье": 6266,
      "мунировна": 6267,
      "городпетропавловск": 6268,
      "богаткова": 6269,
      "шамильский": 6270,
      "аткарск": 6271,
      "благодарный": 6272,
      "союзсро": 6273,
      "заводоуковск": 6274,
      "фоминск": 6275,
      "клявлино": 6276,
      "воскрес": 6277,
      "улицататищева": 6278,
      "тимошенков": 6279,
      "тихомирова": 6280,
      "профессиональных": 6281,
      "груздев": 6282,
      "наримановский": 6283,
      "одесская": 6284,
      "чкаловского": 6285,
      "авиасообщение": 6286,
      "мичуринский": 6287,
      "планируется": 6288,
      "фамилии": 6289,
      "специализированный": 6290,
      "балахна": 6291,
      "буденновский": 6292,
      "государственной": 6293,
      "ткачёв": 6294,
      "миллерово": 6295,
      "красногвардейское": 6296,
      "ильинична": 6297,
      "ахтубинского": 6298,
      "исполнения": 6299,
      "межреги": 6300,
      "сотрудников": 6301,
      "хмельницкого": 6302,
      "отсутствуют": 6303,
      "антикризис": 6304,
      "авангардная": 6305,
      "забастовку": 6306,
      "оконешниково": 6307,
      "хрустальный": 6308,
      "экономики": 6309,
      "подосиновец": 6310,
      "aurelie": 6311,
      "cfdt": 6312,
      "eurolin": 6313,
      "lvmh": 6314,
      "moris": 6315,
      "азамат": 6316,
      "афипсип": 6317,
      "внуковское": 6318,
      "гсургут": 6319,
      "гургенович": 6320,
      "глангепас": 6321,
      "гардаб": 6322,
      "дарасун": 6323,
      "есенина": 6324,
      "емельян": 6325,
      "жуковой": 6326,
      "златоуст": 6327,
      "зима": 6328,
      "игна": 6329,
      "княз": 6330,
      "кфх": 6331,
      "кинель": 6332,
      "лусине": 6333,
      "лысенко": 6334,
      "мортка": 6335,
      "мглинский": 6336,
      "пшичо": 6337,
      "пыть": 6338,
      "повтор": 6339,
      "порожский": 6340,
      "рассвет": 6341,
      "слепцова": 6342,
      "сызрань": 6343,
      "счастливая": 6344,
      "тонша": 6345,
      "тельмана": 6346,
      "тахтамукайский": 6347,
      "техно": 6348,
      "тегульдет": 6349,
      "уразбаевна": 6350,
      "фестива": 6351,
      "фурманов": 6352,
      "хатлонская": 6353,
      "хакимова": 6354,
      "хлевенский": 6355,
      "четвер": 6356,
      "чамзинский": 6357,
      "челяб": 6358,
      "шовген": 6359,
      "яблоновский": 6360,
      "яшкинского": 6361,
      "##байкальск": 6362,
      "##сервис": 6363,
      "##ижемского": 6364,
      "##движ": 6365,
      "##хабад": 6366,
      "##модем": 6367,
      "##фатович": 6368,
      "##футдинова": 6369,
      "##sard": 6370,
      "революции": 6371,
      "банкротстве": 6372,
      "##назарова": 6373,
      "несколько": 6374,
      "подгорцы": 6375,
      "городальметьевск": 6376,
      "городусолье": 6377,
      "городмурманск": 6378,
      "городлюберцы": 6379,
      "городармавир": 6380,
      "городфеодосия": 6381,
      "городрадужный": 6382,
      "городстрежевой": 6383,
      "городэлектросталь": 6384,
      "присутствовали": 6385,
      "настоящ": 6386,
      "серафонтов": 6387,
      "петросян": 6388,
      "ануфриева": 6389,
      "пребывания": 6390,
      "саккулово": 6391,
      "алдаркино": 6392,
      "алтышево": 6393,
      "новоусманский": 6394,
      "конфедерации": 6395,
      "кунгур": 6396,
      "министерства": 6397,
      "микрорайон": 6398,
      "мишеронский": 6399,
      "улицаадмирала": 6400,
      "улицараздольная": 6401,
      "улицафрунзе": 6402,
      "улицажелезнодорожная": 6403,
      "страницыбайны": 6404,
      "страницыисинга": 6405,
      "страницыалексеевка": 6406,
      "страницыишлеи": 6407,
      "страницыдатуна": 6408,
      "страницымихайловское": 6409,
      "страницывознесеновка": 6410,
      "санктпетербург": 6411,
      "республикаукраина": 6412,
      "республикаказахстан": 6413,
      "корабельная": 6414,
      "##ундуки": 6415,
      "курчатов": 6416,
      "куркужин": 6417,
      "похвистн": 6418,
      "##ышастовская": 6419,
      "российских": 6420,
      "запустить": 6421,
      "##жиниринг": 6422,
      "гендиректора": 6423,
      "городсортавала": 6424,
      "абсалямова": 6425,
      "пунктлянгасово": 6426,
      "пунктноворудный": 6427,
      "корсаков": 6428,
      "деревнягаревая": 6429,
      "деревняфилатово": 6430,
      "капустин": 6431,
      "береговая": 6432,
      "шигалеево": 6433,
      "##джоникидзе": 6434,
      "леонтьева": 6435,
      "лешуконский": 6436,
      "верхошижемского": 6437,
      "улицакрупской": 6438,
      "выползово": 6439,
      "##стополя": 6440,
      "извещает": 6441,
      "изображением": 6442,
      "улицаленинградская": 6443,
      "ярмухаметов": 6444,
      "добролюбова": 6445,
      "городчебоксары": 6446,
      "демократической": 6447,
      "минеральные": 6448,
      "медвеженский": 6449,
      "медперсонал": 6450,
      "вооружение": 6451,
      "назначения": 6452,
      "семиреченская": 6453,
      "фармацевты": 6454,
      "городкерчь": 6455,
      "трапезников": 6456,
      "малошуйка": 6457,
      "малопургинский": 6458,
      "городзвенигово": 6459,
      "политехническая": 6460,
      "осинники": 6461,
      "теофиполь": 6462,
      "чекмагуш": 6463,
      "арнольдовна": 6464,
      "демонстрациях": 6465,
      "беларусь": 6466,
      "вениаминович": 6467,
      "кыргызстан": 6468,
      "пересыпь": 6469,
      "черноземье": 6470,
      "абзелиловского": 6471,
      "союзсрогау": 6472,
      "aurelien": 6473,
      "eurolinks": 6474,
      "morissard": 6475
    }
  }
}